#version: 0.2
Ġ Ġ
Ġ (
ĠĠ ĠĠ
Ġ :
i n
Ġ â
Ġ h
o n
e r
ĠĠ Ġ
a l
o r
a t
l e
Ċ Ġ
Ċ ĠĠĠ
Ġ: =
Ġ s
Ċ ĠĠĠĠ
t h
Ġ c
r e
e n
a r
Ġ b
a n
c t
m p
s t
Ġ =
) )
s e
u n
Ġ [
Ġ a
Ġ f
i t
v e
r o
d e
Ġ i
i on
Ġ p
m e
c e
Ġ t
Ġ r
Ġ n
ĠĠĠĠ ĠĠĠĠ
Ġ e
â Ĥ
u l
th e
Ġ x
Ġâ Ħ
Ġ *
Ġâ Ī
ĊĠĠĠĠ Ġ
Ġ Î
o f
Ġâ Ĩ
Ġb y
i c
c o
Ġ m
Ġ 1
a p
g e
in g
Ġh a
Ġ -
Ġ _
Ġ +
Ġ in
l o
r i
i mp
Ġ w
s u
e d
Ġ T
l y
Ġ `
r a
Ġ A
Ġha ve
Ġ F
Ġ S
Ġ {
Ġ the
Ġ d
R e
i v
i f
Ġ 0
en t
o m
) .
i s
Ġâ ī
Ġ C
a ct
Ġ= >
e m
Ġe x
Ġ l
ĠâĦ Ŀ
ĠâĨ Ĵ
n e
0 0
Ġ 2
p e
u t
o p
â Ł
a d
Ġ P
Ġ B
e q
I n
Ġ k
a b
Ġ v
ĊĠĠĠĠ ĠĠĠ
Ġ re
Ġ M
e t
i g
a s
m ul
- -
Ġr w
Ġâ Ł
âŁ ©
u s
p o
c h
o t
i th
at e
Ġ L
Ġ N
Ġâī ¤
ĠâŁ ¨
Ġs imp
Ġ g
Ġ y
c on
o d
t r
ĊĠĠĠĠ ĠĠĠĠ
Ġ le
in t
l d
at ion
or em
e x
Ġ R
i st
se t
Ġ E
Ġ |
a se
m a
Ġex act
or m
u r
ĠĠĠĠĠĠĠĠ ĠĠĠĠĠĠĠĠ
ct ion
c v
âĤ ģ
in e
i d
er o
i ve
t o
Ġ Ï
i e
u p
i l
Ġi s
u b
Ġ ^
if f
the orem
de f
Ġ( (
Ġ z
Ġ j
an d
Ġ I
u e
a ce
Ġ o
Ġ <
h t
C o
Ġ of
y pe
me m
h e
Ġ u
Ġ on
en d
ab le
Ġ Â
t er
f un
t e
Ġ th
or t
c k
t a
) ,
âĤ Ĥ
i al
v al
or d
Ġ .
Ġc on
ĠâĪ Ģ
q u
u m
f l
Re al
p p
Ġf un
Ġ K
Ġ- /
/ --
ĠÎ ±
i m
âĤ Ģ
ĠÂ ·
ce l
a m
ĠâĪ Ī
v er
Ġ G
on e
ĠF in
re s
ad d
ĊĠĠĠĠĠĠĠĠ Ġ
Ġ D
Ġ /
i r
o l
al l
Ġ X
o w
3 2
a me
ĠâĦ ķ
z ero
b y
c c
p l
p ace
Ġ at
f f
ne g
co mp
i z
Ġw ith
po s
an s
w cel
Ġ H
b ra
e c
s s
ge bra
Ġ q
Ġ W
Ġc o
ge t
ap p
un d
g r
it y
Ġle t
1 2
6 4
su b
ar t
c al
m ap
m m
Ģ ĸ
Î »
d d
= =
f t
p ro
lo g
Ġon ly
Ġt o
d u
l t
C on
ar d
it e
F in
Ġ "
)) )
t ro
f v
E x
n on
S t
Ġ 3
le m
Ġ( -
ĠâĨ ¦
ie ld
M ap
Ġ de
00 00
P ro
] ,
Ġ and
c fv
u le
ð Ŀ
e l
ig ht
ic al
Ġin tro
Ġr fl
er iv
N at
e ct
an t
@ [
Ġa pp
as s
v ar
1 0
Ġ V
ĊĠĠĠĠ ĠĠĠĠĠĠĠĠ
o s
s imp
an ge
in d
A t
a u
Ġ( @
ex t
p h
er t
re e
i b
Ġ* *
o us
Ġ 4
A l
mp le
t in
p r
s y
o me
ĠN at
Ġ U
od ule
o und
ro up
su m
i de
I s
Ġ un
ul t
at a
ĠT ype
a su
ig n
Ġ Real
ĠâĪ §
Ġf or
at h
tin u
c l
ri g
a st
O p
1 6
Ġh x
t ion
ta in
2 4
en s
Ġâ Ĭ
Ġs t
5 6
Ġ- -
` .
o int
e s
tr ans
ĊĠĠĠĠ ĠĠĠĠĠĠĠĠĠĠĠĠĠĠĠĠ
Ġp ro
ine ar
pe c
? _
tinu ous
v m
non neg
app ly
Ġapp ly
Ġh s
an ce
o ld
rig ht
á µ
Ġt r
ĊĠĠĠĠĠĠĠĠ ĠĠĠ
V ec
po w
â Ī
1 5
Ġ %
â Ĩ
or y
ĠÎ ²
Ġw h
ase s
i ent
ĠC on
er m
ĠT he
i able
Ġh p
d iv
u al
if t
ĠâĨ Ĳ
S pace
j ect
Ġo b
le ft
lo w
1 4
ĠFin set
ar y
g a
a ck
qu iv
st r
o o
o ur
â Ģĸ
1 9
O n
it ion
or e
on o
ro m
o de
op en
F un
Ġre f
Ġh t
ct or
1 8
w a
imp ort
Ġ ?_
it Vec
f in
u re
Ġâ Ģ
ĠP ro
o c
F ield
i le
Ġh Î
se d
Ġ it
Ġ }
1 7
i x
n d
1 3
p s
a in
lem ma
Ġc h
Ġ us
ĠâĦ Ĥ
)) .
Ġ ðĿ
2 0
e g
om m
ĠL ist
sy mm
Ġ an
p re
Ġ def
er e
ĠI s
âĨ Ĳ
iz e
Ġ Y
ex p
at ch
Ġ In
2 8
Ġob tain
n orm
p ut
b le
mp t
Ġm ul
` ,
H om
' .
ĠS et
W ith
l ic
con st
s h
co e
Ġh f
â Ħ
Ġ( .
Ġus ing
S ub
7 4
O f
ar g
D iff
Ġn orm
Ġ Q
ro w
A dd
Ġth en
g th
r d
le n
V al
at ive
Ġref ine
== ==
3 8
U n
3 9
Ġâī ł
ar ith
Ġi f
L o
ul ar
Al gebra
ra ble
Ġh b
C h
R ing
Ġâ Ģĸ
Ġ $
our ce
er at
Ġc c
ie s
w o
Ġa s
5 4
a g
3 6
s mul
D ata
3 0
Ġs et
S et
p ri
Ġh c
Ġs ub
Ġ #
E quiv
- /
a x
ch e
st ance
me ga
Ã Ĺ
en ce
2 9
m k
/ -
e asu
3 4
D eriv
âŁ© ,
) ]
n ame
Ġh Ï
Ġs h
i me
al se
Ġ ÃĹ
a ir
7 6
un t
5 9
L e
ul l
ĠB itVec
5 8
a y
C ur
er s
in arith
Ġ Re
o ol
de x
â ģ
t ra
or s
Ġf rom
Ġ al
m in
Ġre s
& &
Ġ 8
str u
Ġm ap
Co mp
Ġs e
Ġ[ âĨĲ
] ;
r y
c ard
Ġe l
it ive
7 9
c ases
f old
ĠâĢ ¢
du ct
Ġth is
5 0
in v
2 6
ĠÎ ĵ
de d
at ri
e ight
an g
7 0
o ly
n er
Ġo mega
s pace
a re
ĠâĦ ¤
gr al
L ist
ing le
s q
f or
~ ~
T he
o ut
Cur ve
atri x
Ġsimp a
mpt y
7 8
ub lic
Î ±
lo ck
Ġth at
ject ive
om ial
n ot
Ġh i
Ġ( âĪ
A r
áµ £
i p
var iable
il ter
o log
ĠA l
Ġ J
k e
Ġi mp
r ange
Â ¹
a ge
t end
b r
ct ed
E q
ne l
Ġ 5
Ġp h
Ġtr ue
ri b
n um
y s
T op
t Diff
Ġz ero
G roup
Ġ O
C omm
D e
I cc
c ast
co mm
h s
ĊĠĠĠĠĠĠĠĠĠĠĠĠ Ġ
Ġa dd
up p
et a
c ide
len gth
Ġv al
Ġd o
ur n
Ġp os
Ġh y
ow er
ĠPro p
ĠÎ µ
âģ »
ĠC o
l ib
s p
Ġ Z
i ce
ĠÎ ¹
T o
Ġ+ +
ĠÏ Ĩ
4 8
ma x
n omial
m ono
m odule
-- --
Ġl inarith
Ġr ing
Ġc r
er nel
l vm
Ġf in
l ass
Ġh d
a f
su pp
op tion
t urn
ĠÏ ĥ
With in
I d
b s
e val
er i
an k
ĠW ord
ist s
Ġh n
Re s
Ġel se
Ġn ot
ĠĠĠĠ Ġ
e ff
7 2
mple x
6 0
de al
ĠĠĠĠĠĠĠĠĠĠĠĠĠĠĠĠ ĠĠĠĠĠĠĠĠĠĠĠĠĠĠĠĠ
5 2
P re
it s
g en
mp r
P l
h om
ab s
s m
)) ))
ĠâĪ ĥ
p ublic
Ġs ome
p res
Ġco mp
Ex pr
Ġthe orem
6 8
Ġr ight
me d
1 1
ĠâĪ ĳ
ath lib
oly nomial
s ingle
su re
au x
L inear
Ġ lo
t ype
te s
or ph
St ate
Ġun fold
Ġ_ )
lo sed
Ġwh ere
n at
ri p
ĠÎ ¼
Ġb e
c le
su cc
In t
d eriv
Ġh m
Ġe q
i re
ĠE x
easu re
' ,
pro d
con gr
u ation
e an
p i
ĠT m
Ġf alse
b ase
se l
Ġs u
int er
4 0
Ġn e
ce q
Ġh g
name space
h f
m od
T h
Ġa re
Ġo ut
me asu
' )
ma ge
Ġh r
T r
0000 0000
ord in
ra d
ro ot
Ġon e
Fin set
w br
P ri
Ġimp ort
m b
el l
ĠÏ Ħ
ri ct
B ase
6 9
al gebra
Ġ[ ]
Ġ mem
ĠĠĠĠ ĠĠĠ
Ġh e
B ound
h d
ens or
p ar
a mple
* }
eri od
L im
Ġ en
sel f
ĠâĨ Ķ
n t
ra y
ot ient
a ch
T ype
Ċ ĊĠ
ĠM athlib
Î ²
e y
ir st
ate g
8 8
Ġde cide
con s
ut able
a w
Ġs ign
Q u
ĠÎ »
Ġâ Ĺ
ĠÏ ģ
M od
act ic
r ing
to Nat
g roup
S pec
un iv
ordin ate
r t
B y
Ġl am
od y
co de
M ul
Ġ 6
t on
/- !
te gral
E n
Ġex t
Ġp re
ĠÎ º
m t
ĠS ub
v ate
iz ation
u g
Ġ# [
he ck
Ġh w
as h
o k
Ġh z
Ġ1 2
a il
ĠâĹ ĩ
ve d
âĦ Ŀ
Ġh T
Re g
Fun ction
pl it
in stance
f ix
oo th
9 9
at ed
t op
ra me
Ġ or
5 5
âŁ ¨
s c
Ġ &&
ĠAl gebra
on g
lem ent
w ard
Ex tend
S e
ens ion
ic Curve
8 0
4 4
w ceq
o st
N ame
ar get
con d
ff ine
N orm
om ain
tr ing
ver se
ateg ory
O rd
M odule
Ġ op
b o
olog y
Ġ @
iv ity
ig h
âĤ ĥ
2 2
Ġh l
i se
Ġh k
==== ====
Ġle m
Ġh q
pri vate
sub set
a c
S h
] )
f orm
tr y
Ġm ax
er ent
Ġt ype
ic ient
V ar
P ar
Ï Ĩ
Ġi d
i an
3 7
i er
ve l
Ġ 64
Z ero
r or
te p
S cal
Ġ[ ],
Ġre turn
ĠB ool
con tinuous
P oint
Co de
ã ģ
an on
Lo cal
Ġ_ ,
d v
M em
b ack
Ġc n
Ġcon stru
m ent
f er
co l
ord er
âĤ ĺ
art ial
Ċ Ċ
Ġv ar
Ġc al
ib le
Ġb ase
In ter
erat ed
du ction
q ue
Fin ite
W ord
Tr ans
st o
Ġ< |
ass oc
j oint
e st
b ound
h as
S em
pl ic
sq rt
Ġd iv
Ġh C
Ġlem ma
iz ed
Ġha s
Ġle ft
b e
D ec
Ġval ue
op y
anon ical
ķ ľ
in s
ĠL ean
en er
on ent
at or
int ype
ĊĠĠĠĠĠĠĠĠĠĠĠĠ ĠĠĠ
ĠÏ Ī
st e
Ġm atch
comp utable
Ġ(( (
it ivity
Ġsh ow
upp ort
ode l
Ġch ange
fin ite
ĊĠĠĠĠĠĠĠĠ ĠĠ
Ġh u
eq u
Ġl lvm
Î ĵ
st ant
po int
ĠÎ ´
v ent
Ġfun ction
c y
b er
i mage
ĠS t
ys ical
c s
D iv
Ġh N
Ġf ield
or med
3 5
act or
supp ort
A n
co p
a k
r fl
ul er
ap e
d ge
Ġn one
c re
S um
ut ion
The ory
ĠÎ ³
s pec
Ġr cases
Ġh j
und er
~~ ~
Ġf ile
st rict
h o
ig ma
et i
Ġ 32
Ġcon gr
; >
Ġi h
le an
Ġ< ;>
it er
om orph
ĠI cc
w r
Ġ ~~~
ie ce
as is
' s
s ize
o al
ĠCon tDiff
Î ¼
te g
ĠâĪ ¨
9 6
ap h
ri er
Ġpos itivity
d ing
Ġcal c
Ġs um
i us
m s
Ġn at
i ly
Ġc ases
Ord er
l at
if ic
Co eff
I deal
un ded
a che
Ġc ase
ap er
Ġp ar
Ġh A
ut e
se ction
us h
c r
se s
Ġs k
Ġ \
Ķ Ģ
Ġsign Extend
Ġ2 0
ult i
Ġ| |
Ï ĥ
lo cal
x i
Ġc f
7 7
non computable
d iff
Ġh v
O ld
Ġ under
Ġ1 0
du ce
if orm
Res id
i ag
2 5
ic h
ĊĠĠĠĠĠĠĠĠĠĠĠĠĠĠĠĠĠĠĠĠ ĠĠĠĠĠĠĠĠ
Ġin put
am ily
qu ation
9 0
F or
lo t
en se
` `
Ġ >
erat or
Ġ&& &
lo sure
ve s
pe ct
int ro
Ġ?_ âŁ©
3 3
Ġin ter
of f
or ry
â ĶĢ
o b
re al
ĠCon tinuous
in al
Ġ all
ct ure
M ono
M easure
ct ual
Ġ Op
Lim b
Pro duct
In dex
w n
ix ed
N Real
c d
w ith
f o
Ġre c
ĠIn t
E N
# #
Î ¹
Ġle n
m on
ĠH as
P olynomial
y n
O ut
single ton
Ar g
Ġs p
Ġit s
ra m
h i
g ree
coe ff
of Nat
L en
Ġh S
Ġm k
Ġp air
Ġc mul
A u
l im
* *
au C
auC eti
ate s
for all
Ġ get
Î µ
Ġa b
ver t
f ilter
h a
Ġ_ ).
Ġre g
b it
r ic
add c
ĠâŁ ¶
ex ists
R o
Ġp oint
ce ss
7 5
Ġs o
ame ter
H e
L p
algebra Map
ĠâĪ ŀ
Ġc addc
ĠE vm
Ġconstru ctor
Linear Map
Ġt wo
t x
P tr
ĠÏ ī
âĶĢ âĶĢ
Un it
Ġ ar
p er
tra ct
O ff
Ġ arg
p t
` :
re g
t ic
pri me
ĠU n
var i
---- ----
Ġ(âĪ Ģ
Ġh P
Ġw e
tr u
ðĿ ĵ
ĠÂ ¬
9 8
hd s
f ile
ĠP r
C lass
Ġ} ,
Ġc le
ĠðĿ ĵ
l ift
low er
In tegral
Ġâī «
t wo
ĠF un
ab el
S ource
De f
T erm
ĠðĿ ķľ
on al
Ġst ate
Ġfin ite
P os
P res
Val ue
id able
Ġ|| |
t rib
ĠâĦ ļ
Ġn on
int e
Ġn ame
Ġcon tinuous
ver y
easu rable
am s
ĠT h
6 6
W eight
rip le
mul a
ins ert
By tes
Ġ 7
2 56
Pri me
r pow
Ï Ħ
l am
B lock
N um
ang le
t ri
Ġs ource
M atrix
2 7
ĠM atrix
t In
it ial
il ity
Ġtr ans
measu rable
Ġres ult
Ġg r
ĠâĬ Ĩ
inte gral
ĠÎ ·
G e
in jective
ar k
2 3
Ġ !
sh ow
Ġex p
pro p
g t
ne ss
Ġh B
get Limb
r un
olog ical
t ext
' '
Ġc min
i ld
Â »
l ation
O ne
ĊĠĠĠĠĠĠĠĠĠĠĠĠĠĠĠĠĠĠĠĠ ĠĠĠĠĠĠĠĠĠĠĠĠĠĠĠĠ
0 8
Ġ` (
Ġ 9
r ank
Ġ qu
Co mplex
is or
w ise
ome try
P ath
n al
Ġ: :
ĠRe g
Ġh R
getLimb N
h p
h x
un it
) `
an cel
n hds
Ġs pec
m ooth
Ġse ction
4 9
Ġal gebra
Ġo ver
rd os
ĊĠĠĠĠĠĠĠĠĠĠĠĠ ĠĠĠĠĠ
one mpty
che ck
c i
Ġ= =
et ric
Ġh L
lo c
R ow
Deriv At
is m
. {
ĠE uler
Ġ me
Pl ace
Op en
Ġp ri
r al
Ġb ound
4 6
Ġd ist
in l
pres ent
C all
Al g
T actic
ic ense
Ġf orm
u ard
' ]
âĤ Ĺ
ĠCo mplex
St ar
ar rier
P h
im ension
S p
er ies
Ġh K
de p
. .
res s
^ ^
dv d
A sm
Ġ1 6
4 5
Ġa bs
ol ution
r c
Is o
val ue
ĠE rdos
an e
erent iable
d ist
ĠAlgebra icCurve
f ore
in ner
ĠS tring
i ed
or re
in st
Ġc lass
le x
Ġc lt
Ġe val
s ome
2 1
C ore
ug h
Ro ot
er y
mp l
r s
if y
T ensor
Co unt
w e
F orm
equ iv
x t
ĠP l
Ï Ģ
Ġâī ĥ
P air
in j
Ġp eriod
im al
upp er
an ch
l lvm
d is
N ormed
ĠEx pr
or us
Ġu se
o unded
G r
b al
f ield
Ġd simp
3 1
i o
C opy
in ary
N NReal
ĠA r
p d
ĠâĪ «
T ime
er ved
T riple
end sto
Ġdef in
K ey
Ġen v
Ch art
St mt
} ,
us s
f st
D is
ect or
po se
A d
C at
h c
ĠFun ction
Add Comm
ĠÎ ¸
of Real
D omain
Ġex ists
to col
C ert
ĠÏ Ģ
ĠĠĠĠĠĠĠĠĠĠĠĠĠĠĠĠĠĠĠĠĠĠĠĠĠĠĠĠĠĠĠĠ ĠĠĠĠĠĠĠĠĠĠĠĠĠĠĠĠĠĠĠĠĠĠĠĠĠĠĠĠĠĠĠĠ
pl ace
S ign
tr ue
f ul
Ġc div
st ar
ste p
ation s
B itVec
const ant
Ï Ī
Y ul
Ġc an
ĠâĪ ĺ
Mono id
con tDiff
Ġn um
Val uation
Ġin duction
Ġd is
7 3
ĠT y
s ource
Ġ row
Ġf irst
S y
)) ,
Ġde sc
ob j
ay er
ĠÎ ©
c losed
Ġd eriv
ĠâĢ Ķ
h Î
u cl
m all
Ġin stance
co unt
Ġ log
Ar ray
tr ic
measu re
ull back
Qu otient
cal ar
Ġh F
Ġd s
ĠâĨ ĳ
a e
Ġ ,
Ġt op
S ize
â ī
Ġ(- (
Ġs orry
norm al
S E
teg rable
ual ly
qu are
A pp
h y
F ree
ĠM easure
D eg
ex ample
ent er
Ġwh ich
f ig
th er
em ent
n f
u de
ro ss
re l
N e
o se
v ial
âŁ© âŁ©
A ut
E r
00 0
Ġin dex
Co mple
cl ass
Le ft
S tep
ind er
eg in
cre te
sy l
re c
Ġ^ ^^
Ġc omm
Ġs plit
Ï ģ
h b
K ernel
Ġ(âĪ ĳ
re v
74 2
O wn
o in
oo se
Ġr intro
Id x
Con tinuous
E nd
ar act
k er
Ġh h
Ġe very
ĠÏ ĩ
C heck
al f
ķ Ĳ
un c
s igma
ĠâĦ ĵ
R ight
du c
ĠE NNReal
Ġ(( .
Ġn o
vent ually
ur al
Ġc ps
I R
A ffine
H igh
Ġsu c
h g
( %
u me
) :
ol ume
T auCeti
Ġs up
â ķĲ
I C
l l
Ġsub st
re ad
P aper
o g
Ġt erm
S imp
ĊĠĠĠĠĠĠĠĠĠĠĠĠ ĠĠĠĠĠĠĠ
ĠS pace
re strict
am ma
Sub ring
ĠCo mp
n o
in r
Ġp res
e mpty
á ¶
Ġp ure
k ernel
Pri m
Ġx s
w f
s ign
P artial
F intype
p air
e ction
G en
Ex p
f ace
âķĲ âķĲ
ucl ide
uclide an
r at
sp an
` -
Ġt est
Co ordinate
) âģ»
ĠL inear
cs n
in dex
he af
) }
5 3
======== ========
Triple Within
qu al
AddComm Group
L ift
xi om
ta ge
O ver
Ġin v
ab ility
Ġa d
ra ce
ro ugh
Le an
Lo g
v en
u d
Bound s
g oal
Re ad
s nd
tain s
t s
ĊĠĠĠĠ ĠĠ
Ġcf z
Ġs y
" ,
f alse
ce pt
Ġl ist
b i
M odel
Â ·
ve ctor
er ror
V M
a ult
Ġh X
le ase
ne xt
C losed
_ ,
ot al
Scal ar
p ort
C anonical
Ġc ol
Con st
ĠOp tion
Dec idable
c ancel
EN SE
IC ENSE
om b
S upport
Er ror
8 4
un ion
Comp act
Ġe lement
ĠEvm Asm
ĠM odule
fl at
Ġc heck
ation al
sm ooth
T wo
ĠÂ «
Ġâ ĸ
app end
t ice
âŁ© )
as ic
i que
ue st
Ġin to
il l
h n
ĠAl l
Ġha b
Coeff icient
s in
Copy right
Ġh D
R at
i a
6 5
M on
Ġt arget
Pro of
A ction
le ct
Ġ end
b all
Ġof f
T ower
Ġlo cal
H as
Deriv Within
l inear
ext ra
Re c
Pre fix
rib ed
n n
ic s
l a
Algebra icCurve
Ġres erved
Ġne w
Ġpro of
ĠAr ray
vari ant
Res ult
Ġk ey
Ġn eg
â Ģ
Ġa ss
Ġc z
m l
as k
ro p
Ġ#[ [
j ection
r w
ang ent
F amily
mon ic
d ata
Ġl icense
4 3
ĠTh is
D ist
Ġgr ind
aract er
ĠðĿ Ķ
Ġs mul
Ġg ener
Ġt t
ĠA p
che me
iz er
Ġh G
Ġh U
Ġcps TripleWithin
O r
! "
Ġg en
Ġ?_ ,
su p
val id
F n
ĠâĬ Ĺ
Ġby tes
F rame
Ġk ernel
Ġ4 0
ĠâĬ ¦
Re l
ĠAp ache
F act
Resid ue
ĠC g
Î ¸
o u
Ġre al
S eries
au se
Ġb lock
Au th
Ġf st
iag onal
b en
Ġl t
s er
Ġâī ¥
8 9
Ġg roup
Ġd ata
ĠQ u
Ġin ner
unt ime
Con stant
5 7
Ġ- >
P ack
ĠâĨ ¥
i ke
Ġr un
Ġfun ext
id th
b ind
lo ad
Ġco eff
Ġm in
s ion
n oc
Ġs nd
Ġ root
pre v
Ġ- ,
ind ow
ĠâĬ ¢
Ġa xiom
Ġw i
int eg
Gr aph
P art
lo bal
H ash
Ġ /--
ition s
Ġb ody
Ġdesc ribed
t ent
Ġh M
Ï ī
s w
se q
Re lease
d en
S u
Ġ( âĨĲ
re fl
T able
Deg ree
n v
Ġh om
Ġ ent
Th is
Î ³
Ġh eq
om ent
Ġ order
au ge
T ri
in c
S up
Sub group
Ġright s
Ġs ame
ice s
C ategory
B ody
ĠC h
Reg ion
cop ed
ĊĠĠĠĠĠĠĠĠĠĠĠĠĠĠĠĠĠĠĠĠ Ġ
Release d
l inarith
ĠL ICENSE
s on
L VM
ĠI deal
l ab
p erm
st ate
er ence
w ord
ĠâĪ £
ir cle
Ġf ilter
i ate
ot e
end ent
Ġde cl
' _
Ġc ur
Ġre st
ex act
ĠE quation
p th
s o
Ġ( _
Ġ~~~ (
Ġl inear
ri dge
ulti plic
duc ible
Ġin tegral
are nt
ert y
at ement
R ad
L E
pro duct
ow n
Ġp d
a ve
ĠhÏ Ħ
Ġm od
um ent
su r
al k
f actor
j oin
Ġe ta
ens ity
wr ite
Ġin fer
V ector
Ġc ut
Ġwh en
mb ed
tru cture
b egin
Ġn linarith
Ċ ĊĠĠĠ
ĠhÎ µ
Comm Ring
M easurable
a v
Ġ3 6
Ġco de
o x
ĠU Int
ĠâĪ Ĥ
a uss
l ta
m o
add itive
po ly
Auth ors
Ġc tx
ĠðĿ Ĵ
C ast
p ure
ĠÎ ¾
12 8
af ter
de cide
f deriv
Ġnorm al
10 38
ar ge
o le
T orus
t y
L aw
Ġe qual
or age
ch oose
ter n
Par ams
ta il
Ġd iff
ĠC m
w h
b ot
ire ct
h ab
Resid ual
Ġout put
Ġa cc
Ġc v
0 4
b lock
B asis
r anch
res h
Ġc abs
u st
ĠM od
In stance
Ġid ent
Ġb ack
de gree
re ducible
le t
Ph ysical
Ġh Q
ter m
Ex t
er ase
st ra
b rev
ar monic
ĠP olynomial
tend sto
ĠA dd
imp l
Ġâĸ ¸
i as
) ],
iv en
an n
ã Ĥ
Ġt ime
Ġd pre
Ġc i
Ġtr y
C ell
Ġp ow
Ġ( )
e ss
f rame
T y
âī ¥
Ġ '
n il
g ram
Ġco e
loc ity
tro l
ir ing
ction s
ĠI O
g uard
ĠT r
Ġset var
00000000 00000000
C y
he ad
P eriod
* )
Ġe quiv
Ġan y
il inear
el im
er ves
B all
Le vel
N on
ro und
ta x
âĪ ŀ
is o
it t
ar ry
ĠSub module
ad ic
ĠM etric
u ild
Î ´
ue l
w eight
Ġt ri
ĠÎ ½
goal s
ĠS pec
re nt
ĠâŁ¨ âŁ¨
6 7
Ġs tep
be fore
4 2
Ġs upport
Ġl ift
c all
âĨ ĳ
ðĿĵ Ŀ
0 9
ific ation
_ .
O m
ar r
co map
Ġâ ĭ
0000 00
Ġp ath
ve x
ĠâŁ¨ _,
w ss
Pro p
Ġw eight
t ime
co ver
ĠPl ace
ĠS ign
Add rs
il t
Ġ> >
s ide
up d
ĠA n
âĤ Ħ
Î º
ĠF ilter
4 7
P ower
Sub module
Sh ape
Ġc exp
it erated
if ied
Co ver
Ge ometry
Ġ( `
h r
at form
E lem
Ġh mem
que st
le d
S tring
uest Addrs
in f
Ċ ĠĠ
) ;
Ġp l
d i
Ġp art
n ode
Ġpar ameter
il er
P i
h at
ĠÎ Ľ
ĊĠĠĠĠĠĠĠĠĠĠĠĠĠĠĠĠĠĠĠĠ ĠĠĠ
Pro d
Ġc p
T ree
En v
pr int
ta ck
id ue
re turn
ol ve
sh ift
âĶĢâĶĢ âĶĢâĶĢ
ĠÎ ¦
G ener
res ult
cal e
co m
Ġp ush
fer ence
stru cture
ĠâĪ ©
ĠContDiff On
ra cle
f ull
l ine
âĦ ĵ
ĠMod ular
Ġpro duct
Top ological
Ġclass ical
Ġc all
omorph ism
Ġn ext
L ower
at tice
ps i
`` `
p art
fin rank
ib er
Sh ift
ml ir
} `
lo pe
at s
h C
Ġ[ (
de t
ĠâĪ ī
Ġm odule
ĠI f
ul us
Ġs pace
Ġco ordinate
Decidable Eq
ul d
with in
C l
l ice
v ing
b l
ent ial
st em
Hom ology
In put
pp er
Ġ` `
Ġco unt
Len gth
l ist
ĠW e
con t
it ness
o th
mono id
b ability
Ġl inter
Ġ( â
9 2
cr atch
u z
ax i
e ps
8 6
H i
Ġc x
s noc
Fun c
Ġw r
In fo
á¶ ł
Ġ| >
us ion
Ġintro s
J et
ma in
is h
M ax
ific ate
al ive
os ition
er ation
ĠD e
co s
Ġ[] âŁ©,
] âŁ©,
h A
ed ge
ri d
P ost
con j
ĠZ Mod
trib ut
} )
Re f
Ġb v
P iece
ing s
Valuation Subring
Ġh ne
Ġun iv
um n
ch art
Ġre ad
C omb
c ore
ĠLinear Map
Au x
le v
Con j
Ġ1 1
Pro file
Ġc l
In f
v Polynomial
it ed
c losure
b ar
Norm al
un k
in put
end s
Ġpro d
en v
-------- --------
m an
Ġpos itive
Pre d
imension al
P ool
f rom
sub type
S mooth
Ġt y
Ġu sed
Ġ measurable
B ool
ĠV ar
Un ion
Dec l
)) )))
duce d
0000 0
âĤ Ĳ
E vm
Op tion
inc ip
to List
se m
mbed ding
F rom
ra w
Pl atform
m me
re st
ĠModular Curve
Ġalgebra Map
lt u
Ë ¢
A s
ĠâĬ ¤
pos ition
s plit
b d
h m
)) ).
ne cted
N ode
ĠUn it
Scal e
Ġcr p
ĊĠĠĠĠĠĠĠĠĠĠĠĠĠĠĠĠĠĠĠĠ ĠĠĠĠĠ
lo at
Ġf ixed
el f
Ġo ld
g s
Con text
tra ce
Ch ange
Ġrw a
Ġe ach
mul t
or k
Ġh W
as m
y tic
axi om
P oly
Ġm on
p ush
is ion
ĠhÎ ´
9 5
In v
su mp
ject s
Ġa c
pe cted
N o
h u
l p
ad rat
pro of
9 4
Ġhe ad
n one
Ġl im
Ġcon d
C S
sump tion
present ation
0 1
Fun ctor
6 3
ed u
in k
re f
h l
f ter
E val
tri vial
Ġn ode
24 0
orre ction
ph a
In st
ĠV al
re t
if ier
adrat ic
u x
Ġc m
ut off
Ch ain
x p
Ġs calar
F lat
s k
âĦ Ĥ
Ġ( Â·
a ke
re am
ĠhÏ ĥ
Val id
B asic
yn tax
r um
pect rum
f ree
ĠR ing
Ġp s
S A
lim it
Read out
al ence
get D
Ġc or
trib ute
Ġlen gth
High K
Â ²
Row s
erat ors
ĠM easurable
39 0
ĠhÏ Ī
R ange
P erm
e ventually
f ind
i or
Ġin st
C losure
Al l
Ġreg Own
t arget
Ġgener al
Ġs coped
M ean
6 2
T ail
Ġun it
Var s
le vel
cl usion
Ġa ctual
at tern
lo op
extra ct
s b
an y
id x
de le
du al
Ġcon vert
the ta
Ġp c
g y
Ġf ull
Ġa ut
Ġ|> .
ch ain
¥ ¤
1 12
E mpty
Ġâ ¥¤
te cted
HighK Platform
Comple tion
for get
is s
ank Paper
o i
upd ate
se p
Ġcon s
uclidean Space
row th
c arrier
ĠF intype
e e
( (
B ack
le ctor
ers ion
dep endent
ing ular
w ne
ir c
op f
iter al
in it
Ġ ;
S lot
are d
D ensity
art be
Normed AddCommGroup
Su cc
incip al
con tra
Topological Space
we en
et ween
Ġsup er
x is
Lo op
re qu
Ï ĩ
ition al
Ġr ange
" (%
ĠN prev
x s
ab brev
9 7
c ur
th is
Ġw ord
R aw
ne w
8 7
ĠLean Pool
ward s
artbe ats
ĊĠĠĠĠĠĠĠĠĠĠĠĠĠĠĠĠĠĠĠĠ ĠĠĠĠĠĠĠ
U pper
g o
Ġpro p
ĠFin ite
Ġ measure
Re q
d s
Ġcon stant
Ġ lower
o uld
f ra
app ing
De pth
â Į
sur jective
Ġcongr Arg
plic it
He ad
ĠhÏ Ĩ
ic ator
Op erator
M in
ĠF or
Ġh st
Ġc losed
W e
Ġth row
Ġr a
l ast
Ġc ic
He artbeats
id ent
ĠSub type
Ġt actic
c mpt
diff erentiable
Ġt able
and ard
re x
ĠO r
qu otient
ach ine
St art
O b
Ġs ingle
ter min
F actor
Bound ary
Pro tocol
co ordinate
Ġcoeff icient
Ġfor mula
Sem ant
de g
Ġ vector
ĠP h
tru ct
th m
Ġsu cc
A nd
auss ian
ĠIn ter
5 1
) âĢĸ
us p
Ġâ ģ
ĠP i
n onempty
C m
variable s
equ ence
un iform
} "
0 2
ĠC omm
Ġth ere
Ġr ad
co pe
to ValuationSubring
ay load
ert ex
Î ¦
ĠD iff
Inter val
en cy
Ġh E
ut ation
con tains
/ /
ic mp
I mpl
C L
ot one
Ġse cond
b asis
T arget
low up
act ion
ire ction
Ġarg ument
ĠT op
ĠL e
Ġc anonical
ent ral
. )
po the
Ġlo op
Out put
S tage
p ath
ĠT auCeti
at Top
p on
m ark
Ġ2 4
) `.
A bs
ge st
Î ·
Pl ane
B ounded
Ġin t
Reg ular
Ġ# #
ph ase
M etric
B lowup
pro j
ext end
integ rable
Ġre qu
om in
A ctual
I ter
1 00
A ss
and id
co ding
Ġh le
Con fig
gen er
wr al
up wards
ct x
sh r
_ {
h S
Ġv olume
ĠT endsto
Ġh H
p c
Ġp ublic
Ġsu ff
Ġsh ift
Ġmax Heartbeats
Ġinter val
S q
Ring Hom
Ġat Top
Deriv ative
o ver
ĠhT ab
Lim it
ĠÎ Ķ
Ġc fl
Ġ?_ )
Pro g
o id
Un iform
c un
Ġn il
ðĿ ķľ
E dge
Id ent
Ġth an
âĪ Ģ
Ġ1 3
Ġre l
Ch ar
or ch
med iate
16 0
Ġdef ault
id ual
n ative
u sed
ph ere
bo x
8 5
ĠT ensor
Local Ring
in itial
Ġdo es
Ġexact ly
d rop
h P
Ġarg s
g auge
ert ificate
ĠSign al
ch ed
M ass
up le
p atch
Ġin itial
ot ential
ĠL o
Ġp r
lo or
ang ular
Ġvalue s
n ing
ĊĠĠĠĠĠĠĠĠĠĠĠĠĠĠĠĠĠĠĠĠĠĠĠĠĠĠĠĠ Ġ
s ert
D E
Ġm atrix
le cted
F irst
Ġi mage
Ġb ut
Ġit erated
Ġpri me
Ġb ot
h w
S Mul
u mp
s ample
mb ol
Mon ad
b ody
t able
closed Ball
impl ies
l or
r on
Ġs q
' ).
S tr
R ank
S mall
bo lev
m ath
áµ ¢
ro ben
roben ius
ĠA ctual
eq uation
)] ],
ar ch
E uler
bd a
a mp
k en
For mula
is f
N onempty
h v
Ġ open
Ġ_ âŁ©
n u
rad ient
a ved
Ġnum ber
ro x
pl us
vari ance
al e
S eq
ĠSt ate
at isf
ong ly
Arg s
ub e
Ġg iven
Ġf act
L T
U Int
h F
h k
Ġ( {
res idue
Proof s
ðĿ Ĵ
Ġâ §
âķĲâķĲ âķĲâķĲ
M k
Ġ upper
C or
to Real
ĠT erm
ve c
R ational
Ġt endsto
Ġ( âĨĳ
: //
F Deriv
Ġderiv ative
Ġâ§ ¸
Ġ( âŁ¨
hy p
s orry
h q
s g
9 3
h T
Ġg oal
Ġb oth
P r
` )
is ors
Div isor
Ġc ategory
R edu
g cd
Ġ- --
om it
de c
ĠâĪ ª
ms gs
cel l
ĠN ame
By te
ĠP iece
re d
Re p
0 3
Ġfield s
ta ke
ðĿ Ķ
ri es
re n
Name s
ĠĠĠĠĠĠĠĠĠĠĠĠĠĠĠĠĠĠĠĠĠĠĠĠĠĠĠĠĠĠĠĠĠĠĠĠĠĠĠĠĠĠĠĠĠĠĠĠĠĠĠĠĠĠĠĠĠĠĠĠĠĠĠĠ ĠĠĠĠĠĠĠĠĠĠĠĠĠĠĠĠĠĠĠĠĠĠĠĠĠĠĠĠĠĠĠĠĠĠĠĠĠĠĠĠĠĠĠĠĠĠĠĠĠĠĠĠĠĠĠĠĠĠĠĠĠĠĠĠ
F ull
al ytic
Ġde gree
Law ful
ĠhÎ ²
Ġhave I
t ps
tocol Data
0 5
in duction
ĠâĨĴ +
cl ude
Ġh V
Add r
p artial
Ġch ain
it ude
Ġco mple
ft y
1 15
Ġs cratch
ĠâŁ¨ (
l inder
) ^
Ġth rough
Ġqu otient
8 2
Con tract
Top ology
bo ve
0 6
L LVM
Normed Space
gr aph
I N
Function Field
Ġ ''
I oc
ĠD iv
l ate
Ġpoint s
ph i
ĠContinuous On
ad join
h z
re duce
Ġt race
Ġcut s
ri me
E mbedding
Ġvar iable
th og
ĠĠĠĠ ĠĠ
Sign ed
pre image
fin set
x or
pos itive
Ġc mp
thog onal
Ġent ry
Ġs rc
hab ited
d omain
p y
Ġd en
I f
D ual
Ġ< <
at ial
f irst
C V
Ġb etween
st art
Ġ ro
Ġ/ /
I co
Ġb ltu
Ġb s
Ġo ther
st age
rad ial
rad ius
ort ed
Ġp olynomial
at er
S cheme
pro tected
mme tric
8 3
B it
ra ction
un g
Ġc uz
Prim ary
G uestAddrs
Ġex ec
le ction
Rad ius
S ur
ist ory
Ġfunction s
pro tocolData
c enter
ch ange
erent ial
ke y
duct ive
Ġf lat
ĠS h
Num ber
Ġde lta
ĠPiece Cert
s ame
ĠDiff erentiable
Ġbytes Region
R O
con e
sw ap
Ġs ize
Ġp er
Ext ension
for ward
Ġ1 4
ag ma
Se ed
ono id
ome ga
M eta
Ġback ward
Ġ<< <
nat Cast
6 1
g ular
comp act
Ġ#[ âŁ¨
Nat ive
h B
E quation
Ġ(âĪ «
Z Mod
Ġs tructure
Ġm odel
Ġsu ch
ĊĠĠĠĠĠĠĠĠĠĠĠĠĠĠĠĠĠĠĠĠĠĠĠĠĠĠĠĠ ĠĠĠ
ex pose
Ġt ail
ol low
Ġne ed
Ġs em
Ġre t
Ġun iform
Ġcx r
h alf
: :
p iece
od d
Ġ20 26
s rc
c mp
Qu ery
W F
res pon
Period s
ĊĠĠĠĠĠĠĠĠĠĠĠĠĠĠĠĠĠĠĠĠĠĠĠĠĠĠĠĠĠĠĠĠĠĠĠĠ ĠĠĠĠĠĠĠĠ
v olume
ys is
max imal
pres sion
Ġ. .
orph ism
o ve
D I
c cess
Ġh lt
Ġor ig
ĠP oint
irc u
Ġ er
ĠhÏ ģ
t w
L abel
ĠW ith
Ġs v
o is
Ġp ost
I oo
ankPaper Canonical
S pectrum
D imensional
Ġs lot
Var iable
dis joint
Comb ine
Ġ_ ))
ĠM eta
] ],
Ġc om
Off set
Ġinfer Instance
ss age
ĠE quiv
r ary
in ation
ver s
Pack et
c f
s i
Comple te
Inter nal
p ullback
s P
âŁ «
B ranch
Ġe vm
Ġw ceq
Ġst atement
Algebra ic
S to
coeff icient
ĠComp iler
T race
Ġdefin ition
Prim itive
Ġb it
ver age
] `
tr unc
l it
C ap
Pro jects
ĠhÏ ĩ
Ġw br
me tic
ph ysical
Sem iring
sub st
i h
ome omorph
c ategory
mpl itude
Ġh I
e vm
arg in
F ace
ĠP res
M atch
dist rib
Ġâģ »
stru ction
Ġval id
eq ual
ĠPro d
simp s
ĠIn tegrable
bo unded
Ġsub set
pri m
Inst Combine
Ġc s
fix ed
Ġhy pothe
ub le
at tribute
], [
Par am
Ġh log
Ġfun ctor
s is
Ġal so
po st
W ave
Ë £
Div N
16 8
H eight
stru ct
ie w
Ġoff set
normal ized
G L
Spec ial
Ġ- (
t il
áµ Ĳ
e mp
ĠAlgebra ic
x c
Semant ics
al ysis
Ġe dge
D im
Ġm u
h R
M ark
m atch
L ie
ĠÎ ĺ
plic ate
comp lex
Ġcon j
at ure
B ox
Ġid x
Ph ase
Comp onent
A D
" )
Ġar r
comp l
ve locity
ri th
b g
fun ction
Ġcic c
T est
Ġph ysical
un ique
` ).
Î Ľ
su me
Ġst art
0 7
Ġb ounded
B ridge
igh b
has DerivAt
] !
Ġr ule
Ġf ollow
Ġf amily
sample Data
em ann
val uation
inter val
Point s
l ap
Ġ error
) |
l ag
âŁ© ]âŁ©,
andid ate
po tent
Ġc ard
ulti set
ĠMeasure Theory
Ġx perm
Ġs ide
ud get
ircu it
En try
L ike
ĠC ode
In tegrable
Ġin d
v s
le ss
F F
B and
ib re
Ġl abel
ĠDiv isor
Ġf deriv
ive s
ĠI oo
te st
E lement
ĠA ffine
Ġc y
ec ause
P ow
Ġhi j
HighKPlatform Affine
Scalar Tower
d om
h N
ĠðĿĵ ĺ
Î ©
ĠC lass
7 64
I oi
k es
B e
Al ong
ĠLo cal
s calar
Ġn ative
H y
Set up
Ġ>> >
ist ic
o ung
G amma
av ier
Ġco mplex
H opf
ĠE n
at us
Ne w
C ircle
k ind
te ps
Th ree
is ms
b lem
Ġi deal
ic ular
ex pr
requ ency
Ġw s
Within At
Ġa fter
Local ization
Ġcon tDiff
N eg
Ġm ut
nat Degree
âĢĸ )
Â «
ĠP ar
p tr
ot opy
Ġcon v
ĠS y
ind icator
ĠO racle
Ġe quation
Check Piece
a ffine
In verse
In ner
an tr
Ġh sum
ig en
af e
Ġt ensor
Ġcv v
en ess
ĠSpec ial
F ixed
Ġaut o
ĠSt d
v i
Rec Depth
W indow
S low
cc nv
Ġc ell
Ġex pr
Ġf rame
t actic
T M
ire d
ĠÎº c
Ġf ail
get Elem
h X
gen e
) âŁ©
12 0
ic k
Ġin verse
ĠS um
Ġd irect
F ile
w it
Ġh ere
er and
Ġimp l
B ot
C utoff
B E
sk ip
14 4
Ġby te
Ł Ļ
R un
ultiplic ative
Ġin teg
m atrix
Ġb ind
factor ial
L attice
l and
Con trol
Ġ[] âŁ©]âŁ©,
B Eq
t ensor
ĊĠĠĠĠĠĠĠĠĠĠĠĠĠĠĠĠĠĠĠĠĠĠĠĠĠĠĠĠ ĠĠĠĠĠ
Ġel l
b v
ers al
F DerivAt
Ġv er
Ġd om
Pres sure
3 76
par ameter
ben ch
is y
Sto kes
Ġre place
re plicate
Ġident ity
it ies
Ġmax RecDepth
Ġdecl ar
Ġr hs
Ġnat ural
f low
Pro bability
Ġg o
Ġt ree
we ak
Ġ2 8
Con v
W idth
Ġc fv
main ing
DerivWithin At
Ġh pos
Ġequiv alence
avier Stokes
Ġle vel
h K
ra b
I mp
In jective
ĠHas DerivAt
tain ed
R v
is Open
d o
wa y
omorph ic
in verse
comp le
Ġe mpty
Ġtri vial
Ġ3 9
fun ctor
St orage
Ġwh ose
F ilter
xi N
Con d
Ġ# ##
ĠM vPolynomial
Ġ1 5
Ġl ine
] ]
T ilt
ĠL LVM
B inary
Ob j
gene ous
in ed
Ġp CheckPiece
mult i
âĪŀ )
Î ¾
Continuous LinearMap
st ore
Scal es
Ġ1 9
row s
âĤ Ĭ
ors ion
Ġex tract
Ġs igma
sy n
ach able
ĠS em
Ġd b
Ġc losure
ĠC ategory
ĠI d
h L
Ġ )
orm al
Ġass ert
Ġâ Į
mb ient
Ġ1 8
ĠâĬ ĳ
Ġs quare
N F
at ing
Ġp arent
Ġthe ir
u res
================ ================
le s
as ses
Ġr ho
Ġc bs
are n
Ġh sub
cd if
Pro jection
ci ma
er se
L am
ad ing
p ed
ĊĠĠĠĠĠĠĠĠĠĠĠĠĠĠĠĠĠĠĠĠ ĠĠĠĠĠĠĠĠĠĠĠĠĠĠĠĠĠĠĠĠĠĠĠĠĠĠĠĠĠĠĠĠ
Ġ ]
ĠM on
ĠIs Open
m orph
em ma
Ġex tend
CV P
Ġf actor
O mega
ile d
Ġa ffine
Ġcomm ut
Code gen
su rd
ct ive
t ing
7 52
ap CVP
co mb
ass ert
Def Eq
sm all
cop y
c a
h U
Ġ. ..
ap t
p end
Ġ1 00
o bolev
B its
c in
' âŁ©
Ġre lation
continuous On
c xp
e locity
Ġch ash
Ġt s
ant isy
âĤ Ļ
iter Partial
Ġsub group
18 4
Ġst ar
re verse
Pos itive
or ies
m odel
ut ed
il on
âĤ ľ
S ome
At om
Sy stem
de lta
D en
Th eta
old s
$ .
u ff
at tr
u ed
ĠR at
ou rier
âĤ Ľ
. **
P otential
s ine
36 8
Co st
Ġt x
Ġ1 7
Ġâĭ Ļ
áµ Ĵ
cal ed
M L
ĠâŁ ª
c anonical
ĠÎ ¶
ex ec
p tion
un ter
32 0
orch Lean
áµ ¥
Ġp artial
Ġ- âŁ©
Ġsh ape
Ġas sumption
Ġab surd
O D
em b
Î ½
Ġg congr
Ġi r
Ġb asis
Ġ ge
b ool
Ġcor respon
ang u
Ġd v
angu age
j or
Ġb ecause
co me
ĠM ain
Ġb i
V er
Ġse ed
r ho
Co ord
fold l
Ġspec ial
point s
ĠEx cept
L ayer
Ġw a
s v
Ch aracter
t or
Co l
An alysis
el per
U p
eval At
u ar
by te
ier stra
ĠâĬĹ [
ierstra ss
ĠH e
ĠTr ue
Ġh Y
or ld
Ġbe low
er c
de cl
Power Series
Ġex plicit
me an
áµĴ áµ
Ġch aracter
f iber
par able
M oment
Ġex pected
ross ing
L it
ĠFin supp
cd m
Ġin fo
Ġcon tains
w b
cc ur
Ġp aper
Ġ[ âĪĢ
ĠâĨ¥ (
antisy mm
Code s
th ree
Simp lex
ĠâĬ ¥
P ullback
ical ly
Ġ! [
Ġc prime
ĠSpecial Periods
ĠB y
Ġal ong
de sc
C arrier
or ed
ðĿĵ ŀ
w ap
1 17
cast Succ
b ers
Ġc ertificate
Alg Hom
Ġexp onent
l n
Ġm achine
E lab
ĠC r
en code
Ġref erence
ht tps
Ġd omain
2 00
M W
tra ction
Ġg lobal
ĠTr ans
á¶ ľ
Ġre present
ho le
co d
t otal
V ertex
w er
M agma
oc i
O T
Ġr f
Ge om
Ġcomp act
ĠClass ical
s low
C op
Ġc re
en ded
Simp le
Ġfin set
S tack
' ))
H armonic
pow er
ĠhÎ ³
ongly Measurable
13 6
K ind
Ġs tack
Ġf our
ma inder
C tx
al g
10 4
ke le
Ġto Fun
tribut ors
kele ton
pre d
c neg
Ġv s
h D
I O
A L
o v
ce ption
ur ation
64 8
I T
Ġst rict
ar is
str ing
inj Eq
Ġst ore
ĠâĨĴ+ *
im it
5 12
Ġv ersion
Ġs mooth
to LinearMap
ĠSub group
ĠhÎ ·
cy cle
ga uss
Residue Field
ĠS imp
Ġ$ \
: \
Ġin sert
W r
ĠâĢĸ (
: =
N ext
ĠO rd
Ġl a
âĶĢâĶĢâĶĢâĶĢ âĶĢâĶĢâĶĢâĶĢ
lic it
weight ed
Ġh J
pres sure
ĠAlgebraic Geometry
s lot
ĊĠĠĠĠĠĠĠĠĠĠĠĠĠĠĠĠĠĠĠĠĠĠĠĠĠĠĠĠ ĠĠĠĠĠĠĠ
Ġlet I
ĠhÎ ±
Ġgr aph
âĦ ¤
Ġst andard
2 30
Ġb ranch
C ache
ch w
p ack
ĠG apCVP
contDiff On
ent al
S quare
S L
z eta
Ġresult s
Ġit er
Ġa ction
trans port
bound ary
stage Setup
f amily
ĠA t
In itial
Ġs equence
ĠâĪ ı
un used
Ġs tr
O racle
19 2
add r
Ġm ay
ner gy
Ġw cel
Sub type
H omeomorph
i emann
32 8
ist er
â Ĭ
by tes
ã ĥ
er ge
prop erty
Ġt otal
` ;
i ps
Ex act
bit rary
ot Field
j et
m iss
w p
h G
Ġcur rent
l er
v able
bench mark
ip tic
Ġ up
an if
comp osition
Monoid Hom
Ġâī ħ
Ġf uel
ĠÂ· )
orre ct
c ase
ĠE nv
Ġ[ .
f n
Ġhx y
f our
m ask
( -
Ġp ack
ous sine
oussine sq
pro g
Ġf ree
En ve
sign ed
E nergy
poly nomial
am ental
M Diff
Ġb eta
c norm
Ġst mt
hom ology
L t
Ġre fl
In fty
28 8
ilinear Aut
Ġpro ve
Ġp erm
mediate Field
i gest
7 1
Ġs in
ĠS tr
Ġc d
Ġpres erves
oussinesq Blowup
Tri angle
Ġelement s
38 4
56 0
Se ction
C r
In d
ect s
Ġdef ine
ent ry
Par ameter
er ical
al ias
Ġs K
ak es
te gr
ĠSt mt
Ġcp nf
ĠF ield
C orrection
A xis
a cc
ck et
Ġpri m
w i
Ġe m
St d
L ine
c n
Ġcomp onent
CL M
Ġp tr
a co
Ġ ~
ĠContinuous LinearMap
Ġf n
56 8
Ġs atisf
es op
cl ic
read y
^ {
morph ic
T C
ĠA ss
ome tric
ad j
ad joint
ce s
S tructure
al ent
Ġ_ ),
ter ior
ĠâĬ Ķ
g amma
u se
Ġab out
âĤģ âĤĤ
resh old
ĠN on
Tensor Product
c m
f act
b and
Ġk e
ĠM em
âĪ ĳ
w rex
full DivN
in ct
Ġde c
Ġex pression
o geneous
yn am
ĠPl ane
17 6
def ault
Fin supp
ĠâĬ ĵ
simp le
wit ch
I ci
d oc
gr ind
er ive
pre fix
Ġ ite
] (
St ream
] .
ĠD ec
ess age
re pr
Ġsuff ices
L I
Ġâ ĩ
G aussian
iterated FDeriv
Dist rib
58 4
out put
arg s
Ġnormal ized
Gener ation
Ġr untime
Ġp i
F raction
F am
Ġv ia
m argin
mm as
ĠE lab
n own
Ġfin al
support ed
ĠâĪ ħ
Ġme ssage
ĠF loat
re achable
Ġex ample
Ġy s
' }
E uclideanSpace
equation al
aris on
Ġmap s
Ġw ill
Ġv z
all back
28 0
Ġr aw
Ġsh ould
Ġl hs
Ġl aw
S yntax
ĠA d
L et
l hs
m u
p aren
eg ment
f ac
Ġp ullback
off set
in clude
b ert
L sb
h eq
Ġal pha
ĠÎµ s
âĦ ķ
4 1
exp onent
Ġsuper pose
app a
R ate
ighb or
value s
| )
c rip
ĠS mooth
ĠB oussinesqBlowup
g round
pro file
Ġthe m
One Spectrum
Ġl ia
il i
] âŁ©
Tower Data
an nel
C ard
o ot
39 9
g ence
V elocity
Con gr
Fact s
is Empty
ĠL ift
c res
Ġf ind
Ġset s
ĠðĿĵ Ŀ
f ast
Ġinput s
b u
Ġin it
Ġ2 1
ron t
ath er
Cy linder
B ig
Prop erty
comm on
B dd
15 0
Ġ` [
maximal Ideal
co ord
ig it
sep Conj
Ġc opy
A b
Ad j
Ġh zero
Sem ilinearAut
deriv ative
64 0
al ois
se mb
print ln
54 4
Coordinate s
g le
t en
nd er
. _
iz ing
ĠRe s
! _
Ġh and
b ug
Ġc ap
W h
Ġs ur
Ġ3 0
g rowth
2 24
Ġc log
g rad
ert ion
Ġcon fig
per p
tri angle
Ġb inary
ĠDe fin
de code
C one
3 79
h W
pect ral
St ore
h M
man Start
ent ation
Ġth ree
ant i
High er
Ġ ord
ĠL ie
Code Req
Ġr ank
Ġc ore
Ch unk
I t
if s
ide d
es h
gen erated
c su
or el
St rict
c at
se cond
anif old
ĠL icense
sh l
omin ator
il ation
ol ic
the ory
Sp an
O R
l in
Ġre quest
M at
il bert
h Îµ
ol ute
comple te
D o
ĊĠĠĠĠĠĠĠĠĠĠĠĠĠĠĠĠĠĠĠĠĠĠĠĠĠĠĠĠĠĠĠĠĠĠĠĠ Ġ
fv ar
Â» }
ĠT est
Exp onent
ad antr
ra ded
Ġw ral
a ves
ch y
20 8
au chy
St rip
Ġ4 8
semb ly
EN D
a ut
S plit
ly ing
¬ Ŀ
ĊĊ Ċ
inl ine
Ġm ain
s cale
Ġâ ¨
v th
âŁ© ).
` /
ĠTop ology
Ġin f
Ġw ork
pos ite
Ġcomple te
Ġpos ition
Ġrec ur
al ign
Ġorig inal
ot ive
s quare
T ag
re ference
ch ar
In variant
mul ate
ĠN Star
ĠThe orem
Cor ner
Ġc arrier
Ġpre d
15 2
in fo
Ġhypothe sis
Ġs elf
Ġm ode
E vent
ĠV ector
Ġm ust
P ic
h igh
Ġaxiom s
C mp
ã Ģ
Cy cle
d iagonal
Ar ity
paren cy
Product Space
Ġd iagonal
ide al
Ġdefin ed
S igma
ol ved
an c
Ġext ension
ĠâĨĴ *
Ġco ver
Ġp ower
In teg
50 4
Order ed
Rat Func
Ġgen erated
Ġex cess
S ig
âŁ« _
H at
ith ub
Ġbe fore
Pl us
Ġt ra
ĠV er
to Fun
Ġle mmas
ĠI t
s ort
Ġ 56
ĠF alse
ith er
f robenius
ĠN e
Ġâ ¬Ŀ
Pro j
comp ile
` ),
ri m
emb ed
EN NReal
re m
Ad joint
Op erators
Ġcon tributors
\ "
iag ram
Ġcol umn
Ġtype s
ĠD is
nat ural
M vPolynomial
g ithub
oo lean
P hi
Ġm ultiplic
n z
Re presentation
ĠG uestAddrs
ter nal
Ġ36 24
Ġd imension
I P
Ex ec
Ġ| (
z pow
Is LocalRing
it z
t sum
A flat
g ment
Ġc ar
Ġc dv
ĠE uclideanSpace
sh ape
ĠT ower
P ush
Ġc arry
W itness
Ġph ase
Ġpc Free
18 0
76 8
Ġthe y
7 58
Ġa ux
A rith
)) ]
Comp utable
Ġdiv isor
d im
Ġa x
S truct
C al
Ġcorrespon ding
ynam ic
sub g
W hole
set var
Con nected
ĠâĬ ķ
Compact Support
---------------- ----------------
me as
ac ity
ph ole
var s
tribut ed
Un ary
D es
C arry
S heaf
Ġin tegrable
' t
h h
Ġcon text
1 00000
Ġc op
74 4
Ġh len
Ġ( âĢĸ
áµĴáµ ĸ
get Key
3 59
c ut
lo morphic
Ġh alf
Ġci oo
Ġx c
Linear Equiv
Ġrec ord
out er
ĠâŁ¨ -
The orem
Ġwh at
ic ate
Ġd Om
p eriod
rox im
oo k
Ġa v
m ale
Ġlim it
S T
s or
var Id
t angent
lo se
Tr ue
Ġs mall
cre ment
cond ition
Tri al
Ġ2 56
Ġh in
p ing
D ial
ĠT au
Ġg uard
Ġout Ptr
m able
ĠEvm Yul
pre t
Ġiterated DerivWithin
1 19
Ġde pth
coe f
Slot s
M esh
Rational FunctionField
Con tributed
70 4
ĠC ore
ĠC eti
Ġch art
b ig
Ġhb ound
Ġout er
?_ ,
Ġpre fix
he s
C enter
Ġal ready
a eval
f intype
Î Ķ
Rad ial
ay out
ck e
Ġb egin
Ġres olve
ren ce
S ec
Ġd ot
ĠP os
f loor
h ash
par am
Lp Norm
de kind
15 8
Ġm ult
var pi
Sign al
r ule
er ving
Ġi ff
dvd s
o ice
t im
Jet s
non pos
cun i
res pect
ĠâĨĳ (
H alf
Ġc ast
Ġthe se
pe at
Ġ1 000000
Ġfor all
th ing
ff ect
is ker
1 10
Ġh Z
} }
ĠS ource
uar ded
O rig
Curve Over
ro t
par ams
Dis crete
Ġo wn
ips ch
] ?
act ive
d ot
H and
pre c
T angent
b eta
fun c
ipsch itz
Ġ#[ ]
c ap
Ġform al
Ġi j
c or
Ġ(â Ĭ
ib ility
h j
bound s
Pre v
De fin
M apping
se ed
14 0
Ġu Top
cr n
neg ative
ert ies
Ġb uild
wh ere
und le
and om
st ack
Local ly
Ġe ps
ĠL emma
Ġy ou
h ÏĨ
ĠPh ysical
ĠhÎ º
Ġw idth
Ġsimp le
den ote
Ġg ives
Ġdis joint
G rid
Ġel ab
ĠAffine Core
50 5
59 2
ign ment
Ġpar se
a ith
ĠCode Req
Ġtr unc
Ġnot ation
78 4
r ors
Ġs d
ul ation
i i
con v
1 16
ĠhÎ ¸
H S
Ġse par
`/ `
Ġl d
Z eta
âŁ©âŁ© âŁ©âŁ©
ĠTower Data
ch ild
ML IR
Ġm ore
Ġh o
not Mem
ĠS SA
Aut o
Ġr ather
k le
Ġex ist
ĠQu otient
aith ful
O k
) `,
30 4
Ġconstru ction
part ition
sc rip
ell F
00 8
F ive
ĠS tage
s he
iz es
G et
P M
Ġ36 240
ĠRe ad
Ġ round
c p
re p
ion s
Diff erential
Ġnone mpty
ab il
ĠhÎ ¼
ĠL am
S lice
Ġl iteral
ĠhÏ Ģ
Coefficient s
Ġreturn s
In dependent
is DefEq
l as
st mt
â ¦
ce d
ĠSh ape
ĠBy te
72 5
univ erse
Ġ(@ Â«
âĤ Ĩ
Ġcf g
in ductive
T uple
Ġm onoid
lat tice
12 5
Ġhead er
ĠâŁ¨ ?_,
Ġw ould
Ġpar ams
go ing
ĠH ash
st im
Pr incipal
z en
p ayload
Re quest
Se lector
ĠEvm Word
Ġb all
to Array
l ing
Ġm oment
t ree
18 9
Two Mul
ho od
s To
Whole Paper
R ule
Ġt ag
ĠS tep
F loat
con nected
Le af
ce du
ro c
Lim its
extra cted
Ġterm s
Ġex tra
Trans parency
ĠH om
pe e
Ġpro v
Ġinteg er
CommRing Cat
ĠLean MLIR
Fact ors
Ġin variant
36 0
Ġ= ==
al ance
Ġm sg
s afe
yn c
Ġc e
Ġ ot
Ġnon zero
ol ar
ĠN onempty
Ġbound ary
Hash Map
Ġm orphism
ĠS cheme
order ed
pro ver
r lp
add le
$ ,
A way
in variant
Ġ[] )
1 13
Mod ular
) \
Dial ects
Ġc dvds
Ġ( "
ĊĠĠĠĠĠĠĠĠĠĠĠĠĠĠĠĠĠĠĠĠĠĠĠĠĠĠĠĠĠĠĠĠĠĠĠĠ ĠĠĠ
_ _
Ġ( |
an ish
Ġwr ite
od up
ic z
differentiable At
' `
End point
Ġwith out
ĠP eriod
ste ad
Ġcon st
Ġdeclar ation
S teps
Ġdpre B
S witch
st orage
e ded
of t
Re st
Ġ 60
pres erves
* (
Ġs truct
19 9
Ġs olution
N ot
s diff
Ġm ost
Ġop erator
eri or
Ġme an
Ġw itness
S ingle
0000 000
i Union
Ġhw f
c if
ĠE q
Ġsp an
Ġde code
F lag
Ġdefin itions
ro zen
i et
ar row
im um
M ulti
1 32
34 4
duce s
reg ular
Ġm ark
Y oung
Ġ 54
Back ends
r untime
Ġde bug
ax ial
L oc
Ġsh ort
Ġcond ition
ĠðĿĶ ¤
P ure
Value s
e th
Ġm s
l abel
ir on
Ġpro jection
F uel
ig its
Ġtrans port
Ġ option
ĠT orchLean
at om
se ud
L ast
ĠY ul
ĠÎ ł
Mul Action
mulate Q
or row
Pro gram
p ull
ta ch
Se cond
Ġu ses
St atement
art an
Ġrad ial
Ġ= ]
un op
w icz
art z
cs b
Ġe ven
Ġ(âĪ ĥ
ire ctions
Ġfor ward
Ġan gular
chw artz
S ample
un reachable
Min us
Out er
ure wicz
i ation
S obolev
c of
Ġd st
Ġh int
Finite Dimensional
Ġ8 0
Ġf old
re q
er a
ierstrass Curve
Ġb u
Ġab el
ĠEx t
ok up
Ġst x
ll iptic
76 0
ĠMetric Codes
ĠDifferentiable At
A bove
Ġadd itive
Ġhd en
ĠVal ue
Ġg ap
iv ersal
âķĲâķĲâķĲâķĲ âķĲâķĲâķĲâķĲ
miss ible
G lobal
N avierStokes
at ible
Ġa ga
ĠM ul
âĮ ĭ
c ri
Cl ause
Ġun ify
Ġa esop
Div isors
cl u
Ġrad ius
S ort
Ġc ache
ĠT wo
vers ary
i Sup
Ġw indow
Ġ2 3
Ġ! =
p arent
D el
m id
T otal
l ue
t mul
ĠhÎ Ľ
H a
Is ScalarTower
Ġ< =
id end
stant iate
J oint
comp onent
Ġa bove
78 0
ĠOracle Comp
ĠDec idable
pee phole
l ie
Ġis omorphism
ed Space
respect Transparency
Ġpl ace
b id
In it
Ġit self
Ġha sh
Add back
se lect
l i
me ta
comm ute
Ġ1 44
at ic
Ġ5 764
7 29
18 8
Ġt angent
Î ĺ
70 5
10 8
ĠhÎ ĺ
G rad
ir reducible
15 9
iron ment
C entral
Le che
" ]
prod Mk
A T
Ġ((( .
Stmt s
Ġf e
unused Tactic
s K
to Int
Rat io
Ġa ct
Ġr s
er omorphic
ĠB lock
Ġpl us
C H
Ġl i
âĦ ļ
h ÏĪ
Co limit
39 2
Ġn th
stra ct
Ġs l
eq id
ge d
Measure Theory
l shr
unreachable Tactic
ig roup
Ġthe ta
G IN
Ġ2 88
log ical
O K
âĢ Ķ
read out
e ven
Field s
ĠÎ ¨
ch arge
S elf
Ġ3624 08
ĠI mp
H urewicz
Ġc omb
m oment
ne s
Ġcon ver
Ġin finite
f ail
Ne Zero
f p
ug ate
30 34
ĠC ar
ðĿ ŁĻ
âŁ §
Call V
ĠÂ¬ (
Ġweight ed
Ġcon tract
r hs
ist ent
Ġ2 5
24 8
M anifold
Ġdist rib
crip t
gr p
Ġ(Â· .
M ode
scrip ts
il tin
ste er
g er
Kernel TC
ta y
skip KernelTC
A c
ĠB ig
Ġh igh
b b
Ġ arith
Col umn
le q
ĠL og
new Sp
s ound
R untime
Ġass oci
cri min
end ing
Qu ot
Ġt support
BE GIN
Tactic Auto
Ġdiff erent
N op
J son
hl er
c ulus
15 3
Ġwh ile
b uild
Real ization
app ed
16 9
Th m
of Prog
ĠQu ery
Module s
i ro
o od
B i
Ġe ventually
Ġcon tra
Ġfin rank
ĠâĪ Ĺ
sigma Flat
Ġs cale
Cop rime
Measurable Space
Ġre name
ront ier
as ync
is Closed
Ġequal ity
jor ant
14 8
ĠCategory Theory
Ġcomm on
1 18
AD DI
Ġc subg
lean prover
anch or
ar ning
15 4
Ġdpre R
lement ation
gener ate
Sur jective
Ġ2 6
G oal
Ġhb ase
M ultiplicative
G radient
Rec ord
B ar
Input s
erm it
ĠâĨ ĵ
ĠS male
erive d
R E
Dis joint
I ic
H istory
con vex
Ġs ec
Ġ" .
Ġres olution
14 9
ĠI R
ĠMeta M
Ġmax imal
e p
ĠAss ertion
ĠP re
ermit ian
Comp iler
ĠRe ference
se qu
ff ix
ph erical
ĠPro file
Ġâ ¦
Ġun ique
lim its
fast math
Ġname s
G ap
un i
ir d
78 9
Category Theory
14 5
w idth
Re strict
p aper
res idual
M athlib
coefficient s
ĠK op
sem iring
g lobal
is Some
Ġre maining
syl an
qu ot
it one
ĠðĿĵ ķ
un its
12 3
). .
Ġ2 9
I S
ar ity
ĠActual Primary
b var
int erior
cc ak
e ch
ĠPh ase
Ġp attern
L D
h H
L in
Ġsuper position
s ingular
Ġs tring
cedu re
Ġdpre S
S he
ol l
Ġpres sure
Ġvariable s
Ġch ild
Enve lope
Pair ing
tegr and
al le
Ġres idual
mo ve
th r
17 0
ĠI co
Ġa p
weak en
M ult
uff er
ĠCh art
g p
o ther
13 0
Ġprop erty
D ir
S SA
Ġapp l
i ct
ĠEuler Blowup
to Finset
act ual
Ġw ell
on ly
div isors
ress ion
Ġthrow Error
ĠÎ² next
lat form
qu ery
su mm
is Unit
P DE
ĠPro of
Ġ} )
Ġ3 60
prec ated
F ibre
or thogonal
Ġcon tinu
Yul Generation
)))) ))
s l
ey l
au rent
Ġin stead
14 3
ĠRing Hom
Ġs s
th en
ĠâĦ į
Ġhl am
Ġs ig
ĠL ayer
OD O
C andidate
7 19
Sy m
Ġf allback
it ing
c ld
Ġra Val
ĠM onoid
Table s
Ġn h
to UInt
Ġ` .
á ´
frame R
Ġsign ed
Ġsk ip
RO P
ign ed
h Q
3 19
70 9
pr incipal
Alg Cat
] ))
Ġbound s
iterated DerivWithin
K Trial
B u
ĠB ase
10 9
Ġ(âĪ ı
seud o
Ġl ast
un fold
Ġsy mbol
a dele
Ġ5 000000
a que
60 8
pl ier
74 0
ĠFun ctor
al t
Ġp k
adic Completion
Ġf ix
sub group
Cal culus
F iber
1 64
nat Abs
ĠâĪĳ '
Ġab brev
Ġargument s
ch aracter
equal ity
mon otone
c com
er ations
Ġh fin
Ġrequ ire
Ġp iece
ĠâŁ¨- ,
Gen erator
Ġl attice
58 0
Ġc enter
Ġin side
ach ed
M any
ans ion
s ive
Alg Equiv
Ġk ind
Ġs wap
I te
ga cy
C usp
co ded
Ġ2 2
crimin ant
el p
ca de
P ole
13 8
ĠE very
39 8
h E
12 9
KTrial CallV
Ġ low
ar p
As sembly
A mplitude
Ġhp c
d imensional
$ >
ĠdOm Small
ĊĠĠĠĠĠĠĠĠĠĠĠĠĠĠĠĠĠĠĠĠĠĠĠĠĠĠĠĠĠĠĠĠĠĠĠĠ ĠĠĠĠĠ
Ġm v
Ġc top
an alytic
M essage
50 9
t t
as cade
Type s
At tr
Ġ rough
Ġhs mall
mul Vec
Ġd ual
Ġmk App
T orsion
iv ot
to Add
Ġpoint wise
Ġad j
Ġgeneral izing
ri cted
ĠM ultiset
Tr unc
Î ¶
con fig
79 2
s lice
Ġ4 2
Ġreg ular
ccur rence
ta g
ch or
Ġar bitrary
ili ary
vert ible
ot t
Ġadd r
def in
S V
Ġcon vex
A nt
termin al
ut es
ãģ ®
_ [
Normal ized
I mage
" :
Ġle af
Ġsuc cess
Ġfollow ing
c ing
Re ference
Ġop eration
ove q
or ity
om ic
ĠG r
A verage
D imension
re write
Support ed
Ġcomp ile
Sy mbol
C NF
Ġqu adratic
âĢĶ âĢĶ
Linear Group
Variable Arity
Geom Level
varpi S
Ġan alytic
Ġ" \
al pha
ĠSimp le
G uard
ched ule
v PowerSeries
10 6
Ġm a
im il
âĢ ĵ
7 36
ĠN ode
1 56
itt ed
w ork
Par ser
Ġs i
ĠP R
as i
Ġfun c
Ġhy p
âĢ º
Ġin jective
sh ip
Ġsy mm
5 15
Un its
min us
r reducible
Ġd oc
w indow
W orld
exp ort
D iagonal
om inal
continuous At
Mul Equiv
omorph isms
o ving
Ġnew Sp
Ġinterval Integral
Ġsub module
19 8
G auge
ri ction
P arent
iv er
F P
S cratch
st d
vert ex
S aved
or al
ĠMeasurable Set
Ġp ayload
Ġch oose
ach es
Ġhs q
ĠP art
c ross
A ct
g re
simp l
B ind
or se
Ġn n
Ġ< $>
ĠEx act
ĠIs LocalRing
A B
ĠN N
38 9
ur ing
Ġse e
ĠH armonic
ĠDefin itions
68 8
ĠIs Unit
G am
Fraction Ring
as Ideal
15 17
di ct
i res
on ed
ĠEuler Packet
Ġres idue
st ream
Ġm ask
str onglyMeasurable
wa ys
h er
place Infty
Ġadd ress
at um
Base Change
ĠN o
v d
29 4
for mula
It em
P attern
ĠC y
Dis patch
ri s
id er
er ve
Op erand
Ġcon crete
b inary
Ġapp lic
Ġis Open
ĠA E
59 4
l ac
ĠAl g
m d
3 52
Ġs eq
Ġof Bool
. ,
i ant
ĠhN pos
Ġh âĦĵ
Ġ 50
reg Own
Ġe ither
13 9
Ġh olds
e igen
contDiff At
d le
pres heaf
ĠhÎ ¦
ost ant
Ġwe ak
ĠIn ner
48 0
And Euler
l ar
Ġh comp
G rowth
ĠOrd er
3 00
op s
le af
simp r
Gener al
Ġrequ ired
* ,
la im
7 30
F ourier
F ail
** :
Ġm id
form al
plus g
Ġp f
âĮ Ŀ
5 28
lo b
Ġa gree
Ġl ayer
Ġsh ared
Ġb l
g as
An gular
70 6
Sur face
Ġs yn
32 9
form ation
c ircle
end point
ĠT o
Ġval uation
Ġob ject
Chart Scales
pc Free
NavierStokes AndEuler
36 9
Ġde p
Ġw as
S equence
ĠO ut
Ġh inv
Tree Map
ater ial
iter ate
Ġcon t
Ġph i
De dekind
Ġr ational
ra ms
w ist
Scalar s
gauss ian
R a
Ġc pi
ĠN ot
Ġb ox
M ask
S ingular
âĤ ħ
k A
c seq
Ġc plusg
U pd
W alk
Ġ On
il ing
ĠUn iform
Hy p
Ġdelta Star
Ġend point
field s
Ġd irection
Ġme ta
ĠC X
Trans Cmp
Part ition
B udget
ĠA nal
c an
Function s
s ol
Ġsin ce
ul se
Ġse lected
d own
ĠB and
Ġm akes
Ġre duce
C om
D irection
ject ed
Ġtop ological
Pres entation
Ġf ra
] '
ste in
il tr
u th
eri an
Ġ((( (
ap es
Ġre presentation
Ġh id
ter s
to RingHom
spec ial
` '
Height OneSpectrum
Ġcon tain
Ġr g
ĠS ort
39 742
has FDerivAt
An n
Ġ ordin
L P
a iled
to Lp
âĪ «
Ġh re
Ġmultiplic ation
Ġhom omorphism
ĠðĿĵ ¢
Ġcon trol
With Zero
T ra
h V
ĠS ee
Re t
Sub algebra
S cope
We ak
pl ay
U til
M S
Ġmk Rat
Ġm otive
ĠG en
Ġv ertex
n bg
7 28
Ġ` {
ĠĠĠĠĠĠĠĠĠĠĠĠĠĠĠĠĠĠĠĠĠĠĠĠĠĠĠĠĠĠĠĠĠĠĠĠĠĠĠĠĠĠĠĠĠĠĠĠĠĠĠĠĠĠĠĠĠĠĠĠĠĠĠĠĠĠĠĠĠĠĠĠĠĠĠĠĠĠĠĠĠĠĠĠĠĠĠĠĠĠĠĠĠĠĠĠĠĠĠĠĠĠĠĠĠĠĠĠĠĠĠĠĠĠĠĠĠĠĠĠĠĠĠĠĠĠĠĠ ĠĠĠĠĠĠĠĠĠĠĠĠĠĠĠĠĠĠĠĠĠĠĠĠĠĠĠĠĠĠĠĠĠĠĠĠĠĠĠĠĠĠĠĠĠĠĠĠĠĠĠĠĠĠĠĠĠĠĠĠĠĠĠĠĠĠĠĠĠĠĠĠĠĠĠĠĠĠĠĠĠĠĠĠĠĠĠĠĠĠĠĠĠĠĠĠĠĠĠĠĠĠĠĠĠĠĠĠĠĠĠĠĠĠĠĠĠĠĠĠĠĠĠĠĠĠĠĠ
19 0
ich let
ans wer
l arge
ĠP artial
iltr ation
Ġequiv alent
Ġre duction
ae hler
L iteral
ĠP ROP
2 64
Ġâ¦ ĥ
17 8
60 752
ĠhÏĦ T
Ġf ound
Ab el
base Change
" ),
tay lor
Ġunder lying
nhds Within
Ġ2 7
Ġeval u
â¦ Ħ
S D
12 6
gauge L
O N
u mul
set s
ĠVal uation
1 14
h Ïĥ
ception al
itt en
E D
74 9
Ġal low
60752 3034
3 18
68 4
Ġ5764 607523034
M ain
oned a
m at
Ġ( [
5 76
n card
ĠTensor Product
Var Id
Redu ction
Ġcan not
Ġre write
res olve
ĠWe ierstrassCurve
w alk
de comp
Ġar ray
c ent
A mbient
Ring Theory
3 58
Ġp n
ri de
P I
S k
di ction
âģ Ĩ
root s
ac ent
Wr ite
Ġne eded
div isor
integ ers
diff erence
extract Lsb
hÎ ´
ri ft
e lement
ar ray
Sh ort
ĠM ar
map M
Comm on
4 00
7 20
g erm
er v
d iag
b eq
Ġle ast
Ġin dependent
Ġmem ory
ĠhÏ ĸ
Ġnum bers
ĠâĪ« âģ»
Ġd lo
top ological
col imit
Qu adratic
b asic
Inner ProductSpace
S ol
In clusion
ĠBig Operators
Pres heaf
factor ization
17 4
ellF ormed
Ġs noc
In dep
Ġit em
zero Extend
Ġen coding
Ġneed s
Ġhc ard
Ġ{ }
el ab
.. .
Complete Space
con text
ighbor hood
ag ree
69 6
E ventually
Ġre strict
a cle
S phere
Ġwh ole
Ad ic
Ġdist inct
Ġcon tent
nu w
f an
29 0
M ixed
B uild
N CH
Ġse lector
3 12
U T
s ing
Trans form
i j
c ar
age s
n ormed
head er
cond itional
38 0
Ġin duced
Co variance
ĠHas DerivWithinAt
Or bit
t om
Ġh mono
ĠA pp
Ġp p
Fin al
Is ometry
or bit
7 34
ĠhÎ ĵ
Shift ed
l ayer
Ġcy cle
âĤ ĳ
m ise
z mod
S a
Ġ>> =
Ġ1 28
3 36
ĠâĢ ¹
ĠB it
Ġ3 4
39 4
Ġcf n
ilation Model
Ġs ol
Ġha d
k in
Ġv is
au ses
ĠĠĠĠĠĠĠĠ Ġ
if ies
or n
Ex terior
sign Extend
c entral
Ġb ig
st ed
He ap
c utoff
54 9
Ġ$ (
sy m
13 4
Ġ1 15
Ġse p
ĠHas CompactSupport
Ġ288 230
n th
In habited
Ġ288230 376
roc q
Ġhf g
Ġtop ology
of Hom
ĠG roup
m ost
K in
Ġaga inst
of Slow
eth erian
n sw
sin ce
eq tr
Ġmem ber
ãĤ ĭ
ad ant
Ġb ankPaperCanonical
59 0
ĠhÏ ī
gamma Star
ĠLe vel
und led
Ġinter nal
Ġj ust
Ġde termin
local Residue
eps ilon
Ġprim itive
or ig
ne iro
Ġ 70
Ġco unter
mple ct
Hom otopy
un ction
A S
E uclidean
Ġdiff erentiable
Ġmeasurable Set
ax is
change d
6 72
of Fn
Chart At
Yul Expr
Ġ(âĬ ¤
Ġre peat
par kle
ĊĠĠĠĠĠĠĠĠĠĠĠĠĠĠĠĠĠĠĠĠĠĠĠĠĠĠĠĠĠĠĠĠĠĠĠĠ ĠĠĠĠĠĠĠ
Ġlo c
P er
Re present
Ġâĩ ĳ
Ġs ay
al len
fo u
qu adratic
fou rier
S ide
f g
L ib
p an
ci pe
Lam bda
ĠðĿĴ ª
Ġa e
ĠE val
tin ue
Ġis o
Alg Closed
c rab
pro b
An not
l ike
Ġ_ âŁ©,
Ġm ake
Ċ ĊĠĠĠĠĠ
Ġf ace
- `
Ġmon otone
Ġcommut ative
p k
) /
Ã ©
ĠÂ §
Ġc star
Ġ288230376 1517
mplect ic
Ġrow s
st rip
Pos ition
Ġe stim
ĠG iven
Ġsup pl
Ġtri angle
g ap
le e
Ġi cmp
pro gram
s ig
29 2
V iew
ĠP rim
ĠðĿ ŁĻ
h I
( $
set Of
m ixed
58 8
F low
A fter
17 2
natural ity
Ġsem ant
Weight ed
de precated
Ġm ulti
H elper
ĠIn dex
cl z
15 5
and s
Ġb its
Ġg aussian
ĠO ne
e f
or is
reg Is
allen ge
orph isms
il in
Ġh ex
place ment
14 6
ha ve
ire cted
Max imal
Branch Within
59 9
B orel
T endsto
Ġcoefficient s
ĠR aw
17 9
7 54
ta u
Cert ificate
m ode
h armonic
I io
m y
79 0
Ġparameter s
Ġcle ar
h ift
74 8
Ġh lo
19 4
Ġw alk
Ġun ion
Ġpro file
Up To
ĠÏ ĸ
j al
f uel
Ġth ose
Ġlist Base
Ġh one
E num
size Of
Ġas sume
Ġd Mem
duc ing
)) âģ»
D oc
er r
78 8
Ġx i
Ġdlo Mem
Ġs egment
Add Group
or g
ĠS yntax
70 2
ĠF irst
ĠN NReal
n smul
lic ial
Ġreg ister
sequ ence
Ġe vent
Ġpro ved
Probability Measure
rec ord
Ġden ote
ĠN um
39 6
ĠInter mediateField
)) ),
Co set
20 26
29 6
ma g
ĠC Îµ
F old
Ġthe ory
su med
b ankPaperCanonical
Con crete
R ot
prim itive
w d
" )]
to String
ĠIn habited
Ġpart s
ĠC usp
12 4
iet oris
A x
ĠCon Leche
Ġb ool
c lot
Ġc ircle
clot omic
fl ip
Is CurveOver
5 56
of Int
ĠF ormal
mp ot
erm ite
Ġcomp osition
no Nop
99 2
1 0000000000000000
V ietoris
d f
18 80
F our
ver sion
y adic
erc ise
ĠMar io
t m
on d
Ġinter ior
und amental
C ut
si mulateQ
Ġb ridge
Ġh cont
s caled
trans pose
ĠD omain
Ex cept
he ight
38 8
ĠðĿĴ ľ
st alk
Ġ4 4
non zero
M achine
Ġ update
U nder
Ġse lect
in ator
ch i
Ġcall er
ĠOp en
e lt
m ass
se ct
Ġpro gram
Non trivial
Ar row
Ġpar am
Ġin l
abil izer
pre Field
Ġpred icate
ĠT ODO
u ine
ĠD igest
Def s
Re tained
ert ices
l ip
A N
HighKPlatformAffine Corner
Ġm any
Re turn
st er
Ġâī ¡
fra c
embed ding
Dedekind Domain
ay lor
Ġ(( -
Ġequal s
ĠS e
Op s
is Lt
Ġent ries
^ [
ĠâĮ Ĭ
ĠÏĨ s
Ġa mbient
ĠD es
Ġ ?
ch unk
Add itive
mpot ent
ri ed
Ġob ser
s phere
w w
Ġdiv idend
d st
o ugh
In tegrand
Ġqu ery
18 6
Config uration
Se parable
2 54
fin al
7 76
r ate
re y
ĠX R
th on
syn tax
ayer Vietoris
% %
Ġst orage
pro cal
ĠP ath
Ġch ar
ĠIs Compact
Term inal
C ancel
ĠI H
7 56
Ġw f
k ens
Ġnon computable
os en
tro py
Ġhp q
!" {
sem ble
t support
f ect
a mplitude
ab l
z ip
Ġn ow
ĠCar neiro
Ġt emp
Ġsp atial
Ġe mbedding
Ġh map
po t
Ġw p
inter nal
Hash able
Un ique
R ound
3 64
ra c
2 39
Ġcar ries
Ġg rad
Ġl it
reduce Ite
ra de
) *
im its
ãģ Ļ
â ĭ
C ircuit
17 5
ex pected
Ġp ass
26 9
Higher Homology
ert ia
l ay
Ġs cope
A ccess
f d
ĠC n
Ġl ie
30 8
S B
ge ther
ĠhÎ ½
pre pend
34 9
Ġcm nf
Trans verse
D F
d amental
Ġcut off
M ayerVietoris
as ing
ĠI ff
Ġorder ed
Ġneg ative
val ued
70 8
ĠCo eff
16 6
Ġ odd
34 0
f requency
f ive
Ġex pect
ĠAnal ytic
er gence
comb ination
ĠC heck
De code
ĠÏĥ v
Ġh old
Ġ1 00000000
ide s
T era
Ġcon e
Con vex
B V
ĠS upport
7 00
S Asm
ĠhÎ ©
ke ys
AddComm Monoid
c ache
Ġ3 8
Unit al
Ġs aved
mon omial
Gr p
Ġem it
bi jective
Sub st
Ġal g
59 8
stru ctor
Ġchange s
Part icular
or ic
B ump
ĠT ree
TwoMul Fixed
ĠM ap
Ġinstance s
Ġspace s
b dd
Ġmult ip
ĠS parkle
Linear Algebra
Upd ate
ident ity
k appa
S lope
ct angle
Comp l
ĠâŁ ©
Ġf lag
ic on
co prime
Push forward
po ch
Ġpri vate
Table Data
sur j
28 4
cy l
ĠF act
32 4
Ġlocal ly
Ġsuff ix
C M
Ġat om
Ġequation al
aut o
Ġan n
Ġcomp utation
bal ance
En tropy
h ÏĦ
Ġreg ion
50 8
2 52
ĠT ri
Hopf AlgCat
C ube
L a
Ġgener ic
Imp licit
a res
G alois
in clusion
C ross
b es
count able
anish ing
Ġl ike
Ġg auss
Sa ias
in dep
Ġqu ant
se par
PM F
Monoid al
Ġroot s
ĠSpace Time
Chart edSpace
Ġsq rt
Ġun less
m as
br anch
le ading
ĠInter val
dep th
Ġg rid
Op ens
ĠAdd Comm
Re verse
Arith metic
Ġ[ #
M E
ae stronglyMeasurable
ĠDis joint
Ġs teps
roxim ation
Ġl shr
flat ten
Head er
C g
ãģ ¨
ãĤ Ĵ
Ġc ancel
Se p
l integral
Ġne ver
ĠâĬ¤ )
z ext
10 2
d one
Ġc grp
se lector
79 8
ĠChart Scales
l ink
Ġpro j
En coding
ur ry
54 0
Ġadd i
e b
Re v
Ġa xis
19 6
28 6
Class ical
Ġpart icular
S olution
c ube
o ss
I D
an ar
Ġextend s
is hes
ĠPres sure
H o
^ (
to BitVec
In sert
go od
e pi
Ġh prod
u Icc
h en
} (
int Cast
F alse
s at
Re lation
7 38
ac ro
ĠN ormed
k s
Ġst ill
ĠCon t
Trans lation
ĠS keleton
am m
G E
ĠDe f
âĮĭ âĤĬ
s coped
ex it
b t
34 8
ĠCh ar
Ġproof s
56 9
wr iter
col umn
Ġh left
âĪ Ĺ
Ġhypothe ses
ĠStr ata
Ġs yntax
Ġhf irst
comp let
the ories
26 8
Ġword s
e v
Ġh ge
Ch annel
def ined
def eq
ext ension
Pres erving
Ġdist ance
l ong
Ġt ext
as on
res sed
log ue
Ġs ample
A I
Ġr c
rat io
Ġtime s
ĠB ridge
int s
g ue
vi ous
te er
Ġstrict ly
ĠI S
or b
Ġterm inal
Ġhr un
n real
B ad
ĠH igh
congr Arg
sh ort
ĠG ener
tr ap
Ġax ial
Ġ_ }
unc urry
5 0000
Integ ers
2 14
it em
pro jection
me t
ĠA s
id ence
E nt
Ġc ross
J AL
Ġs tage
79 9
eps S
b c
sub singleton
N E
me tric
Ġw ay
h ne
r p
Ġm ass
ra mp
Ġe LpNorm
Ġin r
Ġt ake
Ġp oly
iv ation
26 0
et er
Pres erves
Ġh mul
aract ers
ar c
ĠG L
Ġsupport ed
d irection
Î ł
Ġc im
ĠÏ ĳ
Do uble
ĠP rime
adant l
90 9
heck e
ĠB ounded
ĠM at
Ġcic o
== =
Ġbe ing
Gen erated
G uarded
Ġprop erties
Ġret Mem
ãĢ Ĥ
l ig
ĠReference s
ĠSy m
summ able
ĠâĮ ľ
b ian
Ġmatch ing
eration Ptr
a us
ĠH opf
3 30
qu ad
part s
Ġ answer
98 4
Ġre mainder
D et
Sem i
ĠI oi
3 15
pl ane
Ring Equiv
h st
al ly
Back ward
gener ic
Ġ( !
C rossing
in fer
3 78
Mem ber
Ġop erand
bi Union
For ward
5 20
Ġh step
Ġon ce
eventually Eq
U int
iff ord
ĠIs ScalarTower
Ġde t
Ġcomp arison
ĠAn y
76 9
P C
ĠIs Closed
mod ify
D iag
in fty
Con t
Ġind ices
Ġf ive
Mem ory
ĊĠĠĠĠĠĠĠĠĠĠĠĠĠĠĠĠĠĠĠĠĠĠĠĠĠĠĠĠĠĠĠĠĠĠĠĠĠĠĠĠĠĠĠĠ Ġ
ĠA rith
integ er
ĠIn it
ĠS L
7 12
3 17
Ġc nt
HighKPlatform Constant
ext ChartAt
ãģ §
Ġsub type
exp and
Ġdirect ly
5 399
con trol
Ġh not
Ġcp c
co v
uniform izer
Ġex it
Del ta
pp ed
is Compact
ĠâĪĤ (
Ġres pect
Decl s
Un iversal
Ġ=== >
If New
ĠRe l
I mm
D irect
Ġs eries
re ak
cre asing
or iz
Ġspecial ize
st op
se lected
Ġg radient
c endent
ar ing
ĠUn its
ĠC ol
G as
O ccurrence
Ġcol lect
Se par
Î ¨
Sub set
w asm
ĠT orus
cendent al
âĨ Ĵ
Ġc andidate
Ġ144 115
) $
Ġre verse
Ġ$ $
ĠC orrection
ve ction
Ġc gcd
ðĿĵ ķ
Ġh div
Ġh tail
orre ctor
ers o
M V
To ken
08 9
Flag s
Inter mediateField
h Î²
1880 758
ĠInt Pred
Ġ144115 1880758
Ġc sqrt
ĠL abel
ĠhÎ ¶
Ġsub sumption
L ayout
t gt
su c
Group s
ter nat
Window s
M orse
Ï ĸ
} {
og rad
aco bian
Ġb and
us er
Word s
Ġl arge
lac ian
Cur l
f e
Ġcoordinate s
B eq
H ilbert
S pherical
Ġd iag
ĠNat ive
at io
ateg y
Prog rams
D igit
A R
Ġmod ify
I rreducible
Ġw rex
14 2
re place
Ġen code
Hand ler
F G
Comm Semiring
3 54
ĠA MS
ĠI ter
Con s
( `
ld ata
trunc ate
Ġle ading
ur ity
Ġcomm and
C tor
ĠIn str
Ġ4 6
dec idable
Ġmin us
S M
Ġl ies
eff ect
N il
Ġh elper
ent ence
B oolean
me ssage
for ce
5399 742
Ġ(âĨĳ (
Ġcall s
ĠâĪ ļ
wh ich
Ġin equality
Ġst op
ãģ «
Ġst atus
ĠðĿ ķ
29 9
Ġscratch Mem
ĠI oc
ĠðĿĶ Ń
Sp atial
Ġor thogonal
z ag
28 9
fl ate
ĠSt rict
ĠHe ad
Ġcheck ed
Ġgen uine
32 6
ĠW asm
Field Op
ĠB inary
ĠcontDiff On
pl its
Ġpre v
itional ly
ce il
u ence
)))) ))))
finite Place
un itVec
20 9
frame Of
s lt
Ġsatisf ies
ĠN M
In str
Ġde pend
W ellFormed
3 70
Ġd own
Component s
10 5
al so
" .
C C
Ġin clusion
add ress
S keleton
Ġt riple
mod ulation
Ġmodule s
Ġd ch
con cat
Ġac cept
ĠT ime
he l
ĠðĿĴ Ł
su ccess
se arch
Ġlabel s
ĠâŁ¨ .
c ps
ĠN avierStokes
Ġh rest
g l
Ġ mp
ot a
Constant s
f sum
Ġp ut
Ġsy mmetric
at tach
se parable
ord an
Ġht tps
em a
filter Map
Ġfact s
d ch
ig zag
ir ichlet
ie ve
ob ject
ant itone
68 0
potent ial
s ite
{ "
de mpotent
Ġcl ause
w itness
S ch
Fact ory
Cr An
K er
Ġh right
Ġd i
Ġsum m
co variance
Ġsy stem
gen erator
e leq
ĠPro gram
g n
Ġdiff erence
ĠhÎ ¾
Ġdeclar ations
Pro jective
z y
ĠCon tract
ms g
Ġha bs
Ġob j
ĠA nd
ĠA PI
cod er
r ational
P t
Ġelab or
64 9
Ġ(â ĭ
Ġb r
Ġh pow
po le
ĠPro b
Ġ[( -
3 14
For all
Ġsepar ate
ge ometry
Ġh res
Algebraic Closure
3 16
Number Field
Ġp latform
âĶĢâĶĢâĶĢâĶĢâĶĢâĶĢâĶĢâĶĢ âĶĢâĶĢâĶĢâĶĢâĶĢâĶĢâĶĢâĶĢ
normal ize
Ex ists
row G
pr d
30 9
h and
7 18
er n
C ase
N th
Ġs lice
t ed
Trans port
time s
B P
Finite Type
Ġcom ap
Elab M
type s
Pack ed
Ġz pow
58 9
h Ïģ
Ġt ak
D ynamic
local ly
IT H
ad get
Ġi apply
Cl asses
ternat ing
en c
Ġen er
oid al
ad ata
24 9
ĠB ox
Cap acity
and ing
Half Plane
) [
In crement
cp w
par se
c G
55 36
Ġt a
Ġp in
Block s
S l
Ġh norm
D atum
cv al
Ġh val
Ġpro b
su res
Torus HigherHomology
Ġsatisf y
12 7
64 4
ffect ive
Ġdis patch
lo okup
Ġval s
s eries
Ġg amma
Ġc t
. "
po lar
Ġconstru ct
Ġarith metic
ĠWith Top
54 8
Ġr hat
orre cted
Count able
oriz on
h sub
ĠM ean
Ġo k
79 742
to wer
G ram
40 8
z smul
âĤ Ĵ
ast er
29 8
Ġ/ -
13 5
20 6
Se lected
Mark er
_ âĢº
un def
mem ory
trans late
div KTrialCallV
t orus
Ġr andom
ĠSum mable
A dele
34 2
56 6
ash r
ĠU Size
Ass ign
Ġ= ================================
Th reshold
Semant ic
st atus
ĠâĪ Ĵ
ĠC ard
pro cess
E lliptic
Ġre vert
Ġevm Sp
44 9
in duced
of List
Ġdo uble
Th en
ste ps
âĪŀ }
Ġh inj
An chor
v l
multi plic
Ġch i
h old
o hn
38 6
gener al
Ġc rossing
Ġblock s
Ġa eval
Su ccess
te mpt
24 4
Order At
ĠTheorem s
C ry
ĠPro blem
19 5
sp atial
ul ly
alle l
Mod ulus
Ġindex ed
erv ation
Ġhp re
op erator
In Bounds
flat Map
ĠByte Array
r f
bes gue
Ġener gy
c ert
insert Many
Gener ic
) "
b its
b in
Ġgroup s
in stantiate
Exp and
F resh
ĠL et
Ġr lp
Ġ3 1
50 6
ad map
period ic
Ġtheorem s
Ġc entral
ĠAt las
Ġâ¨ Ĩ
F t
R S
ĠA b
Ġlam bda
Ha ar
Ġ[ -
} \
Ġcontra diction
Ġi m
Ġt uple
Ġre m
K L
Ġd x
s olution
app er
Ġin ductive
ĠP oly
fl ag
Be low
Ġâĭ ĥ
Op tim
ĠS obolev
Sk ip
T e
cnorm On
sub module
C ases
gp fac
] `.
up lic
mk Const
Cm d
tr ins
B ra
Ass oc
Hopf Algebra
U se
Se e
num ber
h pos
Ġn hds
48 8
CL ike
se gment
20 4
Ġm ono
restrict Scalars
Ġcp ly
len oidal
ĠCo mple
check ed
Ġ_ )).
th at
16 5
Ġcur ve
ĠLemma S
e ver
ĠCon crete
wh isker
Ġ velocity
Ġeval uation
c arry
Ġpri ms
P si
Ġe dist
Ġar ity
cur rent
z e
os ite
Ġht v
Call Addback
C of
Ġc od
index ed
ac count
Ġdv d
ĠCard inal
ĠT actic
ĠE uclidean
3 74
input s
F undamental
M ultiplic
div ision
Equiv BEq
assoc i
not ation
en coding
ĠN ote
Redu ced
Ġex pres
to ur
] }
Ġav oid
Ġget Key
B eta
Ġl ong
Ġderiv ing
t orsion
Ġassoci ated
Integ er
Ġd ensity
ĠP ower
78 6
79 4
hÎ ·
P atch
Ġl anguage
Â ¬
58 6
7 59
til de
clz Result
ĠC b
id ity
ĠâĢ ¦
r n
Ġd one
88 0
d b
Ġsingle ton
âŁ ¦
Fun Like
Ġappl ied
Ex ample
Inter sect
Ġb udget
inst Is
Ġdiv K
3 34
26 6
* ]
ĠSimple Graph
gr ange
G ood
Bi jective
Ġ<| >
Ġop erations
Ob ject
s lope
dis crete
ro id
Ġhc ore
99 0
Ġ_ )]
ĠPos itive
h Y
ĠâĦ ĭ
l ace
Ġgen erator
ish ed
em mas
ck er
Ġg as
F rozen
Ġc orrect
lo ping
Ġq b
Ġm d
ĠT ag
interval Integrable
Ġha dd
Ġrepresent ative
Ġt e
Ġ3 5
prime Factors
h mem
Rel ative
3 38
g f
F E
ut er
n ow
t an
he ther
S FP
ohn son
ap ter
## #
forall E
Al ias
p f
:: :
Is Integral
Ġm athlib
Ġe s
in ing
Ġhd iff
fra kA
S egment
Ġs cheme
ĠRead ings
Ġp otential
rop y
Ġâī ª
ĠL p
ĊĠĠĠĠĠĠĠĠĠĠĠĠĠĠĠĠĠĠĠĠĠĠĠĠĠĠĠĠĠĠĠĠĠĠĠĠĠĠĠĠĠĠĠĠ ĠĠĠ
in finite
ĠC l
re quest
k nown
âŁ ¯
Ġ &
âŁ ®
Ġcard inal
Ġh ow
con struct
tes ian
ĠInt W
ro ad
Ġpre B
ĠâĢ¹ _âĢº
f ibre
or mula
Ġcn pi
Diff On
ĠVer ity
Ġh deg
I I
Ġh eta
set up
3 32
h ost
ĠâĨ ª
Ġto gether
clu ded
adele Bdd
b ad
18 2
s se
le y
con tract
Ġal ias
48 9
Ġcontinuous On
Ġstatement s
ĠĠĠĠĠĠĠĠ ĠĠ
Ġh exp
State Field
in p
Ġ[ [
m erge
ee p
or ient
Pack age
âĤĤ âĤĥ
Ġme ans
c ircuit
H ull
Ġ1 00000
ĠMon otone
68 9
Single ton
f resh
âŁ© ;
ĠR ad
Ġan gle
Back ground
se xt
ĠRe aches
iss ing
Ġfor get
x eter
Co ll
Ġpro bability
Ġw ff
======== ===
Ġvector s
ĠK c
n ers
Ġa ctive
ĠRe pr
Ġ @[
Const s
Ġpro ves
au rel
h erent
Ġsimp l
Co lor
ind ing
Ġperm utation
ĠÎ £
Ġm y
Ġt orus
Period ic
ook up
E ven
F aithful
5 36
X t
Ġs ite
ĠM vPowerSeries
Op posite
Ġlim b
ug t
Ident ity
Ġpr incipal
mpt ot
' ),
Norm V
p attern
Ġde g
elp ers
30 6
O DE
A ctive
Ġpaper VariableArity
reg ion
} >
cl m
34 6
Ġro t
Ġpre image
L ICENSE
Continuous Map
Ġun i
H ermitian
ĠTh ree
s orted
Ġht In
ener gy
n ed
Ġf resh
ĠK ernel
R hat
ĠMem Lp
ĠD I
et s
ot op
cf c
Ġfollow s
ĠC S
valid ate
re assoc
F loor
An gle
end ence
Ġa dele
Ġ_ ;
ois son
ine s
wa re
Ġpair ing
7 79
Ġ10 48
69 8
pair ing
Ġer w
itt le
point wise
Gen us
y Nat
Î £
s With
l iteral
âī «
ĠW eight
Ġabs olute
Su ffix
Ġname d
en sed
Ġf oo
po sed
ail able
Ġpair s
Comp osition
w in
f also
re index
Local Residue
block s
Ġop s
G erm
Ġf an
ĠĠĠĠĠĠĠĠ ĠĠĠ
24 6
Ġb bar
ĠG ame
Ġ20 25
ve q
ĠCon text
n ost
ĠRing Geom
ĠSign ed
Of Point
ÏĨ s
34 5
Comm and
ĠF ree
ĠCont MDiff
Ġv iew
Ġel im
trins ic
Defin ition
ĠHas FDerivAt
âĤ ĸ
fin ity
Ġ( #
âĢĸ âĤĬ
b ash
ot s
ĠRes ult
Ġrel ative
rab ility
Ġt sum
an ishes
Ġst ates
74 6
Ġco ord
Ġad versary
54 6
Ġfail ure
Ġmon ad
ĠOp erationPtr
f a
St atus
Ġr ate
To Hom
t B
c ertificate
M a
n ull
A dv
r one
Add ress
Ġrecur sive
C ech
Sy mmetric
Lawful Hashable
Ġm ixed
Term s
Ġal ways
Ġdpre P
T orchLean
S o
ne ar
Ġme tric
ĠR iemann
be low
ĠDes ign
7 39
A grad
Ord inary
Div Mod
Ġde modulation
St ress
gen y
Ġm o
Ġpro g
Ġb ad
val s
Ġden ominator
N ote
Ġ< -
7 50
Pro ject
ãģ Ħ
âģ °
ber g
ĠNum ber
h ott
Ġwr itten
B I
Wh ile
Ġ` -
Ġhd vd
Ġâģ ħ
Density Rational
Redu ce
SV DensityRational
d pre
Ġgeneral ize
g radient
Ġch osen
Mark ed
sy stem
} $
h an
L ink
h Ïĩ
T star
16 2
ug ation
if ormula
Ġpro cess
h Z
piece Fam
= >
of Pred
Ġfour Five
Ġm orphisms
theta Seed
is ance
co unit
ver ify
Ġrequ ires
e vent
on ic
Ġk k
Ġlist Len
Ġfact ors
7 14
Ġ` ``
andid ates
â ľ
Ġfinite ly
Ġir reducible
Ty ped
Ġpart ition
amm ing
has DerivWithinAt
F robenius
em at
Al pha
Ġh istory
ĠPi Lp
Ġb asic
C T
Ġf iber
Ġco st
Ġinv Fun
Ġcon nected
cover ed
ĠS low
fun ctions
Ġm varId
g g
i ance
Ġexec ution
Iter ator
he st
G raded
Ġh cl
oss ible
od ge
ĠArith metic
3 50
ch er
Ġuniv ersal
ic ensed
ĠM odel
Ġne ar
R iemann
Ã ¶
Ġout side
No X
âŁ©âŁ©âŁ©âŁ© âŁ©âŁ©âŁ©âŁ©
mul ation
ĠContDiff At
ĠÎ ŀ
th reshold
mme try
Sub monoid
Ġof Real
ĠCon stant
Sec urity
r v
Ġs low
local Get
for med
Ġtrans late
ĠD o
Ġto ken
Abel ian
Ġauto Implicit
M id
7 32
ĠPro bability
B alance
ch oice
Ġpre vious
N N
Ġhm s
3 39
Den ominator
Ġ5 5
thon ormal
E lim
id iagonal
Ġtrans lation
ro th
Log ic
Ġs m
cf g
3 56
Str onglyMeasurable
h J
Ġb eq
Semi def
l ude
ant um
36 6
Ġj oin
ject ure
Ġdecl Name
s a
12 2
olic y
ill ing
Ġt akes
Ġtrans form
l cm
G T
st andard
ĠT e
cycle s
} .
Ġ 72
ankPaper Realization
Ġordin ary
Ġpro blem
Ġnon negative
Ġd irections
ot ed
iterated Deriv
Ġco s
Ġ" "
t ilt
Ġs addle
ĠP air
79 6
Op t
Ġformal ization
M ultiset
arith m
hÎ ³
G adget
at ter
L emma
Ġj oint
Profile s
comp ose
lam bda
No etherian
ĠPar ser
[ (
Ġimpl ies
20 5
Ġfull DivN
3 37
Multi plier
Ġf ailed
ĠTop ological
i sed
Ġâīĥ +
ĠP aper
Actual Primary
h istory
LI B
, (
den om
v rey
Prime s
F ra
rone cker
2 55
x a
at ibility
ĠDesign Params
ĠC s
de generate
Def ect
ĠC M
icon tinuous
64 6
Ġdefine s
comm ut
c ro
Hom ogeneous
7 78
Ref lection
Ġ 68
CallAddback Beq
Ġcell s
A U
B undle
E E
non trivial
Ġus er
Ġcps BranchWithin
Ġsign ature
ĠZ ero
lect s
E S
ab ly
mem Lp
h Î±
Evm Asm
Ġeps ilon
Ġcn p
ig hest
Ġt l
Re fin
2 32
hÎ ¸
Ex it
59 6
fold r
y le
Finite Measure
Represent ative
act iv
Ġre port
Ġsep Conj
Ġs caled
il de
G ame
Ġhs plit
ĠDecidable Eq
Aut ograd
E R
Ġw ant
node Rel
get App
Nat ural
U sed
sy mptot
Out come
Ġh det
Dist ance
Ġst ated
Ġ(â ¨
or ith
Ġc bl
Ġir Contract
Ġmem Own
Ġat tribute
Ġa dv
Ġrule s
Ġ measu
ss ion
e lem
Ġf s
Of Nat
44 6
88 8
ed ar
ĠN OT
Neg ative
Ġi Sup
Dis c
Al ice
em it
uest ion
Ġinteg ers
7 74
ĠF rame
58 5
Or thogonal
ific ates
> }>
su per
is Integral
fin supp
sy mmetric
Ġestim ate
B ilin
ad v
mk App
âī ¤
Parameter s
Ġ100000000 0000000
Over lap
Mesh Intersect
C W
qual ity
c lock
Con tinu
co tt
ap lacian
T wist
clu ding
Ġ< {"
64 22
Ġb alance
ĠPressure Stream
l aw
Arg ument
Ġcol imit
Ġr d
ĠF ull
Ġex falso
Enve loping
m ux
Zero Divisors
Ġac count
ĠMeasurable Space
ĠB ack
Ġread s
Ġc rest
Of Shape
)] ;
u ch
Comm HopfAlgCat
Ġ362408 69
Imm ersion
Ġst d
Ring End
st atement
Ġre duced
Ġass ign
? ,
Ġass ignment
s heaf
Ġh hi
She ll
sse ld
c orrect
power set
aco bi
she ar
Ġi vth
Ġin clude
Ġor acle
Comp ose
B in
Ġl ater
Ring Aut
âģ Ħ
fastmath Flags
c sup
D rift
Ġcon stra
Ġcf c
ĠAn not
Ġj m
cc ent
/ (
P ublic
Ġalgebra ic
Ġpack age
prim ary
ä ¸
ro u
âģ ¿
imil arity
i Inf
Mult ilinear
ĠGr aph
Ġlim its
rule s
2 34
Table Chunk
7 24
B ob
Conv olution
Ġt urn
F an
Ġspec ific
ĠE ven
end er
Ġcommut es
ed s
Initial ization
Ġconstru cted
Ġn smul
2 72
al ong
po lation
N W
im m
bu iltin
Ġl integral
ĠR untime
ĠPower Series
al low
74 24
Ġapp end
Ġ om
cipe Kin
KL NW
ãģ ¯
t p
Ġh eight
at ors
ime de
M oving
Ġpre c
Ġrecord s
Ġs pectral
ĠIs o
fact s
apt ive
} [
Ġle aves
Ġno thing
ĠM essage
imede an
al s
ĠR S
Ġlo ad
Ġcharacter istic
N ine
ĠB asis
Trans ition
90 4
Nil potent
ie ck
po Impl
ĠIn put
Equiv alence
O dd
lo p
Is Domain
ent ed
ĠS ingular
strict Mono
cod able
Ġe mbed
Ġs ort
Element ary
in ce
Ġge ometry
ject ures
Ġh con
Distrib MulAction
Ġcongr Fun
Ho lomorphic
R lp
al og
Ġenv ironment
Ġre ason
Ġo ccur
3 10
Ġout come
18 5
âŁ© ]
ex pect
Ġh im
end ieck
Ġac ross
roth endieck
ĠIntegrable On
Ġto String
Ġc er
an ded
constant Coeff
ãĢ ģ
n odup
Three fold
D igits
Ġch oice
otop ic
ĠComm Ring
inter pret
b a
ĠAlg Hom
Ġcal lee
ccent ric
cur ry
Ġk nown
3 13
re lation
Ġg cd
t uple
ĠT H
59 742
Ax ial
s atisf
00 4
ĠJ son
Module Cat
lim b
ĠCh ain
th od
pri ority
Fail ure
Ġm t
T m
le nd
Ġ================================= ================================
Ġpro tected
âĤ ļ
P T
iv ar
Ġgoal s
am il
59 5
Ġhd is
ĠJ o
ĠG e
Ġe v
Ġ` âĪ
Ġop aque
[ [
Ġh neg
trans lation
Ġs he
ĠR edu
F requency
w ex
Ġw arning
Ġimp lementation
Ġm ultiset
min Key
d ense
ĠG oal
Ġex ternal
Ġsuppl ies
ĠTopological Space
' ;
push forward
ĠC ur
29 5
S wap
cy clic
ve lope
Linear Order
En code
ĠRe poImpl
in orm
69 9
Ġht s
Sign ature
ĠLinear Equiv
Ġis Closed
28 79
Ġsyn the
Ġg re
âĬ ¢
evm Sp
At Prime
math bb
d imension
Ġp olar
ãģ Ĺ
ĠðĿĶ ª
Ar c
De composition
Ġs n
Ġm ove
Con struction
arg inal
2 58
Sec ret
76 6
M Var
37 5
Ġmatch es
Ġc tor
7 17
Ġw b
Ġre d
re vert
Ġob jects
S mul
Ġsum mable
Ġch unk
Cy clic
Ġh term
pair wise
ĠinferInstance As
Ġdec idable
âķĲâķĲâķĲâķĲâķĲâķĲâķĲâķĲ âķĲâķĲâķĲâķĲâķĲâķĲâķĲâķĲ
ĠâŁ ¦
] ).
Ġl ib
ĠO ver
2 10
Ġwith in
59 40
K e
ĠV ec
L C
i ers
ĠE lliptic
mult ip
Ġt bool
of Bool
ĠB uild
âŁ© ))
ĠIs Integral
do uble
S coped
po id
ĠRat Func
Ġad joint
rou poid
Root s
7 26
ĠFinite Dimensional
D ot
Match es
Ġget Elem
co st
ãģ Į
Rot ation
Ġb inder
G F
ĠW hen
Card inal
L Expr
ex plicit
Ġweight s
le ctions
Ġcomp lement
L anguage
ĠEx p
vable Slots
m apping
' ',
Ġsur jective
an ual
Ġre mo
ĠYul Expr
ĠCo ordinate
Ġ; ;
ĠU se
7 16
At trib
Regular ity
= {
use Backward
to AlgHom
it eness
B ial
defeq Attrib
L emmas
ram ified
Ġpc f
ro b
Re mainder
add ing
Ġc pp
Ġd f
complet eness
d os
Ġv Top
2 28
f veq
ir ror
Box es
ul ift
Ġnode s
ĠI mpl
Ġaux iliary
Ġ1 80
Read ings
Ġer rors
32 5
ass ign
T emp
7 13
Index ed
no ull
Ġcheck s
Ġcl asses
y m
ci procal
r nd
noull i
Ġadd ition
99 9
Ġh O
Trans pose
? .
Un supported
ucl id
Hy per
H ist
Ġl ink
ĠInner ProductSpace
ĠInterval Integrable
Special LinearGroup
Ġh row
is imp
Ro ch
hÎ ¦
Frame work
partial Deriv
ĊĠĠĠĠĠĠĠĠĠĠĠĠĠĠĠĠĠĠĠĠĠĠĠĠĠĠĠĠĠĠĠĠĠĠĠĠĠĠĠĠĠĠĠĠ ĠĠĠĠĠ
D iagram
er able
Ġc ert
A cc
I m
Ġcon trap
30 5
F C
Ġnot e
Ġs qu
$ $
ĠO mega
L ow
Ġstr ong
Qu iver
Ġvar iant
ram ification
s n
Ġd erived
ĠC tx
shift ed
` (
it ical
U Size
** **
Ġdistrib ution
Ġ erase
Ġover flow
Pack ing
ism atch
n am
Ġh ok
Ġe igen
deriv ing
e LpNorm
k ostant
Ġn u
Ġ_ _
St x
Ġform at
integrable On
Ġh ence
Sy mm
r m
iter N
I Z
g ate
Ġn ormed
ĠT oric
min imal
Ġenv Scale
Ġ 76
ne q
Ex ceptional
69 0
Compact Space
ĠC om
M Vars
Ġ anti
Option s
ĠId ent
ĠMon ad
ound ness
pre cond
Ġconstant s
Con tra
sh rs
Scal ed
FF FF
Pro cess
Ġt gt
Ġbe en
I face
Ġa ff
ers istent
Ġt wp
dis j
ĠM Î²
He cke
o bs
Ġnon trivial
Ġde st
7 10
x y
Closure At
re duced
la mp
ĠB t
chart At
Ġpoints To
Ġ{ (
il lation
u int
id ing
orith m
ĠUn ique
Ġ( $
Ġa shrs
Ġap pe
ĠG amma
Ġdis crete
Re write
Sem igroup
Ġâĩĳ (
Ġhx c
tent ion
Ġdefin ing
her it
pk g
Ġen um
2 38
Ġd ir
00 9
ĠW P
Ġhs m
ĠD ist
v iew
ĠV erso
Enveloping Algebra
antr r
Sh apes
Algebraic Geometry
L O
Ġh idx
Ġgo od
ĠC edar
w ner
measurable Set
d ensity
ãģ ¦
App rox
Ġ================================================================= ===========
Ġscratch Un
d Coord
ĠS quare
con struction
csu c
hom ogeneous
Ġ} ]
Ġâīª âī«
ĠL aw
Ġj al
log b
H ex
Ġstruct ural
les cope
Ġ1 40
ta ken
Ġmultip le
Ġw asm
7 15
pro cedure
a a
Adic Completion
Pair wise
Ġav ailable
la Hi
Ġi mm
13 68
tri z
Homology Map
Ġs ends
Id s
la Lo
imp licit
Ġwe il
3 72
h Î¼
Ġ1 43
ĠA xis
arg er
atri ces
real ize
Ġc orrection
ĠState T
Ġn om
Ġk er
Ġhe v
Ġmon omial
Upper Retained
2 16
in dependent
ath emat
Lo ad
NCH OR
15 1
Exp ansion
su ffix
prime s
Ġps i
Ant i
Actual Signed
effect ive
< -
Ċ ĊĊĠ
r ull
Ġinter section
ĠVal id
ul ated
ï ¼
Ġth m
Read er
áµ Ģ
Ġh mk
ch ema
Ġhp d
Primitive s
Ġh env
Ġst rip
Equiv Of
Ġwr apper
ta c
I dempotent
rad ical
Ġ-/ ]
w al
Ġlength s
it erm
er ate
f s
Ġw hether
ne ct
ĠLocal ly
Dispatch er
A V
ĠRe turn
Ġsubst it
ĠL Expr
De p
ĠReg File
hel per
h erence
Ġh armonic
Ġ4 000000
ĠValuation Subring
l k
sw er
Ex tra
activ ate
isimp le
b ridge
C laim
C s
Ġg ate
ĠProfile s
Deriv ation
80 8
wf n
Annot ated
simp lex
D word
Cert ificates
C ascade
ke w
rop ic
coordinate s
Ġd rop
Ġk eep
or th
2 36
Ġ4 9
Ġmul Mod
B inder
P R
st x
ĠQuery Impl
2 18
Ġr iemann
ut ure
um my
ĠO R
jet s
Ch arge
s div
Ġi intro
r ical
op erators
Ġde composition
Ġtype class
ur b
h zero
Ġm apping
ind rical
Ġh max
Ġcomp are
79 5
reg ister
Ġâ ľ
ĠBit TM
Ġar m
Ġ[ "
7 70
inter p
ĠSub singleton
re present
ĠS chwartz
ateg ories
ĠA NCHOR
Ġco uld
Diff erence
Ġinter pret
Ã «
ma cro
re activate
Ġb undled
10 56
Ġd ite
Ġl ctx
am ond
39 5
max Key
Ġimp lement
Ġcur sor
Ġa verage
Ġne sted
ĠReg ular
ĠAE StronglyMeasurable
69 4
Ġor bit
âģ º
55 5
Ġhp air
' ];
Ġh ell
s Tilt
Ġe lem
Principal Divisors
ĠS p
Ġâ ĶĢ
ĠCon vex
Ġsum s
Sh arp
Ġcf a
d irect
Mon ic
Evm Word
N S
S pectral
Ġhw s
ĠSingular MayerVietoris
ar ies
ra ise
Ġ(( âĨĳ
mm ing
ve ct
el se
IP C
Ġapplic ation
Ġd iagram
Ġ 96
comple tion
h base
Ġe t
ri emann
c lose
d irections
âĢĶâĢĶ âĢĶâĢĶ
w t
ri st
ĠA nt
ĠT ail
ĠS o
C R
Unit ary
60 4
Pre order
ĠR ow
ĠInter nal
Co homology
âĨ ¥
ĠAnnot Term
ĠPro tocol
am ber
min poly
arch y
Ġdirect ory
cps TripleWithin
Q Hat
al ter
qu eness
Product Layout
interval Integral
Ġex ercise
Ġk appa
Sum m
lev ant
p to
it le
Add Monoid
)))) )))
77 5
ðĿĶ Ń
Ġ- âĪĹ
Deg Zero
j On
Ġat tr
áµ ¤
in ertia
Ġ3 58
L ookup
Comm ute
Lie Algebra
Ġp e
ĠD ata
Ġ(âĭ ĥ
Ġp at
Mon omial
Co limits
Ġs er
Ġs oft
Ġin stantiate
av itt
tw ist
ge ometric
au th
Ġsec ret
Ġd ense
rot ate
Cover ing
l u
ĠC opy
T rig
ĠF I
hom otopy
Ġdiff erential
âĬ ¥
an te
Ġv anishes
2 12
2 50
Ġht k
Big O
Build er
Ġm erge
Ġnom atch
t ure
str ong
Inter p
ĠH eight
Ġhb ltu
Norm U
h le
60 9
Ex plicit
ĠHe cke
t sub
Eval uation
ãģ ª
ĠĠĠĠĠĠĠĠ ĠĠĠĠĠ
doc string
ccentric ity
P olar
Ġhs v
O ri
âľ Ŀ
D art
Pri ce
Ġcontrap ose
Ġst ored
40 9
Cond ition
68 6
Ġexist ing
P ayload
Lawful Monad
Ġex cept
-- -
Ġhs p
Ġpr int
Ġv ertices
ar ly
hÎ º
áµ ĩ
ms b
equiv alence
Ġcfz o
Ġh gen
Ġa uth
D ict
Ġh transport
tri m
Ġmin imal
Control s
AT H
ing u
te mp
Ġline s
c usp
rough Canonical
Ġ` @[
ĠR c
Comm Class
Re fl
2 79
g on
0000000000000000 00000000
ĠProb Comp
h sum
AU IPC
dis patch
ĠU pper
tr d
Ġedge s
E igen
Ġh valid
Ġrest riction
Ġsay s
ol vent
Ġc en
Variable s
ĠF bar
Pair s
Ġfail s
ĠLayer Params
Ġrough Saias
Ġh next
to Matrix
Ġch annel
Ġver ifier
Metric Space
2 20
] ),
ĠUn iversal
Ġuniv erse
Ġd on
ĠK it
Comp ile
Ġpro ject
Number Theory
Ġhe ap
Ġg ive
** ,
local ization
h len
Ġc R
r ink
norm Sq
ĠL ake
Ġcontinu ation
Ġn P
equal izer
2 59
function Field
C artan
ab ove
Modular Form
Ġc g
Ġin line
Ġexponent ial
Ġcd prd
Is Prime
Par ity
Ind icator
Ġb ump
phi L
Sub space
ĠU int
erat ing
at at
Ad missible
On ly
Ġpro duces
Uniform Space
ĠComp ilationModel
Ġle an
join Root
2 29
E ta
in cl
s gt
ĠS Y
ĠSub algebra
ĠP ure
Co unter
ma jorant
Gener ates
mul hu
74 5
atat ype
l ipschitz
ĠLe af
ĠE r
N one
Factor ial
to Base
am b
induction On
ĠD TreeMap
ĠW ITH
L U
d ir
t ml
Comp atible
Ġd if
Ch aracters
App end
Ġle ss
app rox
Ġpair wise
Ġprime s
raction al
Ġcomponent s
m it
in habited
f rontier
Ġf ourier
Ġproduct s
w s
Ġun its
Ġ20 24
Ġt aylor
Ġco a
L B
Ġn Mem
ĠOpen AI
Ġ8 9
Ġbu ilt
adic Valuation
Ġform s
ĠAnalytic At
Ġ2 00
ĠhA B
Ġab stract
Om B
to Submodule
S olve
Ġ 59
M et
Ġl q
Ġobtain ed
Cor ners
cont MDiff
Ġaut om
Ġis Valid
Ġhs hift
Ġclosed Ball
b req
Ġ 58
of PDE
con tinu
Valuation Ring
Ġc laim
Ġn s
hf g
ĠM ultiplicative
Oracle Comp
ĠâŁ¨ [
PDE Iface
ot angent
Section Nine
Ge vrey
âĤĽ âĤĹ
ield s
16 3
38 5
Ġer r
Ġrun s
C vth
To End
Prefix ed
ĠIn c
ĠE Real
s In
Adele Ring
Â» )
ly Connected
Ġun changed
ke ccak
Ġother wise
2 26
re name
A C
comp are
ĠPro position
Ġ` _
uar ante
ĠH ilbert
cre ate
Ġexpression s
Ġcontain ing
Ġo a
ut ine
dis ch
Ġ(âĪĳ '
h mono
} ;
F Vars
' '.
ĠC auchy
pl atform
Function al
Ġinter p
ĠCoeff icient
ĠCorrection State
F DerivWithin
H A
ĠðĿĴ °
Ġiter Count
ih il
ad ded
Ġuse ful
w ell
Sub singleton
S yn
Ġ1 79
add er
ĠYul Stmt
Ġlo okup
r ates
f oo
Ġf rontier
Div ision
sk i
syn c
ĠGener al
ĠPrim ary
Ġco erc
oll ary
Ġext ended
o angle
ud a
Ġgener ate
l ated
â ±
v is
Ġan other
R ay
user Error
C ar
Ġor ient
For k
ĠâĪŀ )
Ġdis charge
Ġm ultiplicative
With Corners
Ch ild
2 78
v sub
re mainder
c b
Ġdiv ision
ĠÎ² p
ĠEuler Mean
Ġconv olution
Ġd igit
Le aves
Ġd ynamic
Ġhb c
GeomLevel Pic
if iers
Ġwh isker
â± ¼
Ġem itted
Ġ360 2879
ĠLemmaS Windows
ce c
S core
n s
ĊĠĠĠĠĠĠĠĠĠĠĠĠ ĠĠ
tern ative
d or
} '
48 4
Ġs heaf
Internal s
Ġ" ,
Ac cept
am ification
Ġhg ap
D igest
Of Modules
Dec ision
Chart s
a cval
Gr ind
ĠHeight OneSpectrum
dor ff
64 5
)] )
Ġra In
T ilde
Partial Order
sh ared
Comp ilationModel
Trans late
ĠhS R
Comb ination
Rec ur
! ]
ĠC áµĴáµĸ
Ġcap acity
St andard
Ġhom ogeneous
joint Smooth
M F
stru ctions
54 5
Ġâĸ ·
op Norm
ref lection
ĠE mpty
Ġp t
Ġf varId
Comm ut
Ident ifier
Ġsub space
Ġhj k
ht In
An alytic
Ġh all
Inter polation
Time Rows
Ġderivative s
Test s
Ġcond itions
con tent
A P
Ġc lose
sp C
72 27
is en
ĠIs Localization
m otive
ut ual
Ġsemant ic
âŁ ª
ĠHash Spec
28 5
ma sum
ĠSkeleton Readout
ĠTop Cat
2 15
ig ens
Ġ6 5536
Ġass oc
Ġcheck Piece
omin ant
Lawful BEq
igens pace
in valid
to NNReal
Ġz eta
ĠPh ys
Ġside s
ĠSy stem
S er
Ġd Hi
Ġcon vent
succ Above
T orch
Ġh delta
ĠM agma
E pi
ĠC f
Ġmark ed
ĠN ormal
ĠCon nes
ag on
Ġdep ends
Trans action
Check ed
Ġf l
ick man
! [
Discrete ValuationRing
Ġc of
Ġh min
Ġaff ili
s Sup
Mono Ty
P oisson
Ġ[ <-
th row
Ġadd s
Ġ` |
Optim ize
W eyl
Ġj p
he ap
Ġ3 7
Ġhs ource
s cheme
bit vec
Stage Aux
Ġge ometric
Orig inal
} ]
ert urb
Ver ifier
Ġfun damental
ĠContinuous At
Ġlift ed
I G
Ġappl ies
ĠTri angle
ĠH ermitian
Ġ7 20
R ed
Ġ. .)
40 4
} :
Dis criminant
Ġen nreal
rec ur
Ġh ost
Pro t
Ġpres erve
ae measurable
-------------------------------- --------------------------------
ĠhÎ Ķ
hi j
Ġvalid ate
2 19
se g
of ic
y oneda
ĠB KLNW
Ġhs cale
3 35
Ġh reg
Ġcal led
ĠCon fig
diff erential
Ġt auto
52 5
Wave Bounds
S upp
pro blem
10 7
Ġh fun
ĠLift Tangent
24 5
Ġ$ [
Ne ar
m v
å ®
ro s
U ses
l Space
match ing
Leaf Certificates
HighKPlatformAffineCorner LeafCertificates
Ġsh a
con tinue
Ġin cluding
ho lomorphic
ann ular
)) )).
preField BP
Multiplic ity
] `,
ĠF rom
ib r
arithm ic
ĠP ic
p m
Layer Params
Ġe mp
Length s
T ol
Con tent
s cope
Ġis omorphic
fact ors
E mb
Ġm an
Comp arison
Ġ== >
Ġ' {
âĪ ļ
col or
Ann ular
T x
ot ropic
âĤĹ áµ¢
m er
top ology
) (
n a
Ġc pl
Ex ternal
Three CNF
of Add
Ġ1 12
Ġcount able
re peat
Borel Space
Ġf intype
Ġw ss
Val s
3 55
22 5
ĠNumber Field
Ġx or
Over flow
Adj acent
R ho
u L
ĠF lat
inst SMul
List F
face s
Ġcomple tion
Ġelement ary
Ġm x
eigen values
g c
Ġu Hi
IR Generation
Ġsrc Bytes
Enum erable
up er
gre ement
ĠC ircle
F S
M OD
W in
i k
ĠÏ ħ
Ġ vec
Ġ( _,
Ġse arch
L ex
c B
ĠG aussian
P ivot
ĠĠĠĠĠĠĠĠ ĠĠĠĠĠĠĠ
ĠL r
child C
â ĸ
Con traction
Ġresult ing
Ġshift Mem
ed ist
non units
ime d
se e
b n
St op
Lie Ring
O bs
Ġ360 99
up ling
La grange
A xiom
Ġencoding Length
en um
Ġm issing
ĠI ts
st abilizer
zero s
N T
Ġh upper
Ġobser vableSlots
Non Unital
In finite
7 37
Ġi prop
76 5
mod ular
Ġc map
Is AlgClosed
Ġal loc
Ġlo ss
Ġt w
HighKPlatformConstant TableChunk
ent z
co cone
d raw
ĠEuler Transverse
ĠComm and
An swer
ðĿĴ Ł
Ġ1 60
Ġexp TwoMulFixed
ĠPeriod TorusHigherHomology
l aurent
to Affine
Ġiterated Deriv
Ġke eps
Ġsh l
cm d
ĠCS G
ĠP Unit
Ġan not
e omorph
Ġc at
L Space
Form al
Ġ4 5
55 79742
Ġconfig uration
Ġp ossible
56 089
ĠAdd ress
Ġcmul r
Ġis Compact
ĠQu ot
Form at
2 17
Ġcy clic
ward Enumerable
Instance s
s ix
at ivity
56 5
Lo ss
Ġh supp
ne ction
40 6
Refin ement
Ġaffili ates
pe ated
Ġht y
Ver ify
de st
Ġrest ricted
Ġre search
Ġsy m
J acobian
Ġp a
ĠC all
constant s
ĠOut going
e uclidean
Ġc ress
ĠOrd inal
ĠRad ial
pro ject
ĠL anguage
mk Q
Ġp ivot
ĠCon st
Ġtime Rows
os c
Sq rt
8 1
Ġh sep
Ġc L
ag er
Harmonic Young
Cry pto
t l
Ġh op
Ġh Eq
eb ius
Ġj Mem
i ous
al ity
ĠE ach
by she
ighb our
byshe v
Ġb el
ĠT able
g ery
ma ster
Ring Of
Ġcc n
R A
Dec ide
r u
z k
Ġhone st
78 5
Ġpro position
ĠCh al
)) âĢĸ
Ġcol or
sum To
inj On
Ġ5 64
mod ulus
node s
U fan
10 72
Ġexponent Word
Ġcontinu ity
2 74
ĠH a
60 6
Local ized
pe ed
20 15
29 742
t eness
Ġhm n
Ġcn q
âĮ ī
Is Manifold
Ind ices
Pro per
D om
b olic
Ġ` #
l z
s Of
ĠPeriod Family
ĠImp orted
ĠC R
Ġq Hat
sy lib
leading Coeff
al loc
ĠA N
Self Adjoint
in cs
To kens
ĊĠĠĠĠĠĠĠĠĠĠĠĠĠĠĠĠĠĠĠĠĠĠĠĠĠĠĠĠĠĠĠĠĠĠĠĠĠĠĠĠĠĠĠĠ ĠĠĠĠĠĠĠ
ir t
Ġin stant
ph incs
chart Alg
Ġha c
Distrib ution
Ġb uffer
ĠAdd Subgroup
[ =
ĠT angent
ĠG lobal
He at
Ġs phere
Ġsemant ics
Ġ3 43
Is Maximal
Ġh it
ĠRe f
ĠF orm
Ġob s
Ġhe at
Ġâīĥ+ *
Cur rent
Ġ143 56089
Ġ14356089 88
M pres
Ġiterated FDeriv
en orm
ATH LIB
amb ient
Ġd im
ĩ ĳ
re ate
44 4
cover s
16 7
Special Periods
Ġbind ings
ul o
is ation
Un i
Comp lement
D ense
S i
áµĲ áµĴáµĸ
Ġmember ship
nf ld
phincs Security
Ġar row
Ġnormal ization
2 13
Ġb undle
ĠTH IS
er ed
L ong
is Value
Evm Yul
hs mall
Ġv t
To Nat
Ġdot Product
2 70
99 8
H int
Isometry Equiv
n ominal
+ +
Ġt ilt
ĠC anonical
ot om
ff ff
or entz
ut ing
ĠD el
Ġto y
ĠSource Semantics
Ġm eromorphic
Ġpro jective
uni q
setup At
e very
Ġh key
Ġcon sume
ĠSet Like
nn real
Ġm atrices
00 6
ich otom
ĠC ross
ut ive
lift ed
Ï ĳ
et ch
Chart Jets
Ġe ff
finset Sum
E ss
Re maining
ww w
v masum
ĠH y
Loc us
90 224
ĠComple te
7 72
ar ter
ĠS phere
Ġke ccak
b lob
Ġhid den
ĠWeight ed
Ġitem s
q Expand
Ġac cess
7 55
Ġf ast
Ġst ream
Ġcx met
Lsb D
G iven
K aehler
co unter
P k
Ġoutput s
orig inal
re presentation
Of LE
36 5
11 1
Ġl ay
E ll
Ġhd ist
Ġk now
Ġabel ian
L icense
Ġs ingular
B C
Ġhx i
o ch
est ed
Ġprov ided
ĠAddComm Group
ĠS mall
Ġimp licit
Ġen sure
Ġs upp
sem igroup
Ġco me
ĠIs DedekindDomain
place OfPoint
Pro v
Ġhu v
ĠS lice
áµĴáµ Ī
Wr iter
Ġ1435608988 909
ĠM ulti
Ġhd om
17 80
cur ve
Ġr pow
Ġhs h
Ġs orted
ĠS plit
Ġd word
en al
Ġpres ent
hift Right
S orted
Ġh ard
ĠS ince
Trans fer
^^ ^^
HighKPlatformAffine Semantic
Ġpin ned
de lic
co sh
Re writer
Ġj et
B ilinear
ĠL ipschitz
RO N
ir refl
ode s
26 5
HighKPlatformAffineSemantic Corner
et y
ĠG alois
HighKPlatformAffine TableData
Ġprim ary
Ġ?_ âŁ©,
sc r
s pectral
Ġw n
Ġper p
Ġh ord
ãģ ¾
Be fore
ĠM ATHLIB
Universal EnvelopingAlgebra
W ell
ĠL imits
ĠZ eta
Ġappe ar
j q
u ra
Ġw it
ĠC ell
ad ow
Ex pected
Ġas semble
Ġpolynomial s
Ġ( âĨ¥
to ContinuousLinearMap
art ier
Ġw ex
Ġg t
ĠContinuous Map
structure d
Stage Controls
ĠFI LE
Sample able
A st
ĠLe ft
Ġa ig
ps ilon
D D
g rid
Ġref lection
Add Circle
L ittle
X or
ent ly
ref lect
Cl ifford
Ġ358 90224
Ġ35890224 7227
d ence
ar range
ĠM VarId
ex ist
cal ldata
elf z
Ġhd r
S ched
Ġ?_ ).
Canonical LocalResidue
ĠComm it
it or
ĠS igma
Ġact s
2 76
N odup
Str ong
Ġb atch
Ġc ircuit
Ġf low
H old
se c
pre p
Tactic s
App roximation
Ass ertion
apt ure
Ġmid dle
A gree
cal es
âĢĸ ^
Ġput nam
Con tour
Ġthere fore
d iagram
edge s
ĠR ight
ext ended
Contra cted
h bound
S S
er g
V ert
ĠM or
âĦ Ĵ
Ġinfer Type
Ġcom u
Ar ch
ip t
Ġbe come
Ġhom ology
Ġind icator
c pow
Def ault
fd Boundary
ĠE nd
to Set
ier archy
ological Complex
Over Tilt
i pped
l s
su s
Ġb ne
Ġ9 00
Ġslot s
enal ty
Ġ4 32
Ġout Bytes
run ning
ĠSupport ed
ĠB ankPaperCanonical
ĠS phincsSecurity
ss hiftRight
F T
ðĿĴ ª
IZ ED
u ses
k w
Ġu Lo
W P
Ġhand le
â¦Ħ ,
F Var
G ain
As Error
General LinearGroup
ĠS calar
wr iting
AD D
Query Bound
ĠPoint wise
Ġvis it
S chwartz
able d
Ġcomp ute
Ġpro cedure
Ġcover ing
Ġf var
Ġc norm
F e
ĠC v
Ġb ilinear
Ġd uplic
d ite
p gpfac
k ap
ĠQu adratic
Ġp adic
h int
Ġke pt
NCH RON
ĠSY NCHRON
Ġs pectrum
Out going
ĠSYNCHRON IZED
U Lift
l r
ut ations
M vPowerSeries
mul Mod
Ġacc umul
Ġwarning AsError
R LP
fun ext
dele te
Ġpl ane
Ġ1 35
M orphism
of un
Ġob lig
yn kin
Ġ(âĬ ¥
t otient
ĠP latform
With Internals
Ġcontrol s
Ġ3602879 70
âĪ Ĵ
ĠDifferentiable On
Ġb ra
Ġcn x
Perm utation
ĠV e
Ġnormal ize
Ġo ur
W asm
48 6
bo th
uch es
24 00
ĠL E
Ġht op
Log Space
Ġann ular
Ġtrans fer
f erm
m aterial
ĠStrict Mono
Factor ization
R CLike
Ġpath s
encode ThreeCNF
Ġh out
g ine
Ġh tr
Pro blem
Ġh root
pe line
pro jective
g gest
u ck
Hist ories
Ġne ighborhood
Ġop tim
ĠF ourier
Ġdot Q
jal Off
ĠMonoid Hom
ĠRe p
te en
Ġb a
d if
chunk ed
ĠS M
Ġad join
so bolev
c pr
Bra cket
k i
Â ³
Ġrintro s
ĠA nn
49 4
F iltration
Ġop posite
Ġconver gence
e ld
Ġe ss
Ġbel ong
In tro
Ġ\ "
Ġagree s
( )
10 1
pres erving
box es
cur l
Ch i
Ġqu ot
Cell s
âĬ ¤
is ing
P O
In c
ĠCy cle
Ġ358902247227 37
to Expr
Ġcon tained
ĊĠĠĠĠĠĠĠĠĠĠĠĠ ĠĠĠĠĠĠ
74 40
ale ph
64 7
ĠEx pression
Ġhom otopy
Ġ1441151880758 5
un q
ĠT uring
15 7
Ġe qu
de termin
sh a
L A
is sion
Ġ(( âĪĳ
ac y
Fn s
Ex tract
la ke
family Readout
Color ing
Ma jorant
p ages
Ġs olve
Ġin struction
Call s
Ġke ys
s Inf
Edge s
v add
Ġa mp
Ġ- ((
ĠD irect
Bu f
l ision
Ġcc j
ãģ ĵ
Ġname space
Ġp b
comp lement
ellF ounded
Non neg
Ġb in
gen us
Ġwr iting
Ġpack ed
Ġ 69
i Inter
Ġen sures
Ġon to
Ġ` âĢĸ
Lift ed
o sed
ar z
Ġf ib
ph l
ful ly
Ġh second
Ġf loor
Ġi Val
) +
Ġg raded
Ġc id
68 5
Let ters
to MonoidHom
ĠD eriv
abs olute
A lt
M erge
h off
Ġg ot
ro om
fun damental
Ġpro per
ment s
Ġ(â Į
h id
In vertible
normal ization
component s
ĠĠĠĠĠĠĠĠ ĠĠĠĠ
C orrect
ed ger
49 5
] [
Ġh align
E l
map Domain
rec nd
profile s
Ġ1 17
Ġ4 7
ver sed
Pro b
ell in
con ver
áµ ģ
ĠThe se
Ġinter mediate
Ġrec i
Ġmaximal Ideal
pro bability
Ġwork s
Ġco variance
Comm Group
time Rows
Ġ1 16
Co herence
F D
Prefixed Word
N hd
trans vection
ĠThe ory
la imed
R hs
over lap
2 37
Ġrepresent ed
Ġlib rary
ta ched
Ġa shr
Uniform ly
Ã« l
Ġar c
ĠTh ere
is Iso
M e
Ġ" (
Ġhb r
ĠFirst Hurewicz
control s
Ġl ive
star RingEnd
continuous WithinAt
66 6
Simp licial
Ġ1 20
Ġimport s
ust om
chw arz
Ġa mplitude
Ġt m
bl ig
Small Step
ce eds
to Algebra
Hand le
Ġb orrow
sumption s
Tail Length
st able
Ġmark er
F ix
ic ken
Ġconver ge
M sg
ĠNat ural
hÎ ©
E ffective
p a
at ically
Ġhas DerivAt
M sb
Graph Bounds
su pr
ĠP attern
cel eration
vi sed
d word
> ]
Ġs ta
Con tDiff
c endence
Ġ40 95
She ar
Ġget Env
Ġh ott
Ġs b
Kernel Decision
Ġâīĥ *
frobenius Pushforward
m ss
57 5940
ofic Groups
Ġb reak
pre lude
ĠComp act
nn norm
16 1
Ġfile s
575940 379
Ġc lo
multi set
s pectrum
ĠTh at
Ġshift ed
Ġat tempt
Ġfunction al
D own
a verage
Ġre v
ĠD FunLike
Ġhe cke
Ġ36240869 36
Ġcd gr
Is Topological
r andom
al y
Ġe pi
For ce
Re ciprocal
ub ic
ib ble
ĠO b
Îº c
Ġk s
13 7
Ġsub singleton
ĠSub monoid
ĠPar ameter
or es
Ġderiv Within
Example s
of HeightOneSpectrum
ĠF oo
ĠEx ample
ĠTh en
isen stein
20 16
rull Dim
Ġar ound
Ġh rel
er al
un cture
con structor
53 59742
Ġsyn th
Sign ing
frobenius Pullback
Ġ 98
E stim
Ġf a
type Of
ĠðĿĵ ŀ
Iso geny
Ġsi mulateQ
Ġ5 2
Ġ720 575940379
Ġs afe
Equiv alent
ro duct
ĠG rid
ĠOracle Spec
ĠI ris
hÎ ĺ
Label s
} _
O P
s Star
Ġl ists
Ġl ayout
ProductLayout Call
coe Fn
Ġme thod
Ġhd eriv
Ġ6 3
b f
Co cone
Tri vial
âĤģ âĤĥ
Ġ 99
Ġun conditional
Ġ8 8
mpl ate
Ġen c
Mem Subgroup
Grp Cat
] :
pre ter
Ġn a
L Ctx
Higher HarmonicYoung
is AlgClosed
mul mod
Ġloop Body
Ġs a
ĠâŁ ¹
simp ld
au g
ĠToric Space
Ġt mp
ĠEq On
tau Tilt
map s
Ġdis criminant
Ġsatisfy ing
is cher
ĠP hi
ĠM ark
Hash Set
p deriv
Wh en
mag inary
scr atch
et ero
P seudo
Ġg auge
Ġd SVDensityRational
Ġmeasu res
at ures
Ġop t
sur face
Ġpre mise
92 54
Ġiter Partial
Ġpf x
Ġh value
âĭ Ĩ
E ff
de l
ĠS ection
Is FractionRing
bit r
u ate
u ous
comm utes
ch ored
ite space
Ġh rec
P ulse
ĠS ci
Ġn ull
Ġver ify
ĠC or
ri ve
ĠSub ring
25 000
ip art
deriv Within
Ġmask ed
Ġdiv KTrialCallV
Weight s
Ġfor ce
Ġcre ate
64 2
( \
i oo
Ġ[ `
test Optimize
} `.
Ġs olved
conv olution
Ġto List
30 2
Se ctions
unit Interval
op t
Ġ upd
Ġc atch
48 5
Root Subgroup
Ġc ube
ĠP ublic
Le besgue
Ġmod ular
ðĿĴ ľ
tail s
h lam
with Density
g lue
Ġzero Extend
Var iation
Ġconj ugate
Ġr atio
Ġcomp l
60 5
Cl auses
Orig in
Ġm ix
Ġcon clusion
Ġ} ;
Ac count
in ormed
Ġinter face
co kernel
Ġto o
Se arch
Ġtak en
Ro ugh
op eration
ĠD eg
Coeff s
fin ish
]] Â»
Ġl s
Ġrecur sion
S eg
c auchy
Filter ed
ĠpaperVariableArity Physical
B uffer
Stmt List
Monoid Algebra
ĠBridge d
G o
ex terior
Ġpow ers
re maining
Ġexpres s
Ġin vertible
Ġtest s
C auchy
ĠW ave
cket s
Ġs lope
conj Transpose
Al low
Ġh raw
se cf
33 70
S oft
Ġht arget
Ġ(-( (
he byshev
In duction
Ġv p
Ġc mpt
ĠIs Iso
Ġf ully
Re pr
ĠD irichlet
ĠSt rip
irt ual
k Lib
âĤ Ī
Ġm aterial
Ġop erators
Num erator
ivar iate
15 04
Set s
Simp lyConnected
Element s
sylan cr
Part s
Ġtri al
Ġcardinal ity
ir r
ha v
Ġmultiplic ity
er noulli
Inter ior
write s
âĢĸ âģ»
On Nhd
Ġhi k
Ġcomp atible
ser ial
2 75
sub N
To uches
Byte Array
Byte Access
ĠP erm
Ġ(â ĩĳ
Ġhx s
Ġfield Name
Result s
Exec ution
c orrection
Ġc lock
ĠR oot
Ġcomp uted
Partial Homeomorph
it ch
âĤĤ âĤģ
ir ical
P D
Ġ2 87
Y ou
c irc
Ġ2 16
trans fer
Ġan alysis
ĠSobolev Space
C X
Ġt ower
an tage
lic ation
A ug
ust er
Ġcons ider
ĠLam bda
ĠPro ject
Ġprov ides
local e
J ump
Ġc andidates
co mul
ĊĠĠĠĠĠĠĠĠĠĠĠĠĠĠĠĠĠĠĠĠĠĠĠĠĠĠĠĠĠĠĠĠĠĠĠĠĠĠĠĠĠĠĠĠĠĠĠĠĠĠĠĠ ĠĠĠĠĠĠĠĠĠĠĠĠĠĠĠĠ
Ret Off
Ġconvent ion
ĠAdd Circle
Ġexplicit ly
sub matrix
c nt
f c
ar n
ty ped
l indrical
apt ed
etero geneous
T ape
Ġp atch
Ġal most
Ġdis play
Ġ5764607523034 240
Contracted UpperRetained
Ġ! (
Ġassumption s
âī ł
Ġeq ToHom
Ġs chedule
parameter s
l b
ĠV ersion
cmp o
C P
Ġin formation
ĠM ult
sP er
h olds
Ġt v
Ġsp C
Ġcor ner
State T
ĠWith Zero
ĠSci Lean
analytic At
S ail
un pair
div Code
Ġc B
Ġof Nat
ge ck
Ġ2 14
aux J
ĠS set
Ġle gacy
âģ ħ
ĠAnt itone
St able
Ġhl i
j es
In cl
cal c
00 15
88 9
Ġfixed Away
ðĿĴ °
ĠS im
29 7
Wave Sum
O blig
ĠL g
wr ap
unit ary
f ib
Ġd ummy
ĠM in
Ġfix es
iz able
Ġres pon
Ġp Spec
Ad rs
%% %
[ >]
get Last
Ġhk er
Ġcomm ute
Ġs Sup
ies Over
` ):
Ġh lower
36 1368
Ġd igest
over flow
Ġadele Bdd
ĠO dd
ĠisValid ByteAccess
a B
Ġg self
multiplic ity
ame tric
D i
S im
Ġ[ *]
Qu asi
Ġ( Â¬
Con tains
Call RetOff
Arithmetic Function
ĠComm ute
m eromorphic
Ġre tained
E X
ĠCol or
Ġc ent
IN D
ĠAE Measurable
ĠPres heaf
Ġh encoding
ãģ Ĩ
dist inct
Lift T
ĠdOm Big
an not
Ġ{ _
âĤ ĩ
Ġhp t
Ġmatch ed
Q uestion
ph ab
Ġnat Degree
Ġt wist
] )]
su e
ie lt
74 83
Qu ad
tribut es
Push out
ielt jes
y oung
ac cept
0000000000000000 0000000000000000
F DerivWithinAt
d it
Ġ1 26
Ġth reshold
áµ Ĺ
Inter action
M er
17 7
ĠIn completeness
Of Is
X i
54 09
exponent ial
a ig
d t
ĠW r
Ġco unit
h it
rel abel
re move
Ġis Empty
} ).
mp bid
ff vel
Ġcomp iled
Ass ignment
V ertices
w orld
smul Right
Ġc if
ve al
anchor Name
9 1
M U
Ġan chor
Ġw t
Ġl icensed
po de
Ġcomple ted
Ġcc nfld
Ġring s
ĠS heaf
Ġk w
Ġg ame
equ ential
Ġp ending
inv Fun
node Rows
Ġsuppl ied
S n
den sed
Ġm argin
\" :
Ġr ay
as c
10 24
âĦ ĭ
Ġhb all
real ization
Ġreg ist
Valid ate
bid den
u v
Ġso bolev
Ġfe ed
O ct
m varId
th rough
ĠWe il
Ġrelation s
ĠDefin ition
ĠP MF
ĠCon trol
const s
om a
44 54
ĠLift Domain
phab et
Ġe poch
b atch
s At
Ex pression
Ġch arge
Ġtactic s
ĠL ower
ĠâĬ £
54 89
54 39742
incip le
ĠHermitian Mat
ĠB dd
g ame
n P
ĠB Eq
ol utive
Class Group
ä ½
Ġin tegr
Ġd igits
Ġdistrib uted
S chedule
69 5
45 112
nost ic
Ġ1 14
Ġre nder
Ġhp N
93 153
F it
ĠCy linder
T ask
Ġco cone
Ġ8 4
Ġhp Î²
Ġ(âĪ ħ
Ġ564 93153
$ -
F ound
cle ar
center ed
Ġb ar
level Params
Ġre ce
ĠM ono
base d
ichotom y
Ġan alog
Ġshort en
d igits
h omeomorph
p Spec
Base ChartJets
ĠEuler Cylinder
ĠImp lementation
ĠApp ly
ĠDis crete
Operand Ptr
Ġtak ing
D yadic
Formula Ïī
Ġdetermin ant
S addle
or acle
ro d
finite Dimensional
unit al
r l
)) `
Le ast
Ġe st
arg ument
Ġmod ulus
Ġuniform ly
Ġh at
Ġ20 22
Ġhand ler
' |
ĠRe presentation
dis cr
Ġpartial Deriv
op aque
eval uation
Ġgen us
Bu iltin
ject ivity
op posite
ĊĠĠĠĠĠĠĠĠĠĠĠĠĠĠĠĠĠĠĠĠĠĠĠĠĠĠĠĠĠĠĠĠĠĠĠĠĠĠĠĠĠĠĠĠĠĠĠĠĠĠĠĠ Ġ
st yle
725 73
Res olution
ĠAr kLib
Ġ179 45112
Ġ17945112 361368
ĠC losed
Cy clotomic
ĠPlatform s
Ġt ask
inter section
rel ative
Ġriemann Zeta
s aved
Ġcl i
L edger
Ġb ank
Ġsy mmetry
local ized
Up wardEnumerable
ver ifier
ant idiagonal
18 7
ĠIn jective
Subtype Prod
Ent ries
M ellin
R F
as y
13 3
ĠâĹ ģ
er ative
cess ary
Ġgaussian Physical
Ġtrunc ate
ge x
12 17
are st
sign ature
he at
M Î²
Ġ5 59
ĠM y
ãģĻ ãĤĭ
p seudo
ĠN row
Ġhg t
74 56
has CompactSupport
omin ated
^{ -
90 8
d r
z Of
Dec ay
qu ote
Sh ared
ĠLaw ful
id get
ĠpreB d
Ġl g
ol ded
L aurel
S afe
Ġf requency
ĠâĬ¥ )
E ach
ĠV elocity
Ġhy per
ak ing
88 4
Inter face
wh at
four Five
14 7
mark ed
f z
P DF
ĠW it
Simple Graph
Ġ56493153 72573
Ġg uest
ĠRe lation
Ġc ategories
Ġpri ority
Ġprov ide
Ġctop n
Ġ4 00000
fin Range
ãģ Ł
ĠReg ion
' )).
lex ive
pothe sis
os able
f allback
Dis k
Ġ{ {
Ġdis c
Ġ1 68
Ġw orld
Ġcomp osite
Ġ# (
Re ctangle
ĠPar am
E L
S at
S ame
g onal
Den oted
Ġ3 3
Ġme t
of CrAn
ap sh
Ġv anishing
80 9
ipart ite
insert IfNew
Met adata
ent y
ex ternal
s addle
Ġh num
98 9
vert s
Ġpres entation
Ġf ibre
aco bs
Little O
ĠTest s
dec ay
Ġstmt s
imil ar
Ġ343 59
Ġ` âĪĢ
Un ramified
n y
Ġent ropy
N et
en nreal
áµ ĥ
65 76
10 3
ĠNon ce
inertia Deg
Con Leche
$ \
' ')
Ġdep endent
ot onic
ĠEuler Smooth
H elpers
h ÏĢ
Ġre p
Ġon es
pro per
rig idity
Ġsub algebra
Ġ5 70
Ġs ys
acobs on
c ribed
d m
Ġ2 55
ĠS Mul
ib n
Is Separable
Ġweil Smul
F vars
Ġi max
Ġmonoid al
U ser
Ġwh nf
C n
Ġde le
Ġal t
ĠIn tegral
Ġf f
Ġexp and
c rossing
v oid
ĠCon d
ĠCo e
Ġmod ulo
ĠF ra
20 14
Ġpoint er
Prop erties
Ġh cond
Ġcon tinue
Price K
1 0000
ĠV z
Ġs f
ble nd
' (
Mapping Torus
p ulse
Re cipeKin
ĠB oth
Ġtrans ition
Ġ[ {
rip tion
fra ction
alg Hom
h in
s im
proj Icc
B NE
Ġhc R
V olume
m fderiv
to ken
res ses
Ġexec utable
G auss
Ġb b
Norm Sq
lift M
L aplacian
is ometry
ne x
pos it
for In
Ġsubgroup s
ĠNe Zero
il attice
ur nd
Ġa ud
icmp s
Ġn F
âĢ Ŀ
b ank
Ġs el
ar m
A E
å Ĳ
RingAut MemSubgroup
SubtypeProd RingAutMemSubgroup
Expr s
product s
ĠH o
Module Presheaf
ĠLeaf Data
ibn iz
mo unt
part icular
m athlib
Ġh main
Ġt ends
form at
cy linder
ĠâĪļ (
[ '
ĠA B
b etween
ĠF R
Ġvar s
Ġcop rime
Ġco in
Ġun ary
ac cess
er rors
u ri
Is Localization
Local s
h wf
Co e
H ighest
h cont
Ġha mming
Ġwh y
Ro admap
sin h
Hopf Ideal
ĠSem iformula
Ġâ¨ ħ
icken ing
ug gest
Ġcm i
Ass oci
Ctor Eq
a Prev
Ġcon sum
initial ize
A mp
Integral Model
Ġlocal ization
Ġ40 88
Ġhad j
ĠStrip Data
ne ighbor
19 7
g m
v olution
Ġ[ _
16 69
Ġch allenge
Of Special
Ġend Ptr
c nv
p op
Singular MayerVietoris
Ġfin ish
Ġâĭ Ĩ
Ġper form
B v
G S
sy mbol
Ġordin al
b ut
ĠL attice
ĠN thr
to Equiv
IO NS
Ġ ],
00 5
os ing
Ġiter ate
B lend
od ies
ĠÏ ķ
P is
ct an
class ical
ym ous
pp ing
Is ProbabilityMeasure
Manifold Morse
C D
M o
ynkin Type
In line
Ġre ma
Ġhf ull
Ġscalar Check
nes ses
Ġcrossing Check
ra ight
differentiable On
Mixed Occurrence
W N
Ġx y
40 3
Ġgeometry Check
* `
r Tensor
s f
719 9254
Ġen ough
upper TailLength
g rade
ar ily
he val
Ġst able
par ity
ĠP er
infer Instance
Ġh result
bra cket
ĠNormed Space
Ġ900 7199254
se min
ĠF robenius
Jet Bounds
D S
Ġar ch
Chart IntegralModel
Ra ise
ĠTail Data
V e
ĠS ol
is ere
Add MonoidHom
Ġhr atio
Ġdispatch er
B Vars
comm and
N u
Top Cat
tw p
Ġ enter
Ġh unit
ĠS up
12 34
Ġop code
or ded
ab olic
is k
Ġu su
Ġhb a
normal izer
El se
38 35
bl ue
Bot tom
C lamp
Ġpar ser
Ġ28 24
ĠDel ta
Ġhc r
hÎ Ľ
Comb inator
ĠVar iable
Ġalgebra s
H ermite
Ġl p
rest ricted
Word Is
æ ķ
ĠB oolean
ss re
iterated FDerivWithin
W it
h fun
Ġm at
ĠF requency
act s
AN T
Multilinear Map
ĠF E
99 6
ĠPhys lib
Ġp ort
ĠB ound
) =
half Plane
p adic
Re vised
ĠMul Action
ĊĠĠĠĠĠĠĠĠĠĠĠĠ ĠĠĠĠ
Ġdecl ared
Fraction al
F ast
ĠA IG
Ġorig in
Operand s
Coll ision
Ġi p
Ġco kernel
Comp are
ĠC ache
name s
52 39742
ĠB ankPaperRealization
Continu ation
5 199
Ġas sumed
Ġdefault Domain
ch ine
ĠhÎ ¨
Ġtarget s
pole Submodule
Ġcol lap
2 0000
fvar Id
ĠC artan
get Num
cal ing
Ġpro duced
54 49
ĠM Diff
Ġreturn ed
ĠAdd itive
termin ation
Ġdoes n
Ġse lections
lu ing
Ġcur l
wh ile
Ġs witch
ĠR un
Trans Ord
Ġ10 76
TauCeti Roadmap
Ġh low
non ce
Ġmem o
Ġcur r
Ġsur face
Ġcm d
C otangent
ap lace
OfSpecial ty
P B
ĠL T
Sy mplectic
Ġbeta Prot
Ġ1435608988909 48
ĠC d
Ġty ped
C od
E mbed
X Y
Ġfunctor s
Ġmessage s
1 000
2 35
is Prime
Diff eomorph
Ġmax imum
Lit ter
M oll
Ġapp ro
inte gr
Î¸ L
L b
32 64
ĠCon tributors
18 3
46 5
miss ing
ct Bytes
ĠB orel
art ing
Ġcond itional
Ex ception
Mean Domain
Lie Module
ĠA ut
ot ion
str ongly
hx y
Ha us
7 35
B A
Representation Theory
ot o
cd ot
Ġs pe
Par k
conj ugate
Ġstart ing
Ġgen erators
Ġlo ok
abel ian
Ġperiod ic
t rip
Ġgeneral ized
L V
Ġf aithful
Co ef
E ra
Ġwhen ever
Ġaut omorphism
Des c
Re qu
N ested
m store
o a
Cur sor
ãĤ Į
L ane
ss ian
Ġco vers
ĠZ F
Ġctop on
ĠGen erated
n Steps
Ġh const
cover ing
Ġflat Step
Coordinate Ring
osc illation
ir k
cor oot
l Tensor
p b
Separ ated
ighbour hood
Ġ 78
Ġhc L
j son
34 55
linear Map
Ġread ing
Ġallow s
Ġh coeff
ĠM achine
St anding
ĠSh ort
Ġhs z
taylor Trunc
B orrow
c ab
ma jor
log Deriv
adele Space
de composition
ĠS tructure
const ra
Ġreci procal
J oin
Ġb al
Zero s
Point wise
Ġsubset s
Ġstruct ures
temp oral
g al
Ġa B
Ġapply ing
re cover
to Measure
Ġsmall er
? `
ri sum
orient ation
out side
cle an
40 5
word s
h âĦĵ
âĤģ âĤģ
S ided
ĠC ircuit
ens ors
Match ing
ton ian
sc a
h comp
stru cted
ĠRat Interval
dot Product
Ġh real
un ary
Ġhn u
ĠId x
Ġaga in
is ible
Noetherian Ring
Ġis Unit
get LsbD
Ġparent s
ĠAlg Equiv
differential Coeff
ĠI ci
ðĿ ķ
Ġhb ne
55 39742
Ġbind ers
Ġhdis j
5199 742
E M
Ġfin iteness
Ġad ic
ĠâĮ Ī
Ġc sb
Ġq big
Ġp ins
Ġnum erator
Ġdenote Meta
ingu ished
)) |
instance s
Ġident ifies
S U
oc ab
Ġm ismatch
Ġhb ody
wh en
dual s
ssion sPer
ssionsPer Tag
Pre connected
ĠActual Signed
ris cv
x f
ĠB C
cre t
Ġident ifier
ĠReturn s
t al
Ġin c
76 7
cy clotomic
a ded
An g
Touches Unsupported
F ischer
Ġr b
Fin Equiv
h align
Ġc sin
it able
ic ates
iter ion
f ors
ĠA c
div K
Ġ ];
ĠJo han
SectionNine Post
Uni potent
row n
fl ict
S rc
pos al
Atom ic
C O
ĠModule Cat
N z
t riple
Ġm acro
Ch allenge
Ġactual ly
ĠA bs
Level s
ĊĠĠĠĠĠĠĠĠĠĠĠĠĠĠĠĠĠĠĠĠ ĠĠĠĠĠĠĠĠĠĠĠĠĠĠĠĠĠĠĠĠĠĠĠĠĠĠĠĠĠĠĠĠĠĠĠĠĠĠĠĠĠĠĠĠĠĠĠĠĠĠĠĠĠĠĠĠĠĠĠĠĠĠĠĠ
90 6
Ġnext Limb
a o
Ġf d
ĠS eq
} ^
Ġ" `
theta Park
ĠPres erves
C A
ĠNon Unital
Bind ing
flag s
ĠBack ground
u Base
ĠC ON
Ġcongr uence
Ġw inding
Ġd Lo
Ġex posed
ĠI ic
ject ory
ĠCo unt
ĠLocal ization
stmt s
Ġmo ves
h orizon
99 4
ĠAlgebraic Closure
ĠCo xeter
Bilin Form
ĠK ey
Prov ider
ĠS ec
Ġ7 1780
Correction Lower
Ġh de
Is FiniteMeasure
56 7
17 3
Ġbi jection
449 4454
Ġ71780 4494454
e ip
ĠA mp
to L
Ġcontent s
N Star
hs m
lim sup
Com odule
amil ies
d igit
Ġb c
ĠW ell
ab stract
Ġy ields
12 00
Ġprec ise
Ġrema ins
O ModulePresheaf
Ġv Old
ix p
Sl ash
Const ra
Ġlog Deriv
Ġapplic able
Ġres olved
Ġsem iring
ĠVelocity Field
x B
Special Functions
ĠF elt
dis c
invariant s
ĠâĢ ľ
inter active
ater n
Ġpres erved
Ġhs in
P V
h log
Ġ" _
Pos Semidef
Bytes BE
ar bitrary
Ġhm od
ĠðĿĴ ®
kap C
ĠS ame
is Bounded
Ġâī Ī
ĠQu iver
ĠTorus Characters
deg Zero
S ite
Ġre move
Ġj Old
66 5
Ġ( %
Structure d
2 77
E rdos
mul cl
Ordered Ring
apsh ot
Ġd ro
Ke ys
re fin
)) }
Ġa m
13 1
F var
ul m
mem ber
im ate
y mmetric
cl amp
se cut
Ġco verage
ĠIs CurveOver
Cycle s
Ġtra iling
m utual
Ġh app
ent ropy
Ġ( ))
Conj ugate
Ġwrite s
R c
T T
ut f
secut ive
Ġth ird
Theorem s
h ed
h fin
Ġdefin itionally
Per p
dCoord Generates
Quotient Group
Y oneda
Ġs can
ĠM IT
Ġis ometry
of Lp
âŁ© âŁ©,
set Width
? ]
mul as
Ġhn n
in herit
Ad joinRoot
725 56
Ġc lean
59 7
ĠComm on
) *(
d p
fact ory
x r
Normal ization
Ġchild ren
Ġequation s
Ġin finity
ĠF RO
Ġcon cat
Head s
ĠM atch
Ġal ternating
r g
H tml
P P
ind ent
Ġn ominal
ĠS er
ĠP red
ĠI io
Ġre pr
lift Measure
Identity Along
Ġsta ys
b udget
Ġf b
38 2
ĠFor mula
otonic ity
Ġt rig
pe xt
d er
to F
ĠStr ategy
Singular Homology
Set Like
i max
tr ically
Curve Model
Ġevery where
uz z
nonneg ative
M ay
ĠNormed AddCommGroup
c ave
ĠI rreducible
Comm Monoid
Ġad m
{ \
is ibility
App ly
F req
v ia
ĠV F
Char Zero
ĠBox es
ramification Index
ĠâŁ¨ {
Ġad vect
Ġframe Slots
g raded
h lo
to USize
ĠâĪĢ {
Ġto kens
ĠTrans cendental
cl ause
S ON
h au
In valid
34 3
Div ergence
Ġ20 21
Ġn t
Ġcy linder
Hy ps
u j
Ġr at
ĠC enter
ĠM ax
We il
Ġlevel s
beta L
Ġprop ag
A symptot
or ker
as sume
lam Pow
cell Band
Ġro admap
ĠmkApp M
ä »
Ġ2 15
64 00
read s
ĠHigh K
Oblig ation
30 7
Out side
extend Path
Ġâĩ Ĵ
Ġoption s
Ġautom atically
odes ic
cendence Tower
' `.
log ic
CV io
umul ative
Ġlet s
Ġpre cond
R w
l ight
Fin d
ðĿĴ ©
c artan
par A
Has Type
K rullDim
t ale
op ens
Cond itional
P Map
quiv er
tra ck
ĠLinear Independent
Ġreduce CtorEq
on gest
ar ation
12 1
cs in
Split ting
Double Addback
uncture d
Ġver ified
ol ter
di rac
Ġ89 72556
Ġ8972556 180
ap ed
h ex
p at
Ġin crement
pack et
rem um
13 48
mo ving
Ġ` âĪĳ
General Linear
urnd ata
in er
me sh
ĠA ux
O UT
Ġy et
ĠEx ec
Ġdiv ergence
Metric Codes
Ġconj ugation
ĠhC r
Ġimpl ied
ĠĠĠĠĠĠĠĠ ĠĠĠĠĠĠ
eq s
af ety
vers al
Mark ov
64 32
loc ation
Ġend points
ation ary
Ġx t
ĠC omb
Ġle avitt
olter ra
Ġ$ `
gre ed
adv ance
SectionNinePost Height
Ġget D
Ġunit ary
unused Variables
singular HomologyMap
ern stein
s qu
u ent
Ġk m
Ġhw t
mon ad
Ġ{ "
ĠRe c
eps J
fra g
road cast
ĠS ur
cre ase
Struct ural
ĠLog Tables
Ġm var
ĠhÎ ¹
ĠArithmetic Function
+ )
5 39
20 2
contra cted
erturb ation
k k
Ġ10 8
Ġsize Of
iv ing
ent ries
âĪ ĥ
Ġse en
L Function
Å ĳ
En closed
ĠWe ak
Ġflat ten
Gauge Mean
ĠF ile
Ġselector s
S teer
Ġh off
re lease
Ġe uclid
ad aptive
id irect
iz ers
ĠV Î¸
ĠM eromorphic
linear Independent
prev Idx
weight s
T ext
27 3
Ġest abl
w eyl
ĠTerm ElabM
96 6
itt Vector
native Switch
ĠSe cond
Ġ_ )))
Re index
ĠG auge
Ġset Integral
78 2
coordinate HopfAlgebra
Ġsu ggest
Ġ`( $
ĠI P
Ġ 79
ĠP y
ĠhS upport
RE AD
Ġc usp
Ġt ac
Ġ2 69
Ġhh alf
ĠEulerSmooth Limit
Pressure Stream
arting ale
Ġp q
ĠPro j
Ġhc d
Goal s
wa ve
E qual
rough Saias
Scale At
ĠInput s
Ġ2 11
To k
Ġ#[ ]âŁ©,
Two ChartIntegralModel
D one
us ing
S qu
sum ing
Ġhc ast
fra ct
DI T
Ġsymbol s
D A
ic it
hÎ ¶
Th ird
ĊĠĠĠĠĠĠĠĠĠĠĠĠĠĠĠĠĠĠĠĠĠĠĠĠĠĠĠĠĠĠĠĠĠĠĠĠĠĠĠĠĠĠĠĠĠĠĠĠĠĠĠĠ ĠĠĠ
5409 742
mk Ident
sylan cl
Ġfra gment
Ġevalu ate
F ully
Ġ_ ]
Hom Over
97 78
ĠQuery Cache
Ġaud it
ĠN eg
Ġent ire
F bar
K an
ld at
First Hurewicz
arch imedean
æķ °
M d
ub er
rd Åĳ
State s
syn th
rdÅĳ s
r r
Ġex terior
The se
Ġ(â¨ Ĩ
Ġre set
inst DistribMulAction
Ġw ere
ãģ į
Ġcount s
Char P
ĠS cott
Ġhr ho
ĠâĬ¢ ;
Ġci ma
push out
ĠQu antum
Pi Lp
square free
eq eq
ĠCon j
represent ative
h valid
Ġf exp
Ġf ill
Ġcons ist
comb ined
commut ator
Bial gebra
å® ļ
b undle
is cv
Ġde comp
For cing
Ġad ded
Ġâĭ Ĥ
ĠStage State
Ġx v
ĠM orphism
fixed Away
M acro
Ġs Inf
F p
f am
ĠM L
Ġout going
Ġâĸ ¡
Non Assoc
Ġbot tom
Ġexist ence
Simplicial Complex
Ġl arger
Con jectures
54 24
Ġexample s
old t
P olicy
ang oldt
98 6
valuation Subring
2 33
ome trically
eth od
Ġ1 76
Ġ1 000
Ġh over
Internal Helper
ffvel rnd
h re
Ġre peated
ĠR CLike
ow ski
Ġhb ox
l ux
un ct
ĠS c
ĠSem iterm
ue ss
Ġal one
Ġs c
Rad ical
pl ain
Ġdv fsum
L ens
er ses
Ġc auchy
âĮĿ )
i en
ĠâĪ ¼
Ġre assoc
Ġextend Factory
Ġlower ing
imilarity Profile
? )
as sed
non ZeroDivisors
E quality
]! .
706 74
]' (
Ġ2882303761517 1
an o
Ġp gpfac
trans cendental
av ing
Ġideal s
Ġskip Block
ĠHarmonic Residual
Ġ180 14
Comp uter
Ġexp ansion
Non zero
Re traction
Ġcg su
P ort
v on
With DoubleAddback
Ġhc ut
Ann ulus
12 32
ĠCommRing Cat
ar se
Con structor
Un iv
lim ited
Weight Space
alg Equiv
A re
N prev
W Scoped
Ġh th
Ġma jorant
l ier
Ġo wner
âĤĢ âĤģ
An y
fl ation
map GL
ces ses
C le
ĠF r
69 3
dv ferm
Ġcoerc ion
comp arison
55 28
ĠRead out
Ġin jection
Ġtrans itive
rest ore
eigen vector
Ġt k
Ġm oving
Ġrad ical
- (
I r
Ġf all
ma chine
qu ant
St atic
å Ī
ht v
Ġconstructor s
Ġp ast
Ġr v
ad missible
cal ate
associ ated
Op code
Ġpro duce
Ġhn il
Ġh inner
Var iance
ĠUpper HalfPlane
b ump
c S
54 29742
De bt
Ġ... ,
Ġallow ed
ĠTime Lp
5489 742
atern ion
t ty
Pl anar
getApp Args
Ġf p
Ġsimp lex
Qu antum
73 74
Z k
ĠC H
ga in
Ġadd itional
G lue
ĊĠĠĠĠĠĠĠĠĠĠĠĠĠĠĠĠĠĠĠĠ ĠĠĠĠĠĠĠĠĠĠĠĠĠĠĠĠĠĠĠĠĠĠĠĠĠĠĠĠĠĠĠĠĠĠĠĠĠĠĠĠĠĠĠĠĠĠĠĠĠĠĠĠĠĠĠĠĠĠĠĠĠĠĠĠĠĠĠĠĠĠĠĠĠĠĠĠĠĠĠĠĠĠĠĠĠĠĠĠĠĠĠĠĠĠĠĠĠĠĠĠĠĠĠĠĠĠĠĠĠĠĠĠĠĠĠĠĠĠĠĠĠĠĠĠĠĠĠĠĠĠĠĠĠĠĠĠĠĠĠĠĠĠĠĠĠĠĠĠĠĠĠĠĠĠĠĠĠĠĠĠĠĠĠĠĠĠĠĠĠĠĠĠĠĠĠĠĠĠĠĠĠĠĠĠĠĠĠĠĠĠĠĠĠĠĠĠĠĠĠĠĠĠĠĠĠĠĠĠĠĠĠĠĠĠĠĠĠĠĠĠĠĠĠĠĠĠĠĠĠĠĠĠĠĠĠĠĠĠĠĠĠĠĠĠĠĠĠĠĠĠĠĠĠĠĠĠ
general ize
Ġd p
Ġde ve
ĠMem ory
getKey D
Ġh rad
hÎ ½
ĠWith Bot
Ġturn s
cr itical
ress ing
ĠðĿĶ ¸
Ġp adding
ĠS T
13 78
we il
509 48
). **
ĠL aurent
ĠD HashMap
Sem inorm
ĠA uth
Ġtransport ed
in ite
Ġmin imum
math rm
p w
bytes Region
Argument s
ors or
S atisf
cop ing
athemat ical
E ffect
ly Closed
ĠTag Id
ch annel
Ġ40 64
Residue IdentityAlong
ĠFra g
S nd
Ġp ole
us g
and er
No Nop
Ġoption al
Ġoperand s
d erived
Ġt sub
Ġnon ce
evm Modulus
Ġsubstit ution
Ġbelong s
56 00
Ġpre condition
wr itten
Ġfactor ization
f rozen
h left
r hat
Ġg rowth
Ġpl ain
P c
Ġh threshold
Ġr p
69 76
Ġshow s
nost ics
G ate
ĠS lot
15 78
div st
Left Rule
Sem iformula
Er rors
ð Ł
ĠFunction Body
Ġmin poly
ros sed
ĠSphere Packing
get Id
simple Pole
ĠY oung
Ġcol lection
' âĢĸ
Ġcomm it
test Bit
3455 6422
d ay
Ġreserved Names
IN T
Ġ432 34556422
D TreeMap
Ġhd im
80 6
Rule s
Ġp ull
ĠPro finite
decl Name
ĠAN Y
ĠC ertificate
ĠV r
ha ar
3370 84
Ġh nd
ĠE nt
ser re
perm utation
call s
separable Along
t orch
ĠE ventually
Ġ5 3835
Ġ53835 337084
In Time
Ġof CrAn
ĠW alk
sub monoid
Ġ6 5
mo ebius
RO WN
E very
R ig
Ġlocal s
g apt
Ġc laimed
fo unded
hold er
Ġ1076 70674
S ound
Ġw in
We ierstrassCurve
f it
v anishing
80 4
inc Gap
Ġell iptic
x b
Ġh eval
Ġc abl
Ġhl ast
Period TorusHigherHomology
is BigO
ĠC ascade
Ġj son
end re
bind ings
Ġ antitone
36 7
max max
Ġ1 24
comp atible
Ar m
ĠO DE
43 00
Ġmon ic
ĠWith Conv
C lock
ent s
Ġ` <
Pred icate
defin ition
gg reg
r sp
Ġ>> '
Ġ18014 398
Ġhb ad
48 1
Ġen velope
Ġlog ic
ĠRe quest
B ankPaperRealization
h Ïī
exp TwoMulFixed
Ġer dos
hav ior
6576 86
or ation
Ġho lomorphic
cal lee
Ġhc ross
inter calate
prime Compl
common Context
Torsion Free
Ġ18014398 50948
ar iant
un if
Exponent ial
Ġadv ance
20 3
Ġeval IR
Ġflat Annotated
ĠNon trivial
Ġ2824 657686
co prod
89 4
168 21
p ic
Ġnot es
Packet Provider
ive ly
par ser
Ge ometric
Ġh cover
il led
p ly
Ġh elp
Ġr P
Ġk ostant
Ġto Nat
qu asi
lib erate
ĠhC g
Action s
Ġend omorphism
P amp
Ġs oundness
ĠS oma
side d
D W
y ield
Ġsoft ware
C K
Imp ort
alle st
Saved Bit
ĠG auss
Is DedekindDomain
Ġsh apes
Ġdown stream
5 00
ge q
Ġre index
Ġlem S
Ġ10 4
base Aut
Ġp seudo
Ġuni queness
38 1
P U
Add Equiv
fibre ResidueIdentityAlong
Ġp an
Ġe uclidean
tr rd
19 73
Ġhj i
residue Field
DI te
Ġf iltration
54 79742
Unit or
Mon otone
âĢ ¦
Ġ362408 672
Ġatom s
READ ME
` );
ihil ator
Ġunit Interval
Ġ% %
Interval Expr
Ġmulti plier
ent ity
trans verse
Ġinput Base
per fect
Partial Run
Ġpiece s
S male
17 1
Ġ5 7424
ci un
Ġlog ical
Node s
Stack Dispatch
Ġw g
ĠR ational
5449 742
Ġac ctBytes
Ġver ification
Indep Fun
" );
sw itch
mo ves
Abs olute
uff man
Ġ14411518807585 584
ul i
14 1
Ġexec IR
ĠLog Torus
Ġs ense
en ses
ĠV CVio
16 32
Ġcomp uter
ron tend
359 556
ractional Ideal
Ġ1 92
lim inf
cell s
ĠProblem Statement
W edge
Ġf loat
23 36
match es
mid t
Ġ57424 359556
Ġ57424359556 379
G re
Ġcon sumed
Ġsub monoid
ĠhL ower
Ġin str
Ġg over
ĠH Ã¶
exp ansion
Sem isimple
Ġbecome s
cel erator
con crete
ĠLe besgue
b ilinear
Ġh head
19 84
back ward
âĢ ²
ret ch
Ġs at
av oid
requ ire
Ġnatural ity
mid dle
for cing
Function Body
Measurable Set
Ġpost cond
Ġbe st
syn the
Des igned
h one
Ġpro c
30 3
Ġcmin usg
l st
Ġi ota
Ġc q
Ġhc b
Local Decl
Ġ107670674 16821
Ġc u
ĠW eyl
29 3
44 5
Ġex ception
Ġ** `
h amming
Ġ1 34
Ġold Len
Ġre ach
t mp
Ġin duces
Ġin tegrand
18 96
br Off
Ass ert
H eterogeneous
a i
Ġmk Fresh
add back
24 7
Ġcc xp
Ar bitrary
bi j
Item s
Is C
Actual Particular
b col
Ġm ight
26 2
N ull
Ġtr ap
Ġit eration
ĠJ IT
Ġ> =
ĠBlock Ptr
Ġf robenius
ĠO F
lac ing
} ))
Ġh point
Ġconver sion
Ġconverge s
S uggest
Ġde coded
Ġsymbol ic
N D
P ee
Ġe p
Ġpar ity
ify ing
long ation
Fra g
Par se
Ġrespon se
: "
re w
Ġa way
Ġst ride
Ġcd if
[ "
ue led
Ġbase d
Ġdch S
ĠHighK IntervalExpr
ĠMorphism Property
s ave
Ġc S
Ġp ick
of Bijective
ĠEr ror
material ize
With Capacity
call able
Ġpr inciple
Ġv f
Cover age
align ed
UT F
ĠOb ject
Ġa mount
ĠT otal
ĠW AR
bal ign
Ġdiff er
Ġperm ission
rp vmasum
mp b
Ġhm ass
res cale
Ġco set
18 24
Ġfold l
20 7
ann ulus
Ġcommut ator
Pro finite
Ġcomp utes
Ġlog arithmic
pack ed
Torsion By
Ġma de
Ġdoc ument
Ġg uarante
Ġhp i
str ata
shift Left
Ġoblig ation
ĠR LP
22 2
Des cent
process ing
ĠSchwartz Map
ĠB E
Ġspec ification
sign bit
Ġg l
ag re
Divisor Package
car ried
A greement
Ġt an
Modular Curve
IfNew Unit
s ched
Ġv ert
ex tern
Ġhc ap
c andidate
28 3
back ground
hp q
requ ently
T ac
Ġc su
it ative
Ġvar iance
File Path
Ġestim ates
Ġevent s
D erived
ĠH odge
for k
Ġinstant i
al ves
Ġs plits
Ġb n
Ġt f
58 7
Line s
ĠSign ing
BE Q
as im
SA T
ing er
First Order
Ġfollow ed
eqtr d
I ES
De comp
Ġla zy
Ġrough Canonical
h ermite
Ġde liberate
arrange ment
6 32
Ġy our
ĠD ual
ĠL D
Ġhf c
ãĥ ¼
Summ ary
ĠSt ar
respon dence
Ġa greed
adicCompletion Integers
Ġin valid
13 12
Ġterm ination
Ġtw ice
h inj
er dos
Ġ2 68
Ġout Base
Count ing
c orrector
ĠD i
32 7
Ġsup remum
hy per
sl ash
Ġim mediate
t prod
ç ļ
ĠN ow
Ġhc s
hs plit
Ġcomp iler
37 7
Ġrec orded
çļ Ħ
ĠB AS
ĠL LC
Ġ20 20
Monoidal Category
Ġre ctangle
Ġbase Word
les coping
variable Index
Points MulEquiv
Ġlshr ult
Ġlshr ugt
Ġashrs lt
Ġashrs gt
Ġ" __
ĠregOwn s
Ab stract
f aithful
Ġ1 36
26 3
ĠJ SON
ĠCh apter
nu isance
M s
Ġi gn
ĠP olar
Ġcenter ed
Ġ287 1217
Ġ2871217 9778
le gacy
Ġh ta
Ġf amilies
inf i
Abs orb
Ġ9007199254 740
F st
H it
wh nf
y ou
su es
ant ic
Ġsequence s
ãģ¾ ãģĻ
Ġg ram
Comm it
Coordinate Map
Ġsplit ting
ĠMap sTo
ĠCON DIT
Ġpermission s
ĠHigh er
Link s
ri son
Ġre construct
Ġhg c
Ġro utine
Ġtrans formation
is Colimit
trans form
dist ance
label s
an es
ĠSt atement
ĠPolynomial Space
ĠK IND
mod Code
Ġmax Bits
h run
cl asses
Ġcomp li
Array Element
Ġb p
lic enses
Num bers
'' ]
sTo InTime
ĠSquare free
th ickening
Ġ1 48
lo om
ĠG F
trib ution
differentiable WithinAt
* âĢĸ
ĠâĦ ±
Ġhr f
itt ing
Ġpush out
bl sg
j ohnson
Ġcon traction
Ġs z
Re sp
10 64
Ġcl auses
desc Factorial
sseld i
Ġh ome
ĠY ou
Tri ang
Ġalg orithm
i ota
s plits
scalar s
Ġh elpers
ap ache
Atom s
Ï ±
Ġn ofun
ĠE dge
Ġpattern s
ĠWAR R
I H
SMul CommClass
ĠMor rison
ĠWARR ANT
Ġ 75
decl s
ĠG et
Ġde term
sm od
Ġgover ning
Ġm irror
Ġsimp ly
Call Max
ĠExt ension
Ġcompli ance
Ġh count
Ġd t
to Slice
18 1
Val Nat
proof s
ĠRes idual
ĠBAS IS
v c
Ġin dep
Ġ` +
Ġhb d
Target Bounds
M P
b ook
ne t
Sh rink
Dep endent
ĠWARRANT IES
T R
ĠF ractionalIdeal
âĤģ 0
change able
ĠCONDIT IONS
T oric
Ġd y
Ġcr g
Source Semantics
âĮī âĤĬ
h Îĵ
t A
ĠS PMF
fl ux
Lim bs
Normed Field
character istic
cre pan
crepan cy
d irected
g ing
i ases
Ġi dex
Ġch aracters
Ġf rozen
ĠâĦ Ĵ
Ġhf d
basic Open
Instr RF
Ġh co
Ġ[] ).
S m
dv fsum
rn Deriv
G roupoid
m ix
Sub division
Ġtime Reg
ic ation
Ġdetermin istic
ĠProbability Measure
ĠIn f
Ġhc ur
ĠContract State
ĠDeg ree
ar lier
pos itions
25 7
Ġcz n
ĠEnv ironment
Ant idiagonal
super set
h ang
Ġc G
ĠPro ve
Ġterm in
exec ution
Ġ1 32
Ġapp roxim
33 3
Auth or
Ġorder Of
asim ir
h Ïĸ
Ġfor cing
Ġbi prod
mkApp N
Ġ 90
ĠL MonoTy
Co chain
module s
Ġhw in
ðĿĶ ª
bu f
Rest riction
er on
od rom
Co algebra
ĠD oc
ĠW f
foldl M
Ġdiv isors
L arge
ap id
ĠB e
Ġpos itions
Ratio Cell
a z
g Hom
p in
Qu ant
22 7
cor r
294 96
C orrected
M anual
In ducing
ipt icCurve
Ġeval At
Chain s
lop en
trans itive
Ġl in
du ctor
50 99
integral ClosureAt
Ġsecret Key
t One
Ġzero s
19 3
State less
Ġtrunc ated
fail ure
ĠCenter ed
et ic
ch t
At tach
Ġne ighbourhood
sc an
Ġ54 0
Ġpro jected
Of Definition
has Sum
ĠhS F
Pos Def
Over ride
Ġgr w
Check s
model s
Write s
ĠMean Class
s Secret
ĠCon struct
Ġfin supp
m orphism
z igzag
Ġc ached
ign ore
ĠGe ometry
Ġg erm
Op eration
16 16
Ġhb e
Ġhc arry
expr Stmt
of Conv
is c
hÎ ¾
adj acent
orn ology
eq On
L ipschitz
ĠEuler Lp
Ġcod omain
( "
Ġne ither
Mem Class
ĠOp Code
ĠProbability Theory
it ary
S entence
t ask
u Ioc
ul ary
Ġhx pos
17 28
ocab ulary
ic c
to LinearEquiv
Ġen coded
ĠContinuous WithinAt
\ \
Ġle x
Ġneg ation
ĠI Size
M ath
ph ases
37 3
Ġident ification
Guard s
ModularForm s
Ġ ult
For bidden
to Euclidean
19 1
Ġpres heaf
Ġ36 239
Invariant s
ĠVer ifier
Adv ance
semin orm
Mul Off
ĠGroup s
Si mulation
jq N
Ġh coord
ĠC of
prop Decidable
Ġhf r
Tri angular
is None
Ġa ctions
Ġ4 3
ĠTorus Inverse
Ġd uring
35 7
Ġf uture
ĠâĶĢ âĶĢ
K axi
Ġk p
ĠG rothendieck
nat Add
dis criminant
ĠAux iliary
Ġâĭ ¯
Dir ichlet
Pro longation
sc ape
ĠhN e
Ġpri or
heval ley
C uda
ĠC F
Ġhb eq
ill s
Ġnhds Within
twist ed
P ad
h eta
ĠâŁ¨ âŁ©
con structed
ĠCon vert
Defin ed
C lose
ur ther
ĠX t
Ġfor ces
ĠhT ime
ĠAss oci
e hat
ĠF ixed
ĠD u
99 5
Ġlinear ly
circle Map
Te lescope
par allel
Ġpar allel
e isenstein
ĠRe sp
Ġpar sed
Ġcar ried
ĠIter M
Ġc b
ĠE rdÅĳs
ur y
ĠIn finitePlace
Ġhr at
ac ing
ins ide
Ġlocal ized
ĠCode gen
Ġh ph
enc ies
pl ies
58 3
26 7
ĠHas PrincipalDivisors
ĠhR c
edge Set
á´ ´
Ġevalu ated
complet ed
âŁ©âŁ©âŁ©âŁ©âŁ©âŁ©âŁ©âŁ© âŁ©âŁ©âŁ©âŁ©âŁ©âŁ©âŁ©âŁ©
Ġb w
ĠG ood
t itle
Ġu Icc
Pre Crossing
Ġlaw s
ii i
get Type
tri al
Ġtrans pose
odrom y
er ic
ĠV Expr
Ġhf actor
Ġpre p
Ġsy mplectic
C lean
ĠC u
79 88
âĢ ¢
Str ategy
re duction
Ġl and
Ġhl im
Ġs teer
cond Exp
35 3
Ġrun ning
direction al
Ġnat Cast
event s
Ġ art
Ġin s
Ġex pose
one s
Ġevery thing
on ant
res olved
ãĥ ³
a im
Ġal ternative
ĠJ ordan
in struction
Ġcomb ined
)) ])
Ġre duces
38 7
Ġcomp atibility
ĠThree fold
Ġinstantiate MVars
T ODO
] âĨĴ
h div
it ored
Ġp olicy
ĠT Syntax
eq v
20 1
ĠAd ic
Ġhc all
D SA
generic Point
ĠâĪ ¥
Place s
unique DiffOn
H one
H odge
u er
Ġh coef
ra in
ue ue
Ġv r
ĠR E
col imits
ĠOp ens
Ne ighborhood
ĠhÎµ one
ĠCl ifford
modular FunctionField
43 19
Env ironment
pothe ses
vth Top
m x
s lab
se cret
Ġin j
Ġw tru
39 3
b p
exp TwoMul
Ver ification
f ar
Tensor Pack
Quotient Map
Ġ1 98
72 2
rad N
Ġ40 56
HighKPlatformAffine Cell
Ġcre ates
) $.
aux D
Reg s
ĠModular Form
ĠAt om
ĠThree CNF
E Real
32 1
ĠTag s
Ġadd ing
10000000000000000 00000000
Ġdeliberate ly
h reg
ate st
Ġcon ven
54 88
ĠSub st
Ġcx p
uniform ity
ĠPar ams
Combinator ics
C artier
Ġn fa
ĠS mt
ma ke
39 68
ĠB V
Ġy oung
prod Map
Ġcover ed
Ori ented
x F
Ġe ffective
ol ated
Ġun used
Ġdiv ides
Ġreal ize
Ġs diff
Ġa Prev
Ġe ccentricity
Ġ1 52
Physical Lagrange
Ġbind ing
Return s
p ass
)) `.
un ctor
Ġn m
comp ute
abs orb
ĠðĿĵ Ĳ
ĠVal ued
t b
get Scalar
Ġ?_âŁ© âŁ©
ĠCoordinate Algebra
St abilizer
Class Bounds
Continuous LinearEquiv
Ġident ities
exec Block
Ġt c
St at
sh arp
Ġv i
ase d
pro jected
getApp Fn
Ġun op
Group Theory
Ġ(âĪ« âģ»
Ġconsume s
if unctor
ĠForm at
] )).
to Poly
Ġloop N
âŁ§ )
CanonicalLocalResidue K
y comb
el uz
pow ers
Ġref lects
ll i
ro ve
b as
h ind
Ġin her
Re ached
Ġexact Reverse
function Selector
commut ative
ĠSim C
f exp
h lt
Ġs eg
Ġht I
Ġnum erical
agree s
ĠJ oint
W f
] "
f ill
ĠA ction
Sp in
Ġs ave
Ġhs l
ĠTrans port
ĠIn v
initial State
lean Output
balance d
Commut ator
ĠPhase Space
Cons istent
Ġaccept ed
* .
Reg File
mon om
Balance d
Sch ur
H ierarchy
ĠActual Initialization
Lawful Eq
ĠOut put
H W
Ġh init
Ġm b
erm in
Ġr nd
Ġro ute
ĠSh ow
Ġd irected
comp at
ĠRe write
Ġcont MDiff
orig in
S av
ial gebra
pos Semidef
54 56
hp d
Std io
ic ht
Trans Gen
Monad LiftT
Ġma jor
Ġsqu ares
Ġhom omorphisms
L inter
} $.
ĠâĦ Ļ
name d
Ġs ix
Ġb d
ĠL aurel
ub led
Ġsh are
iter WithDoubleAddback
ĠEval sToInTime
Ġh meas
}) "
aus al
Ġin habited
54 2
77 76
Poly Time
Base Reg
An chored
Adj unction
M iss
lo ss
Pro be
Preserves Word
thonormal Basis
L iesOver
Ġre writing
Ġj ump
Ġhb orrow
Ch oice
So lenoidal
f r
Ġe a
52 7
Ġdiv ided
line Map
tw ining
Ġreplace ment
attr s
Connected Space
al o
en card
)^ (
Ġbu f
aus ible
ĠC c
nt actic
ĠðĿĶ ®
Ġbranch es
ĠFormal Conjectures
Ġmeromorphic OrderAt
b orrow
Ġex ceptional
ĠP ack
ĠE X
32 3
54 7
Ch amber
Estim ates
Ġd erive
ĠN orm
cal ldat
Ġad missible
ĠSec ret
ar ctan
empty WithCapacity
ĠâŁ¨âŁ¨ âŁ¨
Rest ricted
ĠPart s
EE E
l anguage
)) âŁ©
39 36
Ġsquare free
ĠOn ly
Claim s
l ang
Ġ40 96
Ġdivisor Limb
r ich
rot ation
ĠPeriod ic
29496 729
) Â·
[ âīł
z d
å ħ
Con jecture
Ġun safe
F R
}" )
Ġsuff icient
anti Shift
ĠCentered Body
to Dual
oc us
Ġacc Reg
Ġh nonneg
Ġ2 30
20 24
equ ent
den ominator
piece wise
Ġhsq rt
ru hat
Ġq Tilde
en oth
Riemann Roch
Uniformly On
icht enoth
Ġw ave
och ner
Ġ53835337084 10
le son
an ion
Ġ2 64
ang ing
Ar tin
ĠSy mbol
Defin ing
Sav art
Ġpro ving
âĨ ĵ
28 2
Ġmet adata
v p
Group Scheme
Alg Aut
ane ous
defin itions
[âīł ]
ĠC ase
Ġo c
Res olve
f loat
ve il
ot Savart
Ġat tached
Ġde sign
cons List
FD Rep
l ers
Ġp asses
ĠA xiom
32 2
Del ay
**** ****
st amp
op erand
um b
Con ver
11 14
## ##
D irected
eval Expr
Ġhr c
hb ltu
Ġsrc Off
T ys
u Mpres
Ġs chema
ĠS truct
ert ens
Ġsub ring
lex ible
Query Impl
ĠE VM
Ġbase Change
l ctx
mp an
76 3
ĠO ts
abs Norm
Ġassert ion
Inc idence
24 2
58 2
Ġparent Bytes
Z igzag
de creasing
ĠM e
Ġcheck er
Ġcx ad
Switch Id
Ġadj acent
H B
å ı
Ġc apture
ht ml
cl auses
34 7
> `
Ġre covers
ĠEx ercise
we ep
Ġ39 36
39 7
22 3
25 3
Ġsquare d
Ġcolumn s
Matches IR
Ġr l
pro c
Nat Trans
pt s
Ġcop ies
separ ated
an uj
se ven
of IR
mul subN
anuj an
diff erent
Call er
Ġcm gp
4 48
C ROWN
Ġw ire
Ġhs low
Comp atibility
Ġdis j
vi ation
N ow
Ġp ool
rim iv
Mid dle
LB U
F wd
Ġ ðŁ
Ġc in
Ġd atatype
38 3
Coefficient Path
Ġevm WordIs
Ġhigh er
satisf ied
h ere
in crement
10 88
19 18
f iltration
ĠA ct
52 2
code s
bi prod
ĠDo uble
5 64
Ġ mpt
ad versary
Of Un
Ġcorrect ness
triz ation
T Syntax
s oft
ĠK ud
24 3
ĠC utoff
Ġsub traction
58 99
ĠRe cipeKin
ĠEx tract
R V
ĠF b
ĠF VarId
bot tom
wa it
Ġal u
F ee
W ire
Ġg zmod
algebra ic
Initial ized
E F
ar csin
" ).
h ol
Ġt orsion
Ġx m
pl ied
Ġ10 9
ĠDist rib
ĠframeSlots Saved
Ġin version
ĠS ch
In to
to RingAut
ĠQuotient Group
ĠOrder ed
Ġconstra int
Ġobs erved
D HashMap
00 2
set Integral
mo ke
Ġinitial ized
mixed Partial
G row
lo ose
X R
Ġh Om
ĠF ss
ĠP B
Ġin structions
ĠP ost
Ġcon nect
ip ed
cast Add
C B
ver ity
Hom otopic
54 3
univ ersal
ash ov
ential ly
Ġsrc Base
Ġsynth Instance
ri able
Ġ10 80
ter ms
ĠY ury
central izer
B lob
Ġ Ã
is LittleO
Of IsCurveOver
tri e
' `,
Ġt sh
eq ToHom
*] [
' âŁ©,
C ached
P set
ĠC Ïī
In ductive
In PolyTime
50 2
Pre mise
Ġspecial ization
ĠMonoid al
Ġh Ok
Ġh surj
po l
wr ong
Ġcid p
1 00000000
lo cs
L M
Ġs ending
Ġt Old
Ġn et
Ġcon sequence
ĠU nder
div idend
basis Fun
what D
Ġh ld
toAdd MonoidHom
special ize
Ġseparate ly
Roch Space
ãģĵ ãģ¨
T ube
ĠM State
ry ashov
Kaxi Facts
ĠKud ryashov
x x
âĤĤ âĤĤ
Ġtrans itivity
Ġcol lision
Poly gon
6 25
28 7
Ġrow G
w fun
ĠB inder
âŁ© ),
Ġ5 12
Product s
Chart Cech
Ġdis cr
ĠNe w
th ere
de m
âĪ ı
CallMax maxmax
Local Hom
Ġreal ization
OfUn ity
Ġh ole
Ġ1 74
em od
loop Body
sub algebra
join ed
ĠRes idue
ĠAddComm GrpCat
G rade
Ġ$[ $
Ġh el
Ġf am
of Finite
Ġq Old
Ġbu iltin
E tale
Ġih ave
insert ion
steer Sched
Ġ([ ]
recur sive
! .
s chedule
us cript
ail s
98 24
Stmt In
Plane Complex
á´ ®
ĠAdic Completion
H ost
pre order
Ġ[] ))
86 39
unk nown
ML Theory
build er
i um
Ġe ffect
Ġbyte Reg
ĊĠĠĠĠĠĠĠĠĠĠĠĠĠĠĠĠĠĠĠĠĠĠĠĠĠĠĠĠĠĠĠĠĠĠĠĠĠĠĠĠĠĠĠĠĠĠĠĠĠĠĠĠ ĠĠĠĠĠ
paper VariableArity
un ity
map sTo
en ing
ic ode
Ġv c
Ġso lenoidal
Ġhm v
ĠPar se
ãģĹ ãģ¦
ioo ssre
D up
Ġ1 72
ĠD ense
29 734
ber ship
we ierstrass
roughCanonical Guarded
ĠEuler Lifted
Log Tables
GeomLevel DegZero
hecke Fibre
sub space
Wh isker
Ġprecise ly
âĢĸ ))
Ġhg s
Ġmem bers
a esop
m load
ch ron
75 1
agre ement
se cp
ra mm
get Value
Ġomega Space
e en
en velope
Ġr amification
Ġ< *
ass ignment
ĠIn dep
hom Equiv
Ġbe havior
Limits OfShape
Ġ 74
Ġh chain
In jOn
Ġsimp licial
and T
eval uate
Ġis DefEq
50 7
Decidable Pred
ĠAdd MonoidHom
Subtype Mem
S ys
lo y
exact Reverse
as semble
Is Zero
Ġpro ver
Call Skip
Ġcap s
Ġh pr
Ġd B
Ġz ext
St alk
ĠIs Bounded
ĠÎµ nv
bs ch
Ġhg amma
Sem inormed
e uler
Ġ1 38
Ġd d
ero Germ
ĠAb el
Ġp enalty
ch an
Un less
bind ers
Ġ1 10
Ġre co
ĠL v
ide m
Central Homology
M ix
P ass
Ġh dec
ĠĠĠĠĠĠĠĠĠĠĠĠĠĠĠĠ Ġ
cons istent
Ġe mb
Ġâī Į
Time Lp
S c
h alt
36 2
Ġapp roximation
Ġhr ate
h supp
w ide
á ĺ
cast LE
Ġfinite Energy
Countable Topology
lz l
ĠHÃ¶ lzl
áĺ ģ
Ġtrans cript
ĠhK c
All Rank
Ġglobal Sub
eroGerm On
F ac
re set
ĠS teer
ĠM inv
Ref lect
Ġ43234556422 756
set Bytes
o ses
To String
10000000000000000 0000000000000000
Ġ((âĨĳ )
s le
ke ep
Ġra ise
Des crip
ĠOrder ing
B oth
B etween
S el
s z
ĠI ds
ĠâĬ §
77 7
line s
ĠAd missible
ĠF ts
Ġto ol
vari ation
ĠCur ve
to Spec
Ġhf a
Ġpre factor
Ġsur v
R am
ĠR ule
Ġhx U
88 6
Ġm ent
Ġz igzag
Map s
Ġunfold ing
Ġhl in
start sWith
Ġdetermin ed
link ed
Ġrel ated
M angoldt
v irtual
bo g
Ġprojection s
WithZero Multiplicative
Ġinvariant s
WithZeroMultiplicative Int
h inv
al ternating
Ġv ery
ĠO m
c bv
Ġb et
ĠN ominal
Ġ" #
sy s
D rop
Hom Equiv
Ġreturn ing
ĠComp onent
)^ [
Colimits OfShape
i ans
ab c
30 1
T aylor
Ġb dd
Ġd yadic
ĠÎ± áµĴáµĪ
Ġco v
ant ing
36 3
Target s
reduce DIte
L Series
Ġf ac
ĠâĪ ł
ĠS oficGroups
Ġinitial State
78 7
evalAt J
slot Phase
Ġpk g
Ġh order
78 21
Ġ6 6
ĠW indow
68 54
112 0
dpre B
S ector
T orsor
Re load
DE X
Ġb var
Ġhf ind
Ġhb lock
70 7
d x
h shift
Ġf lip
ĠU Lift
Ġh ret
st atic
is Maximal
ĠIn stance
72 7
Measure Preserving
call er
Cutoff s
Ġ 504
Ġh cop
ha vi
Ġ559 1669
Ġcoin cide
blue print
Ġ5591669 29734
ge om
At tempt
not all
col lect
Sem icontinuous
Ċ ĊĠĠĠĠĠĠĠ
Ġc bc
Bytes ToNat
list Base
Ġbeta Act
âĤĴ áµ£
ap s
Ġconvex Hull
I ME
p x
Ġdecl s
fderiv Within
Ġ[( "
b mask
an bi
un safe
de bug
12 48
39 52
equiv alent
ĠTwo ChartCech
Le ading
Ġnode Rows
Square d
element s
s chwartz
comp utation
ãģ ĭ
bid v
ĠDomain Config
âĢĶâĢĶâĢĶâĢĶ âĢĶâĢĶâĢĶâĢĶ
R L
ĠR io
56 3
Of Fin
ral rimiv
ĠM ixed
ĠType Index
16 64
Ġadd back
Affine Open
ĠcontDiff At
SV Uniform
Covering Map
Ġdynamic Source
hom OfLE
69 7
cd c
ĠLift L
Ġcomb ination
ĠLog Space
Ġsol ver
Ġâľ ħ
T oral
Ł Ń
ĠM B
Ġst atic
let ed
Ġcm r
Multiplic ation
ĠSp atial
L aurent
ĠC U
Ġsh rink
Ġind ent
order Of
ho lo
ing Subgroup
Ġnon neg
src Bytes
comb ine
P at
S H
in eq
ĠM o
20 25
Ġlift s
ĠNode Background
bridge d
Ġorient ation
R amification
ĠF n
Re placement
Co herent
Ġhd er
Ġare na
pf x
ĠSM T
M arginal
s ch
ĠA lex
po ses
problem s
D ickman
Ġhf x
Ġin trinsic
ĠQ r
Ġhn at
Integral ClosureAt
= "
ug ment
Ġ10 24
Ġ1 64
Ġv anish
Ġ" {
Ġse parable
Ġspec ified
End o
Ġhpre fix
Ġna ive
uri f
M ethod
congr Equiv
Sem iterm
ĠðĿĴ ±
sol Op
Ġcycle s
B atch
c nd
Ġa Ptr
ĠC p
ant ics
56 26
Ġne cessary
univ erses
Ġqu asi
Ġden ot
Ġtemp oral
Sch midt
slow Domain
Ġsumm and
F ill
} `,
ph ys
Ġ4 1
Residual Bridge
F air
H uber
is Limit
tr ichotomy
`. **
74 7
distrib uted
D y
ĠâŁ¨ _
12 80
non det
ib ly
Min or
HighKPlatformConstant TableData
c x
Ġhj m
Slow Base
S PMF
Ġh cos
at Bot
Hom Class
Ġset up
50 3
Ġhy ps
Zero Class
ĠLam Term
Act ivation
Ġcome s
g uarded
h ms
p ast
Ġh rows
st ri
id s
Th ere
33 1
ĠObject Property
en sus
66 2
Continuous On
ĠTrans late
Nu isance
f ord
k ronecker
Ġ ĊĠ
ĠW hat
One Class
Ġh comm
Ġ1 69
lo ur
Ġhf it
Ġhf ac
real Om
Ġdesc rib
bl k
Ġinsert ion
ĠR Ë£
out come
ãĤ ¹
ren ces
Ġh tin
ĠA D
C re
70 3
par ation
ĠðĿĵ Ł
comp iled
Ġhb nz
ĠâĢĸ ((
Bounded FormulaÏī
raise Weight
ĠPresheaf OfModules
Ġc cos
Ġin cl
int o
to Ideal
Ġun til
hd r
gl ued
Ġpolar ization
r Cry
ed y
ĠM ath
am ing
Of Eq
ĠhA f
sin c
ĠWith Lp
Ġhp ar
Ġhn s
type D
Ġop ts
Coordinate Algebra
Ġcomb inator
D vd
N thr
is Separable
78 3
ĠCh ris
TM Composition
5 52
d up
f ld
ĠM anual
ĠL a
ĠK Ë£
ver ified
ĠâĢĸ âĪĳ
Change d
tw enty
model WithCorners
S set
ĠhC v
rist off
ĠM aster
po is
Ġse ssionsPerTag
Ġconstra ints
ristoff el
Ġfor k
Ġrot ate
e ach
ĠN F
Ġj ohnson
pl anar
34 88
79 7
ĠâĪĥ !
Particular Wave
un conditional
76 2
Some Tensor
d SVDensityRational
w all
66 7
decomp ose
4 40
H dr
Prim rec
Table au
Direct Sum
Ġduplic ate
Ġl ax
ind ices
Ġ} âŁ©
Ord inal
! )
J acobi
Ġl c
cc up
Index Equiv
g alois
ĠH and
58 88
source Formula
structured Arrow
Kan Extension
e ze
u ched
im od
ho ver
Ġinfer ence
Element Map
draw al
)) ;
ay ley
Î² p
Form ally
Yul Stmt
alo ad
div ergence
ĠhN p
Mat roid
ĠPhysical WaveSum
5 32
E mit
c ule
h card
29 1
Ġmoment s
Sampleable Type
Ġo o
ĠH elper
13 44
pre charge
55 7
mult aneous
Ġsm allest
Clifford Algebra
g ent
De ck
w arning
Ġt ab
Ġcon jecture
Ar r
)âĢĸ )
Ġ``` (
I ff
M argin
c orrected
j p
Ġout Param
Rank One
Per fect
aus dorff
hau st
Ġ` âī¤
ĠCon struction
30 68
prob Output
T uring
in vertible
ĠH ausdorff
Complete ly
Ġp de
ĠH P
ĠCon jectures
30 50
)` -
Ad versary
av id
Ġaddr Reg
j ump
st one
Spec Ref
ĠVe ir
Co upling
Ġ40 80
As sumptions
Ġrepresent s
ĠPrime Spectrum
Ġinclude s
Ġt re
Ġ2 52
computable InPolyTime
Ġme sh
Pic ard
item s
Ġâľ ĵ
Ġco homology
Sheaf Data
Ġdoc string
Ġhs ol
Ġ((( ((
Event s
history Of
Ġg uarded
Ġis omorphisms
Ġsh arp
ĠhÎµ s
Character istic
Ġe d
smul Fun
car tesian
chartAlg Fin
Ġw al
pl ice
exp ression
Pre image
Ġchar V
Re port
as sumption
Ġ4 50
Ġstr ongly
ĠCore M
ĠDef ine
24 1
Ġhm id
Ġ40 72
Ġnn real
Increment Bounds
L v
| ))
Ġp y
for M
Short Complex
Msb SavedBit
ĠDirichlet Character
4 32
p q
ĠT ry
ĠS equence
trans ition
58 08
Ġintegral s
âĶĢâĶĢâĶĢâĶĢâĶĢâĶĢâĶĢâĶĢâĶĢâĶĢâĶĢâĶĢâĶĢâĶĢâĶĢâĶĢ âĶĢâĶĢâĶĢâĶĢâĶĢâĶĢâĶĢâĶĢâĶĢâĶĢâĶĢâĶĢâĶĢâĶĢâĶĢâĶĢ
p n
Ĺ ®
Ġc ds
20 13
A amp
Ġin herit
Ġhf b
Ġcheck ing
HighKPlatform Formula
Cartan Matrix
ss on
gr ang
56 2
With Lp
Gr pd
LT U
Binary Source
Axis Data
Ġaccumul ator
f rob
ist able
ay ers
sp in
Ġhl c
Ġorder ing
hC r
D ilation
Ġs ched
is Zero
ad m
Path s
Decidable Rel
ĠMem bership
associ ator
Ġh finite
Ġs lt
Ġre jected
75 7
Ġdefin itional
Principal Ideal
Ġ5764607523034 2400
insertMany IfNewUnit
J ordan
ĠA fter
Lower Bound
Ġhf i
52 3
Time Data
ĠðĿĴ ŀ
amp ing
Equation s
umb ing
Ï ķ
Ex ist
Set oid
59 20
ĠEx ists
ĠðĿĶ ¹
fiber Center
á´ ¬
P in
a N
d yadic
al ways
Ġspec s
45 7
monoid al
tensor Product
320 64
is LE
ĠM t
end ian
ame l
Ġ} }
Ġhn m
ãĤ Ĭ
toAdd Subgroup
notall zeros
Ġm m
card inal
Switch Ids
d rive
Ġper fect
Ġparts Gadget
ĠT M
Ġl vl
Field Lift
Pre c
77 12
Ġevalu ates
f ailed
Ġl ives
Ġpri ce
Ġmodel s
Hold er
z ul
Ġs imilar
Ġc st
Ġhm u
d y
u k
Ġre xp
64 3
17 98
Ġfactor ial
Ġf v
214 7483
Requ ire
ramm ar
ĠT riple
pe t
ag ator
26 96
Ġmult ilinear
powerset Card
lift N
Normal ize
Ell ipticCurve
Ġperp Grad
Ġ(âĮ Ĭ
Ġcr iterion
55 52
ĠâŁ¨âŁ¨ _,
Ġadm its
æ ĺ
Ġh support
Ġt mul
Order ing
Prime Spectrum
Dis cr
Ġlength PrefixedWord
v ature
ç Ķ
Ġ quiver
Ġh orizon
ile nt
125 00
d a
Add Subgroup
ĠSign ature
sb c
ĠðĿķ Ĥ
ordin ary
extract Byte
Ġbuild er
ĠModel WithCorners
Ġw ide
Ġd rift
element ary
ĠevalIR Expr
ly Supported
ĠK exp
Ġ4 29496729
Ġgener ation
ĠJohan nes
Ġhad m
Ġhmap s
Ġelabor ation
Hone ycomb
per im
variant s
cod Restrict
) ?
r pred
38 72
ĠLie Submodule
anchor Guard
O wner
Ġg lue
ĠE lement
ĠIs ProbabilityMeasure
ac uous
Len W
D ynkinType
P kappa
14 08
Om A
Center ed
Not ation
Ġabbrev iation
ĠSecret Key
Ġ OfNat
Ġh es
get Entry
intro s
Hopf Alg
ĠRio u
V el
ĠThe y
46 2
Ġinterval s
grang ian
Ġs incGap
Ġpro be
Ġdef eq
Un safe
Ġ#[ ])
Dis crepancy
Wr ap
Gradient Space
W ITH
Ġf g
Ġm anifold
ĠS HA
âĪ ¥
Ġsuc ceeds
wh itespace
ĠÎĽ next
cos ity
aug han
G luing
Ġback end
Sol ves
L r
in duct
ighb ors
Ġtra ck
ĠPhysical GraphBounds
M inv
in ate
Ġi exact
At las
Pres ent
ĠJo Ã«l
e igenspace
ĠV C
Ġhy z
be ck
ou ra
ser v
Ġdec ay
N lay
Ext ended
Ġinitial World
6 00
le ast
ĠO ther
Neg ation
Ġ216 172
Ġh range
Ġ` âŁ¨
om L
ne sted
Ġis plit
ĠIn itial
28 48
ĠðĿĶ ½
Ġregist ers
Ġ8972556180 684
t f
ĠS D
he ll
ĠOp Info
ĠComm HopfAlgCat
Joint Cover
).. (
SVUniform Density
5 24
Field Theory
out Ptr
pd f
Program Logic
Ġde lab
Ġ16 384
Has PrincipalDivisors
ĠStr ong
ces sed
F lux
h idx
x v
Ġf urther
sh aped
Inter section
rank One
Ġlog cn
Harmonic Residual
C E
Ġct g
Idempotent Elem
Compile Core
' )))
c st
Ġfull Code
M u
Ġf raction
Ġ1 13
Ġre main
20 48
sc illation
t v
âŁ© `
ĠL Space
Ġg ain
Physical MeanDomain
âĪŀ `
Ġsq Dist
Ġtag ged
G elf
s ender
to Mul
Ġz ip
Ġapp rox
74 3
Order Scale
Ġflag s
è ¨
Ġn arrow
ic o
eq el
to Sub
Gen erators
Big Int
Ġunique DiffOn
Ġhw eight
filter ed
riemann Zeta
Ġ216172 7821
, \
b oolean
g iven
Ġu id
Pre additive
com ing
' d
< /
Ġt ensors
Ġsimp s
72 1
35 1
s chema
mem Is
Ġsection s
vec Mul
Strip Data
WITH OUT
e k
Ġh arg
Ġj s
ĠIs SelfAdjoint
Mod Eq
OT E
compile Expr
sm t
anon ymous
Bind ings
Ġdividend Limb
Ġ1080 8639
Ġ10808639 1056
i ability
Ġh pl
Ġ[ :
Ġe arlier
ol ves
Ġ20 23
ĊĠĠĠĠĠĠĠĠĠĠĠĠĠĠĠĠĠĠĠĠĠĠĠĠĠĠĠĠĠĠĠĠĠĠĠĠĠĠĠĠĠĠĠĠĠĠĠĠĠĠĠĠ ĠĠĠĠĠĠĠ
aehler Differential
Nth Item
L icensed
M aterial
limit ations
Fam N
Ġtoy Primitives
M ost
T ry
j acobson
ĠBridge Data
HopfAlg Property
4 12
5 78
c int
f i
54 69
35 52
Continuous Function
Pee phole
8 00
E ps
b hd
l ayout
Ġre lease
Ġad rs
ĠSem iring
Ver ity
Ġleavitt Word
4 16
Ġs div
Ġht ime
Ġfirst Field
conj Factor
Semiring Action
ĠHom ologicalComplex
Ġoccur s
critical Points
Ġh set
Re veal
ĠR HS
ag ing
Ġpost condition
Positive Root
ĠIR State
amil tonian
' re
M ar
m w
ĠF F
mark er
Recur sion
Ġ108086391056 89
m diff
Ġs w
su ff
Ġ3 984
13 76
Ġflat Scheme
char X
AT E
Ġsig At
ĠexpTwoMulFixed Iter
or ical
Ġi dempotent
Co kernel
With Top
Sum Circuit
100 2
atter ies
om aly
Ġ5 7
Ġcarry ing
Young Space
Ġsynthe sis
ĠI Prop
Is Bounded
Call able
Charge s
é ĸ
Is Strict
Set Theory
Ġhr hs
ĠâĪħ )
ĠHarmonic YoungSpace
Ġrewrite s
ap hs
ĠS u
te ch
One s
Ġexec InstrRF
ĠAct ivation
' m
ĠL s
Is Algebraic
46 7
ĠComplex Vector
Genus Field
L ang
ĠR r
sub cld
Ġhp rim
Ġtr ust
Trans cript
di am
L ag
ow ever
ĠContDiff WithinAt
Ġcor ollary
Ġshe ar
Ġre aches
Name d
77 3
Ġreplace d
multi plier
Ġanalytic At
Ġh index
Ġk aehler
ĠL b
zpow ers
Ġobser v
Ġ360287970 1896
5 19
f b
Ġx V
Îµ s
sol ves
cent ric
dch risum
ĠT race
Ġhs pan
For In
Ġbox es
q b
13 69
De le
vert ical
Ġstructure d
point Field
lat er
ĠthrowError At
G rothendieck
e a
á Ĺ®
Ġ12 56
with out
- >
Key gen
Ġanti Shift
Ġl bl
Base OK
27 10
Ġtrans lated
Total ly
ĠaPrev Next
an ach
Ġv phl
Ġderiv ation
affine Span
Correct ness
S oundness
on ance
ot y
au gment
Ġhs caled
37 76
Str ongly
Ġtilt ScaleAt
ĠShort Complex
H amming
b inder
Ġb are
Ġ8 192
T ate
de dekind
ĠT ok
comp osite
ĠH ere
Hom ologicalComplex
Comm HopfAlgProperty
Ġden om
Ġtag s
Singleton Class
Highest Weight
Ġc orrector
ĠD avid
Ġintro duce
Ġal ive
49 7
Ambient Rotation
A sc
C apped
in fix
Ġi mod
)))) ,
ach ing
iet y
SubtypeMem ValuationSubring
72 3
ell iptic
Context Assembly
ar o
set lin
Co xeter
26 1
Ġcorrespon ds
ĠUnique DiffOn
M ut
a ul
f olded
ĠÂ· ))
tor que
ĠBy tes
Ġsimpl ify
ĠEulerLifted GradientSpace
Ġh positive
Ġg round
54 40
Ġhn ode
mod Eq
Base d
27 1
Ge odesic
ĠTy ped
Gen State
Ġcm q
Ġstart s
defin ite
determin istic
Ġpath Translate
Ġ* ]
Er r
Ġcurrent ly
Ġ1 56
ĠNat Trans
Root Datum
shr ink
initial ized
Ġbalance d
4 17
ed iv
Ġal phabet
Ġeval Expr
Mon itor
Cop roduct
Quadratic Form
Ġcent re
ĠAuth ors
Ġb odies
Ġd Model
ary centric
Ġmeta variables
ĠM acro
ĠK w
Ġmin or
Moment s
Ġhs ize
Ġout Len
ĠComp osition
linear Equiv
Ġword Offset
Ġh cc
Ġp assed
ãĤ ¯
Den ote
ĠCopy right
G l
u Candidate
Ġs ure
Ġ2 40
ĠL A
Exp ort
Ġcons ists
Ġexpres sed
ĠPolar Charts
5 29
C b
ĠB asic
Ġo Spec
' )]
of BitVec
âĤģ âĤĢ
rom atic
max E
Ġsepar ated
Ġet c
Ess FiniteType
e poch
ĠG raded
Ġ36239 90
A bi
L orentz
Homology Equiv
cur sor
Strict FDerivAt
ĠPhase Calculus
Ġusu al
Ġhf loor
cast RingHom
ðĿĵ ĺ
Candidate Set
p ures
Ġc ascade
simp rd
18 88
Level Params
Big Operators
ĠHash Input
Ġ540 4319
ĠC O
Ġde creasing
Non degenerate
dpre R
Ġappear s
Ġ215 34
it ution
Ġre achable
)} )
Ġlift M
Mer id
1348 33
ĠML IR
i ma
ĠT Set
ĠS te
At tribute
Ġsaddle Source
44 2
Ġ21534 134833
A pr
Ġwr ong
exec IR
continu ity
Ġ3624086936 70
Ġn or
po ol
Ġhs c
19 68
ĠIs Primitive
With Helpers
Ġeval Dist
Ġcp w
hid den
in i
Is Hermitian
17 76
Ġal ign
48 2
Ġdesc ription
Sobolev Space
b ltu
h amel
ĠPro duct
not e
99 99
23 1
Ġme chan
Ġinv olution
Ġend s
Post N
Ġ(# [
elfz nn
Ġcoverage Branch
Ġh of
Ġop ens
Ġlen W
Ġsp ann
irk beck
P L
S orry
Ġis False
arith metic
Set ting
49 3
Ġpres cribed
convex Hull
ĠContract s
So lo
s olve
Ġh up
ĠB i
mul Left
St ieltjes
A sync
R out
S I
h deg
Ġh sup
ut ral
ĠÏģ p
ĠNode RecipeKin
ĠWell Denoted
" ;
4 18
Ġh open
Ġb oolean
to P
Val ued
Ġqu ad
Com ap
Separ ation
Coll ap
F g
Ġhy x
Ġpre P
Ġsp ine
anti pode
M eroGermOn
â ¨
ĠC at
id y
Con struct
Is Closed
26 24
Î¼ s
Ġregular ity
ĠgaussianPhysical Column
S moke
ce ding
Ġ2 60
Ġv ocabulary
Ġref lect
Spec Iso
22 1
Local Index
sem i
equal ities
14 15
696 144
d simp
Ġ ])
Ġre q
Ġcomp osed
ĠEx tend
ĠPair wise
h map
Ġ1 96
ĠT ra
ĠM apping
out going
Ġ570 696144
Ġ570696144 780
C hebyshev
V olterra
Ġc orrected
Con densed
Face t
Ġrepresent ations
Ġfive Family
5 13
Ġ1 88
Ġover lap
fra k
pack age
Im Infty
Ġin p
op tim
ad am
ĠL orentz
37 1
Ġexp ort
Solo mon
s Union
Ġx p
ent ities
linear Combination
Constant Val
Upper HalfPlane
Cor oot
Ġruntime Contract
ĠProj Space
ro me
68 7
ring Equiv
split ting
Ġdeve lop
5 14
C e
S cott
m n
of AlgAut
nd ist
Ġpush forward
ðĿĶ ¤
Ġre levant
art ic
Eq On
292 1504
tan h
Ġanalog ue
Ġpan ic
Ġhome omorphism
I V
P y
ri ver
70 40
Par abolic
ĠF undamental
Ġ12 7
Ġent ities
mult ilinear
dom Restrict
tuple s
B ernstein
h res
Ġg s
10 40
59 3
Ġimport ed
bo se
Ġbi jective
Ġ36240 594
Ġb lue
Ġ2 58
ĠhB T
Ġdis card
Ġstar RingEnd
ĠDirect Sum
Ġsp in
ll ing
2921504 60
f usion
pro ducing
spec ific
A delic
Ġh post
Ġhs d
ĊĊ ĊĠĠĠ
rat Func
ĠSy mplectic
Ġdi amond
Un ified
En c
stra in
ĠHopf Algebra
Ġgre ater
Ġen able
Order Iso
Ġ36240 319
multip les
D r
P gm
52 1
44 7
ĠUniform Space
re ce
Ġread ToEnd
regular ized
ĠRedu ction
4 36
p map
et ra
Ġ" )"
39 1
72 16
ðĿĶ ®
Bump N
sseld d
Ġin fix
est imate
Lambda FVars
K c
mul cld
shift Right
Native With
Grid Index
andT setlin
Gelf andTsetlin
p ad
cases On
Ġhn o
Ideal SheafData
49 2
split On
Ġpa ired
ĠDeriv ation
f ee
Ġha g
ub i
Message Data
( {
ver al
Ġf ractional
68 3
ãĤ Ī
_{ \
Ġser ver
Ġm ath
Ġpro ven
Ġ#[ .
Request s
atom s
dpre S
ic ategory
ĠHas Sum
Period Family
Ġta o
mulMod ProductLayoutCall
) -
s ired
ĠM yNat
to Fin
ĠâĢĸ âĪ«
79 3
Sh ot
Symbol s
separ ation
ĠCoefficient s
ĠCount able
Ġassert s
Ġh col
Ġd u
pe ano
List NthItem
length s
Cl ip
decomp osable
orient ed
on se
Ġs ound
16 96
Ġequal ities
Full Path
âķĲâķĲâķĲâķĲâķĲâķĲâķĲâķĲâķĲâķĲâķĲâķĲâķĲâķĲâķĲâķĲ âķĲâķĲâķĲâķĲâķĲâķĲâķĲâķĲâķĲâķĲâķĲâķĲâķĲâķĲâķĲâķĲ
E Nat
t c
Ġt au
ĠIs Coprime
Ġcomp ose
Ġid s
Sum s
Ġsp H
W all
e ar
Ġ ulift
sk y
Ġte lescoping
prep ared
h cl
real ized
decl are
Ġh phi
Lo R
cap acity
Ġsuccess ful
F illing
ĠIs Limit
ĠSt ream
equiv Fin
Flat Step
Ġ<* >
- [
5 34
ĠP osition
Ġz smul
ht k
ĠIs Colimit
Ġcn r
Wave Interaction
Eigen value
ĠProjSpace Cech
E Dist
r pd
Ġin creasing
od o
ir rors
48 7
LieRing Module
u div
Stage s
Exterior Root
ev in
re levant
ĠP C
ĠM oving
Of Size
congr Fun
local FieldLift
Ġpres erving
multip le
NativeWith SwitchIds
Ġp op
29 12
rest riction
Extension s
ramification Idx
Localized Module
lindrical Residual
1578 65
Ġ1256 157865
M N
Ġh odd
le dge
end Pos
Shifted Tuple
d irichlet
p sub
ast ic
ĠCo chain
of Mul
: **
s seq
Ġb Ptr
Ġi Inf
64 64
pre comp
ĠRe st
Ġ@ Â«
73 19
mid point
Ġregion Base
ĠMessage Data
Ġ5404319 5528
G apCVP
n sp
un sat
Real ize
trivial ization
Uniform ization
Mult ip
Ent ity
ĊĠĠĠĠĠĠĠĠĠĠĠĠĠĠĠĠĠĠĠĠĠĠĠĠĠĠĠĠĠĠĠĠĠĠĠĠĠĠĠĠĠĠĠĠĠĠĠĠĠĠĠĠĠĠĠĠĠĠĠĠĠĠĠĠĠĠĠĠĠĠĠĠĠĠĠĠĠĠĠĠĠĠĠĠĠĠĠĠĠĠĠĠĠĠĠĠĠĠĠĠĠĠĠĠĠĠĠĠĠĠĠĠĠĠĠĠĠĠĠĠĠĠĠĠĠĠĠĠĠĠĠĠĠĠĠĠĠĠĠĠĠĠĠĠĠĠĠĠĠĠĠĠĠĠĠĠĠĠĠĠĠĠĠĠĠĠĠĠĠĠĠĠĠĠĠĠĠĠĠĠĠĠĠĠĠĠĠĠĠĠĠĠĠĠĠĠĠĠĠĠĠĠĠĠĠĠĠĠĠĠĠĠĠĠĠĠĠĠĠĠĠĠĠĠĠĠĠĠĠĠĠĠĠĠĠĠĠĠĠĠĠĠĠĠĠĠĠĠĠĠĠĠĠĠĠĠĠĠĠĠĠĠĠĠĠĠĠĠĠĠĠĠĠĠĠĠ ĠĠĠĠĠĠĠĠĠĠĠĠĠĠĠĠĠĠĠĠĠĠĠĠĠĠĠĠĠĠĠĠĠĠĠĠĠĠĠĠĠĠĠĠĠĠĠĠĠĠĠĠĠĠĠĠĠĠĠĠĠĠĠĠĠĠĠĠĠĠĠĠĠĠĠĠĠĠĠĠĠĠĠĠĠĠĠĠĠĠĠĠĠĠĠĠĠĠĠĠĠĠĠĠĠĠĠĠĠĠĠĠĠĠĠĠĠĠĠĠĠĠĠĠĠĠĠĠĠĠĠĠĠĠĠĠĠĠĠĠĠĠĠĠĠĠĠĠĠĠĠĠĠĠĠĠĠĠĠĠĠĠĠĠĠĠĠĠĠĠĠĠĠĠĠĠĠĠĠĠĠĠĠĠĠĠĠĠĠĠĠĠĠĠĠĠĠĠĠĠĠĠĠĠĠĠĠĠĠĠĠĠĠĠĠĠĠĠĠĠĠĠĠĠĠĠĠĠĠĠĠĠĠĠĠĠĠĠĠĠĠĠĠĠĠĠĠĠĠĠĠĠĠĠĠĠ
6 55
s olved
ĠD ill
ĠQ U
34 08
Ġremo ved
Ġcon verse
Ġfor mulas
14 40
59 52
ĠCusp CentralHomology
modelWithCorners Self
5 16
T Z
Ġsh adow
Kaehler Differential
l ub
v phl
Ġexact s
am o
Î± n
ring Hom
contDiff WithinAt
Ġpl an
src Formula
FlatStep TableData
Ġh ref
op code
ay s
hn Series
Ġce u
re cipe
Ġex e
Ġhp art
Ġextension s
Ġ(âĭ Ĥ
PO VM
5 18
h gen
t ab
Ġi v
Ġan notation
Ġrecur sor
orrector BumpN
Ġadele Space
Ġlink ed
) âŁ©,
) `:
h det
t d
ĠC w
Comp uted
frame E
Ġexec Block
Ġbi product
Poisson Kernel
4 59
Ġh thr
Ġw l
Ġl ab
ĠL ine
ĠK evin
29 32
Descrip tor
b Union
k l
us ive
50 24
Ġ9 2
Ġcompile Expr
Commut ative
c z
Ġf r
ĠIs Nilpotent
ãģ Ĥ
Ġsem igroup
ĠRiemann Genus
ĠConstant Info
5 17
Â §
to Subring
Ġcc rd
Ġ39 52
Ġmeasu rability
Ġupd ated
erdos problems
Ġm agma
con tain
l ied
56 80
Ġ20 18
Den om
Ġbranch Claims
Ġapplic ations
Ġtuple s
ĠFile Path
ch ie
Ġas ks
Wave Residual
ĠMonoid Algebra
Ġbne z
P E
ĠS ingle
In struction
ĠR and
res olvent
75 3
ĠSimp lex
4 14
comp ression
integral Closure
let E
Ġmut ual
multiplic ative
Ġdischarge d
Defining Ideal
) âŁ«_
h or
Ġis sue
physical Q
ĠAbs olute
Ġre use
ĠK im
Con nection
Ġhe ps
D lt
---- -
place Equiv
ĠTok en
2 11
im odule
ĠW F
Ġco chain
ĊĠĠĠĠĠĠĠĠĠĠĠĠĠĠĠĠĠĠĠĠ ĠĠĠĠĠĠĠĠĠĠĠĠĠĠĠĠĠĠĠĠĠĠĠĠĠĠĠĠĠĠĠĠĠĠĠĠĠĠĠĠĠĠĠĠĠĠĠĠĠĠĠĠĠĠĠĠĠĠĠĠĠĠĠĠĠĠĠĠĠĠĠĠĠĠĠĠĠĠĠĠĠĠĠĠĠĠĠĠĠĠĠĠĠĠĠĠĠĠĠĠĠĠĠĠĠĠĠĠĠĠĠĠĠĠĠĠĠĠĠĠĠĠĠĠĠĠĠĠ
ĠOption T
Ġcx mu
ĠâŁ¨[ ],
] ];
ce ed
ĠW Shape
Ġintro duced
Ġgener ates
Ġdimension s
ggreg ate
l smul
Ġ2 512
69 2
