{
  "version": "1.0",
  "truncation": null,
  "padding": null,
  "added_tokens": [
    {
      "id": 0,
      "content": "<pad>",
      "single_word": false,
      "lstrip": false,
      "rstrip": false,
      "normalized": false,
      "special": true
    },
    {
      "id": 1,
      "content": "<bos>",
      "single_word": false,
      "lstrip": false,
      "rstrip": false,
      "normalized": false,
      "special": true
    },
    {
      "id": 2,
      "content": "<eos>",
      "single_word": false,
      "lstrip": false,
      "rstrip": false,
      "normalized": false,
      "special": true
    },
    {
      "id": 3,
      "content": "<unk>",
      "single_word": false,
      "lstrip": false,
      "rstrip": false,
      "normalized": false,
      "special": true
    },
    {
      "id": 4,
      "content": "<state>",
      "single_word": false,
      "lstrip": false,
      "rstrip": false,
      "normalized": false,
      "special": true
    },
    {
      "id": 5,
      "content": "</state>",
      "single_word": false,
      "lstrip": false,
      "rstrip": false,
      "normalized": false,
      "special": true
    },
    {
      "id": 6,
      "content": "<goal>",
      "single_word": false,
      "lstrip": false,
      "rstrip": false,
      "normalized": false,
      "special": true
    },
    {
      "id": 7,
      "content": "</goal>",
      "single_word": false,
      "lstrip": false,
      "rstrip": false,
      "normalized": false,
      "special": true
    },
    {
      "id": 8,
      "content": "<tactic>",
      "single_word": false,
      "lstrip": false,
      "rstrip": false,
      "normalized": false,
      "special": true
    },
    {
      "id": 9,
      "content": "</tactic>",
      "single_word": false,
      "lstrip": false,
      "rstrip": false,
      "normalized": false,
      "special": true
    },
    {
      "id": 10,
      "content": "<proof>",
      "single_word": false,
      "lstrip": false,
      "rstrip": false,
      "normalized": false,
      "special": true
    },
    {
      "id": 11,
      "content": "</proof>",
      "single_word": false,
      "lstrip": false,
      "rstrip": false,
      "normalized": false,
      "special": true
    }
  ],
  "normalizer": null,
  "pre_tokenizer": {
    "type": "ByteLevel",
    "add_prefix_space": false,
    "trim_offsets": true,
    "use_regex": true
  },
  "post_processor": {
    "type": "ByteLevel",
    "add_prefix_space": true,
    "trim_offsets": false,
    "use_regex": true
  },
  "decoder": {
    "type": "ByteLevel",
    "add_prefix_space": true,
    "trim_offsets": true,
    "use_regex": true
  },
  "model": {
    "type": "BPE",
    "dropout": null,
    "unk_token": null,
    "continuing_subword_prefix": null,
    "end_of_word_suffix": null,
    "fuse_unk": false,
    "byte_fallback": false,
    "ignore_merges": false,
    "vocab": {
      "<pad>": 0,
      "<bos>": 1,
      "<eos>": 2,
      "<unk>": 3,
      "<state>": 4,
      "</state>": 5,
      "<goal>": 6,
      "</goal>": 7,
      "<tactic>": 8,
      "</tactic>": 9,
      "<proof>": 10,
      "</proof>": 11,
      "!": 12,
      "\"": 13,
      "#": 14,
      "$": 15,
      "%": 16,
      "&": 17,
      "'": 18,
      "(": 19,
      ")": 20,
      "*": 21,
      "+": 22,
      ",": 23,
      "-": 24,
      ".": 25,
      "/": 26,
      "0": 27,
      "1": 28,
      "2": 29,
      "3": 30,
      "4": 31,
      "5": 32,
      "6": 33,
      "7": 34,
      "8": 35,
      "9": 36,
      ":": 37,
      ";": 38,
      "<": 39,
      "=": 40,
      ">": 41,
      "?": 42,
      "@": 43,
      "A": 44,
      "B": 45,
      "C": 46,
      "D": 47,
      "E": 48,
      "F": 49,
      "G": 50,
      "H": 51,
      "I": 52,
      "J": 53,
      "K": 54,
      "L": 55,
      "M": 56,
      "N": 57,
      "O": 58,
      "P": 59,
      "Q": 60,
      "R": 61,
      "S": 62,
      "T": 63,
      "U": 64,
      "V": 65,
      "W": 66,
      "X": 67,
      "Y": 68,
      "Z": 69,
      "[": 70,
      "\\": 71,
      "]": 72,
      "^": 73,
      "_": 74,
      "`": 75,
      "a": 76,
      "b": 77,
      "c": 78,
      "d": 79,
      "e": 80,
      "f": 81,
      "g": 82,
      "h": 83,
      "i": 84,
      "j": 85,
      "k": 86,
      "l": 87,
      "m": 88,
      "n": 89,
      "o": 90,
      "p": 91,
      "q": 92,
      "r": 93,
      "s": 94,
      "t": 95,
      "u": 96,
      "v": 97,
      "w": 98,
      "x": 99,
      "y": 100,
      "z": 101,
      "{": 102,
      "|": 103,
      "}": 104,
      "~": 105,
      "¡": 106,
      "¢": 107,
      "£": 108,
      "¤": 109,
      "¥": 110,
      "¦": 111,
      "§": 112,
      "¨": 113,
      "©": 114,
      "ª": 115,
      "«": 116,
      "¬": 117,
      "®": 118,
      "¯": 119,
      "°": 120,
      "±": 121,
      "²": 122,
      "³": 123,
      "´": 124,
      "µ": 125,
      "¶": 126,
      "·": 127,
      "¸": 128,
      "¹": 129,
      "º": 130,
      "»": 131,
      "¼": 132,
      "½": 133,
      "¾": 134,
      "¿": 135,
      "À": 136,
      "Á": 137,
      "Â": 138,
      "Ã": 139,
      "Ä": 140,
      "Å": 141,
      "Æ": 142,
      "Ç": 143,
      "È": 144,
      "É": 145,
      "Ê": 146,
      "Ë": 147,
      "Ì": 148,
      "Í": 149,
      "Î": 150,
      "Ï": 151,
      "Ð": 152,
      "Ñ": 153,
      "Ò": 154,
      "Ó": 155,
      "Ô": 156,
      "Õ": 157,
      "Ö": 158,
      "×": 159,
      "Ø": 160,
      "Ù": 161,
      "Ú": 162,
      "Û": 163,
      "Ü": 164,
      "Ý": 165,
      "Þ": 166,
      "ß": 167,
      "à": 168,
      "á": 169,
      "â": 170,
      "ã": 171,
      "ä": 172,
      "å": 173,
      "æ": 174,
      "ç": 175,
      "è": 176,
      "é": 177,
      "ê": 178,
      "ë": 179,
      "ì": 180,
      "í": 181,
      "î": 182,
      "ï": 183,
      "ð": 184,
      "ñ": 185,
      "ò": 186,
      "ó": 187,
      "ô": 188,
      "õ": 189,
      "ö": 190,
      "÷": 191,
      "ø": 192,
      "ù": 193,
      "ú": 194,
      "û": 195,
      "ü": 196,
      "ý": 197,
      "þ": 198,
      "ÿ": 199,
      "Ā": 200,
      "ā": 201,
      "Ă": 202,
      "ă": 203,
      "Ą": 204,
      "ą": 205,
      "Ć": 206,
      "ć": 207,
      "Ĉ": 208,
      "ĉ": 209,
      "Ċ": 210,
      "ċ": 211,
      "Č": 212,
      "č": 213,
      "Ď": 214,
      "ď": 215,
      "Đ": 216,
      "đ": 217,
      "Ē": 218,
      "ē": 219,
      "Ĕ": 220,
      "ĕ": 221,
      "Ė": 222,
      "ė": 223,
      "Ę": 224,
      "ę": 225,
      "Ě": 226,
      "ě": 227,
      "Ĝ": 228,
      "ĝ": 229,
      "Ğ": 230,
      "ğ": 231,
      "Ġ": 232,
      "ġ": 233,
      "Ģ": 234,
      "ģ": 235,
      "Ĥ": 236,
      "ĥ": 237,
      "Ħ": 238,
      "ħ": 239,
      "Ĩ": 240,
      "ĩ": 241,
      "Ī": 242,
      "ī": 243,
      "Ĭ": 244,
      "ĭ": 245,
      "Į": 246,
      "į": 247,
      "İ": 248,
      "ı": 249,
      "Ĳ": 250,
      "ĳ": 251,
      "Ĵ": 252,
      "ĵ": 253,
      "Ķ": 254,
      "ķ": 255,
      "ĸ": 256,
      "Ĺ": 257,
      "ĺ": 258,
      "Ļ": 259,
      "ļ": 260,
      "Ľ": 261,
      "ľ": 262,
      "Ŀ": 263,
      "ŀ": 264,
      "Ł": 265,
      "ł": 266,
      "Ń": 267,
      "ĠĠ": 268,
      "Ġ(": 269,
      "ĠĠĠĠ": 270,
      "Ġ:": 271,
      "in": 272,
      "Ġâ": 273,
      "Ġh": 274,
      "on": 275,
      "er": 276,
      "ĠĠĠ": 277,
      "al": 278,
      "or": 279,
      "at": 280,
      "le": 281,
      "ĊĠ": 282,
      "ĊĠĠĠ": 283,
      "Ġ:=": 284,
      "Ġs": 285,
      "ĊĠĠĠĠ": 286,
      "th": 287,
      "Ġc": 288,
      "re": 289,
      "en": 290,
      "ar": 291,
      "Ġb": 292,
      "an": 293,
      "ct": 294,
      "mp": 295,
      "st": 296,
      "Ġ=": 297,
      "))": 298,
      "se": 299,
      "un": 300,
      "Ġ[": 301,
      "Ġa": 302,
      "Ġf": 303,
      "it": 304,
      "ve": 305,
      "ro": 306,
      "de": 307,
      "Ġi": 308,
      "ion": 309,
      "Ġp": 310,
      "me": 311,
      "ce": 312,
      "Ġt": 313,
      "Ġr": 314,
      "Ġn": 315,
      "ĠĠĠĠĠĠĠĠ": 316,
      "Ġe": 317,
      "âĤ": 318,
      "ul": 319,
      "the": 320,
      "Ġx": 321,
      "ĠâĦ": 322,
      "Ġ*": 323,
      "ĠâĪ": 324,
      "ĊĠĠĠĠĠ": 325,
      "ĠÎ": 326,
      "of": 327,
      "ĠâĨ": 328,
      "Ġby": 329,
      "ic": 330,
      "co": 331,
      "Ġm": 332,
      "Ġ1": 333,
      "ap": 334,
      "ge": 335,
      "ing": 336,
      "Ġha": 337,
      "Ġ-": 338,
      "Ġ_": 339,
      "Ġ+": 340,
      "Ġin": 341,
      "lo": 342,
      "ri": 343,
      "imp": 344,
      "Ġw": 345,
      "su": 346,
      "ed": 347,
      "ĠT": 348,
      "ly": 349,
      "Ġ`": 350,
      "ra": 351,
      "ĠA": 352,
      "Ġhave": 353,
      "ĠF": 354,
      "ĠS": 355,
      "Ġ{": 356,
      "Ġthe": 357,
      "Ġd": 358,
      "Re": 359,
      "iv": 360,
      "if": 361,
      "Ġ0": 362,
      "ent": 363,
      "om": 364,
      ").": 365,
      "is": 366,
      "Ġâī": 367,
      "ĠC": 368,
      "act": 369,
      "Ġ=>": 370,
      "em": 371,
      "Ġex": 372,
      "Ġl": 373,
      "ĠâĦĿ": 374,
      "ĠâĨĴ": 375,
      "ne": 376,
      "00": 377,
      "Ġ2": 378,
      "pe": 379,
      "ut": 380,
      "op": 381,
      "âŁ": 382,
      "ad": 383,
      "ĠP": 384,
      "ĠB": 385,
      "eq": 386,
      "In": 387,
      "Ġk": 388,
      "ab": 389,
      "Ġv": 390,
      "ĊĠĠĠĠĠĠĠ": 391,
      "Ġre": 392,
      "ĠM": 393,
      "et": 394,
      "ig": 395,
      "as": 396,
      "mul": 397,
      "--": 398,
      "Ġrw": 399,
      "ĠâŁ": 400,
      "âŁ©": 401,
      "us": 402,
      "po": 403,
      "ch": 404,
      "ot": 405,
      "ith": 406,
      "ate": 407,
      "ĠL": 408,
      "ĠN": 409,
      "Ġâī¤": 410,
      "ĠâŁ¨": 411,
      "Ġsimp": 412,
      "Ġg": 413,
      "Ġy": 414,
      "con": 415,
      "od": 416,
      "tr": 417,
      "ĊĠĠĠĠĠĠĠĠ": 418,
      "Ġle": 419,
      "int": 420,
      "ld": 421,
      "ation": 422,
      "orem": 423,
      "ex": 424,
      "ĠR": 425,
      "ist": 426,
      "set": 427,
      "ĠE": 428,
      "Ġ|": 429,
      "ase": 430,
      "ma": 431,
      "Ġexact": 432,
      "orm": 433,
      "ur": 434,
      "ĠĠĠĠĠĠĠĠĠĠĠĠĠĠĠĠ": 435,
      "ction": 436,
      "cv": 437,
      "âĤģ": 438,
      "ine": 439,
      "id": 440,
      "ero": 441,
      "ive": 442,
      "to": 443,
      "ĠÏ": 444,
      "ie": 445,
      "up": 446,
      "il": 447,
      "Ġis": 448,
      "ub": 449,
      "Ġ^": 450,
      "iff": 451,
      "theorem": 452,
      "def": 453,
      "Ġ((": 454,
      "Ġz": 455,
      "Ġj": 456,
      "and": 457,
      "ĠI": 458,
      "ue": 459,
      "ace": 460,
      "Ġo": 461,
      "Ġ<": 462,
      "ht": 463,
      "Co": 464,
      "Ġof": 465,
      "ype": 466,
      "mem": 467,
      "he": 468,
      "Ġu": 469,
      "Ġon": 470,
      "end": 471,
      "able": 472,
      "ĠÂ": 473,
      "ter": 474,
      "fun": 475,
      "te": 476,
      "Ġth": 477,
      "ort": 478,
      "ck": 479,
      "ta": 480,
      "),": 481,
      "âĤĤ": 482,
      "ial": 483,
      "val": 484,
      "ord": 485,
      "Ġ.": 486,
      "Ġcon": 487,
      "ĠâĪĢ": 488,
      "qu": 489,
      "um": 490,
      "fl": 491,
      "Real": 492,
      "pp": 493,
      "Ġfun": 494,
      "ĠK": 495,
      "Ġ-/": 496,
      "/--": 497,
      "ĠÎ±": 498,
      "im": 499,
      "âĤĢ": 500,
      "ĠÂ·": 501,
      "cel": 502,
      "am": 503,
      "ĠâĪĪ": 504,
      "ver": 505,
      "ĠG": 506,
      "one": 507,
      "ĠFin": 508,
      "res": 509,
      "add": 510,
      "ĊĠĠĠĠĠĠĠĠĠ": 511,
      "ĠD": 512,
      "Ġ/": 513,
      "ir": 514,
      "ol": 515,
      "all": 516,
      "ĠX": 517,
      "ow": 518,
      "32": 519,
      "ame": 520,
      "ĠâĦķ": 521,
      "zero": 522,
      "by": 523,
      "cc": 524,
      "pl": 525,
      "pace": 526,
      "Ġat": 527,
      "ff": 528,
      "neg": 529,
      "comp": 530,
      "iz": 531,
      "Ġwith": 532,
      "pos": 533,
      "ans": 534,
      "wcel": 535,
      "ĠH": 536,
      "bra": 537,
      "ec": 538,
      "ss": 539,
      "gebra": 540,
      "Ġq": 541,
      "ĠW": 542,
      "Ġco": 543,
      "get": 544,
      "app": 545,
      "und": 546,
      "gr": 547,
      "ity": 548,
      "Ġlet": 549,
      "12": 550,
      "64": 551,
      "sub": 552,
      "art": 553,
      "cal": 554,
      "map": 555,
      "mm": 556,
      "Ģĸ": 557,
      "Î»": 558,
      "dd": 559,
      "==": 560,
      "ft": 561,
      "pro": 562,
      "log": 563,
      "Ġonly": 564,
      "Ġto": 565,
      "du": 566,
      "lt": 567,
      "Con": 568,
      "ard": 569,
      "ite": 570,
      "Fin": 571,
      "Ġ\"": 572,
      ")))": 573,
      "tro": 574,
      "fv": 575,
      "Ex": 576,
      "non": 577,
      "St": 578,
      "Ġ3": 579,
      "lem": 580,
      "Ġ(-": 581,
      "ĠâĨ¦": 582,
      "ield": 583,
      "Map": 584,
      "Ġde": 585,
      "0000": 586,
      "Pro": 587,
      "],": 588,
      "Ġand": 589,
      "cfv": 590,
      "ule": 591,
      "ðĿ": 592,
      "el": 593,
      "ight": 594,
      "ical": 595,
      "Ġintro": 596,
      "Ġrfl": 597,
      "eriv": 598,
      "Nat": 599,
      "ect": 600,
      "ant": 601,
      "@[": 602,
      "Ġapp": 603,
      "ass": 604,
      "var": 605,
      "10": 606,
      "ĠV": 607,
      "ĊĠĠĠĠĠĠĠĠĠĠĠĠ": 608,
      "os": 609,
      "simp": 610,
      "ange": 611,
      "ind": 612,
      "At": 613,
      "au": 614,
      "Ġ(@": 615,
      "ext": 616,
      "ph": 617,
      "ert": 618,
      "ree": 619,
      "ib": 620,
      "Ġ**": 621,
      "ous": 622,
      "Ġ4": 623,
      "Al": 624,
      "mple": 625,
      "tin": 626,
      "pr": 627,
      "sy": 628,
      "ome": 629,
      "ĠNat": 630,
      "ĠU": 631,
      "odule": 632,
      "ound": 633,
      "roup": 634,
      "sum": 635,
      "ide": 636,
      "Is": 637,
      "Ġun": 638,
      "ult": 639,
      "ata": 640,
      "ĠType": 641,
      "asu": 642,
      "ign": 643,
      "ĠReal": 644,
      "ĠâĪ§": 645,
      "Ġfor": 646,
      "ath": 647,
      "tinu": 648,
      "cl": 649,
      "rig": 650,
      "ast": 651,
      "Op": 652,
      "16": 653,
      "Ġhx": 654,
      "tion": 655,
      "tain": 656,
      "24": 657,
      "ens": 658,
      "ĠâĬ": 659,
      "Ġst": 660,
      "56": 661,
      "Ġ--": 662,
      "`.": 663,
      "oint": 664,
      "es": 665,
      "trans": 666,
      "ĊĠĠĠĠĠĠĠĠĠĠĠĠĠĠĠĠĠĠĠĠ": 667,
      "Ġpro": 668,
      "inear": 669,
      "pec": 670,
      "?_": 671,
      "tinuous": 672,
      "vm": 673,
      "nonneg": 674,
      "apply": 675,
      "Ġapply": 676,
      "Ġhs": 677,
      "ance": 678,
      "old": 679,
      "right": 680,
      "áµ": 681,
      "Ġtr": 682,
      "ĊĠĠĠĠĠĠĠĠĠĠĠ": 683,
      "Vec": 684,
      "pow": 685,
      "âĪ": 686,
      "15": 687,
      "Ġ%": 688,
      "âĨ": 689,
      "ory": 690,
      "ĠÎ²": 691,
      "Ġwh": 692,
      "ases": 693,
      "ient": 694,
      "ĠCon": 695,
      "erm": 696,
      "ĠThe": 697,
      "iable": 698,
      "Ġhp": 699,
      "div": 700,
      "ual": 701,
      "ift": 702,
      "ĠâĨĲ": 703,
      "Space": 704,
      "ject": 705,
      "Ġob": 706,
      "left": 707,
      "low": 708,
      "14": 709,
      "ĠFinset": 710,
      "ary": 711,
      "ga": 712,
      "ack": 713,
      "quiv": 714,
      "str": 715,
      "oo": 716,
      "our": 717,
      "âĢĸ": 718,
      "19": 719,
      "On": 720,
      "ition": 721,
      "ore": 722,
      "ono": 723,
      "rom": 724,
      "ode": 725,
      "open": 726,
      "Fun": 727,
      "Ġref": 728,
      "Ġht": 729,
      "ctor": 730,
      "18": 731,
      "wa": 732,
      "import": 733,
      "Ġ?_": 734,
      "itVec": 735,
      "fin": 736,
      "ure": 737,
      "ĠâĢ": 738,
      "ĠPro": 739,
      "oc": 740,
      "Field": 741,
      "ile": 742,
      "ĠhÎ": 743,
      "sed": 744,
      "Ġit": 745,
      "Ġ}": 746,
      "17": 747,
      "ix": 748,
      "nd": 749,
      "13": 750,
      "ps": 751,
      "ain": 752,
      "lemma": 753,
      "Ġch": 754,
      "Ġus": 755,
      "ĠâĦĤ": 756,
      ")).": 757,
      "ĠðĿ": 758,
      "20": 759,
      "eg": 760,
      "omm": 761,
      "ĠList": 762,
      "symm": 763,
      "Ġan": 764,
      "pre": 765,
      "Ġdef": 766,
      "ere": 767,
      "ĠIs": 768,
      "âĨĲ": 769,
      "ize": 770,
      "ĠY": 771,
      "exp": 772,
      "atch": 773,
      "ĠIn": 774,
      "28": 775,
      "Ġobtain": 776,
      "norm": 777,
      "put": 778,
      "ble": 779,
      "mpt": 780,
      "Ġmul": 781,
      "`,": 782,
      "Hom": 783,
      "'.": 784,
      "ĠSet": 785,
      "With": 786,
      "lic": 787,
      "const": 788,
      "sh": 789,
      "coe": 790,
      "Ġhf": 791,
      "âĦ": 792,
      "Ġ(.": 793,
      "Ġusing": 794,
      "Sub": 795,
      "74": 796,
      "Of": 797,
      "arg": 798,
      "Diff": 799,
      "Ġnorm": 800,
      "ĠQ": 801,
      "row": 802,
      "Add": 803,
      "Ġthen": 804,
      "gth": 805,
      "rd": 806,
      "len": 807,
      "Val": 808,
      "ative": 809,
      "Ġrefine": 810,
      "====": 811,
      "38": 812,
      "Un": 813,
      "39": 814,
      "Ġâīł": 815,
      "arith": 816,
      "Ġif": 817,
      "Lo": 818,
      "ular": 819,
      "Algebra": 820,
      "rable": 821,
      "Ġhb": 822,
      "Ch": 823,
      "Ring": 824,
      "ĠâĢĸ": 825,
      "Ġ$": 826,
      "ource": 827,
      "erat": 828,
      "Ġcc": 829,
      "ies": 830,
      "wo": 831,
      "Ġas": 832,
      "54": 833,
      "ag": 834,
      "36": 835,
      "smul": 836,
      "Data": 837,
      "30": 838,
      "Ġset": 839,
      "Set": 840,
      "pri": 841,
      "Ġhc": 842,
      "Ġsub": 843,
      "Ġ#": 844,
      "Equiv": 845,
      "-/": 846,
      "ax": 847,
      "che": 848,
      "stance": 849,
      "mega": 850,
      "ÃĹ": 851,
      "ence": 852,
      "29": 853,
      "mk": 854,
      "/-": 855,
      "easu": 856,
      "34": 857,
      "Deriv": 858,
      "âŁ©,": 859,
      ")]": 860,
      "name": 861,
      "ĠhÏ": 862,
      "Ġsh": 863,
      "ime": 864,
      "alse": 865,
      "ĠÃĹ": 866,
      "air": 867,
      "76": 868,
      "unt": 869,
      "59": 870,
      "Le": 871,
      "ull": 872,
      "ĠBitVec": 873,
      "58": 874,
      "ay": 875,
      "Cur": 876,
      "ers": 877,
      "inarith": 878,
      "ĠRe": 879,
      "ool": 880,
      "dex": 881,
      "âģ": 882,
      "tra": 883,
      "ors": 884,
      "Ġfrom": 885,
      "Ġal": 886,
      "min": 887,
      "Ġres": 888,
      "&&": 889,
      "Ġ8": 890,
      "stru": 891,
      "Ġmap": 892,
      "Comp": 893,
      "Ġse": 894,
      "Ġ[âĨĲ": 895,
      "];": 896,
      "ry": 897,
      "card": 898,
      "Ġel": 899,
      "itive": 900,
      "79": 901,
      "cases": 902,
      "fold": 903,
      "ĠâĢ¢": 904,
      "duct": 905,
      "Ġthis": 906,
      "50": 907,
      "inv": 908,
      "26": 909,
      "ĠÎĵ": 910,
      "ded": 911,
      "atri": 912,
      "eight": 913,
      "ang": 914,
      "70": 915,
      "oly": 916,
      "ner": 917,
      "Ġomega": 918,
      "space": 919,
      "are": 920,
      "ĠâĦ¤": 921,
      "gral": 922,
      "List": 923,
      "ingle": 924,
      "sq": 925,
      "for": 926,
      "~~": 927,
      "The": 928,
      "out": 929,
      "Curve": 930,
      "atrix": 931,
      "Ġsimpa": 932,
      "mpty": 933,
      "78": 934,
      "ublic": 935,
      "Î±": 936,
      "lock": 937,
      "Ġthat": 938,
      "jective": 939,
      "omial": 940,
      "not": 941,
      "Ġhi": 942,
      "Ġ(âĪ": 943,
      "Ar": 944,
      "áµ£": 945,
      "ip": 946,
      "variable": 947,
      "ilter": 948,
      "olog": 949,
      "ĠAl": 950,
      "ĠJ": 951,
      "ke": 952,
      "Ġimp": 953,
      "range": 954,
      "Â¹": 955,
      "age": 956,
      "tend": 957,
      "br": 958,
      "cted": 959,
      "Eq": 960,
      "nel": 961,
      "Ġ5": 962,
      "Ġph": 963,
      "Ġtrue": 964,
      "rib": 965,
      "num": 966,
      "ys": 967,
      "Top": 968,
      "tDiff": 969,
      "Ġzero": 970,
      "Group": 971,
      "ĠO": 972,
      "Comm": 973,
      "De": 974,
      "Icc": 975,
      "cast": 976,
      "comm": 977,
      "hs": 978,
      "ĊĠĠĠĠĠĠĠĠĠĠĠĠĠ": 979,
      "Ġadd": 980,
      "upp": 981,
      "eta": 982,
      "cide": 983,
      "length": 984,
      "Ġval": 985,
      "Ġdo": 986,
      "urn": 987,
      "Ġpos": 988,
      "Ġhy": 989,
      "ower": 990,
      "ĠProp": 991,
      "ĠÎµ": 992,
      "âģ»": 993,
      "ĠCo": 994,
      "lib": 995,
      "sp": 996,
      "ĠZ": 997,
      "ice": 998,
      "ĠÎ¹": 999,
      "To": 1000,
      "Ġ++": 1001,
      "ĠÏĨ": 1002,
      "48": 1003,
      "max": 1004,
      "nomial": 1005,
      "mono": 1006,
      "module": 1007,
      "----": 1008,
      "Ġlinarith": 1009,
      "Ġring": 1010,
      "Ġcr": 1011,
      "ernel": 1012,
      "lvm": 1013,
      "Ġfin": 1014,
      "lass": 1015,
      "Ġhd": 1016,
      "af": 1017,
      "supp": 1018,
      "option": 1019,
      "turn": 1020,
      "ĠÏĥ": 1021,
      "Within": 1022,
      "Id": 1023,
      "bs": 1024,
      "eval": 1025,
      "eri": 1026,
      "ank": 1027,
      "ĠWord": 1028,
      "ists": 1029,
      "Ġhn": 1030,
      "Res": 1031,
      "Ġelse": 1032,
      "Ġnot": 1033,
      "ĠĠĠĠĠ": 1034,
      "eff": 1035,
      "72": 1036,
      "mplex": 1037,
      "60": 1038,
      "deal": 1039,
      "ĠĠĠĠĠĠĠĠĠĠĠĠĠĠĠĠĠĠĠĠĠĠĠĠĠĠĠĠĠĠĠĠ": 1040,
      "52": 1041,
      "Pre": 1042,
      "its": 1043,
      "gen": 1044,
      "mpr": 1045,
      "Pl": 1046,
      "hom": 1047,
      "abs": 1048,
      "sm": 1049,
      "))))": 1050,
      "ĠâĪĥ": 1051,
      "public": 1052,
      "Ġsome": 1053,
      "pres": 1054,
      "Ġcomp": 1055,
      "Expr": 1056,
      "Ġtheorem": 1057,
      "68": 1058,
      "Ġright": 1059,
      "med": 1060,
      "11": 1061,
      "ĠâĪĳ": 1062,
      "athlib": 1063,
      "olynomial": 1064,
      "single": 1065,
      "sure": 1066,
      "aux": 1067,
      "Linear": 1068,
      "Ġlo": 1069,
      "type": 1070,
      "tes": 1071,
      "orph": 1072,
      "State": 1073,
      "Ġunfold": 1074,
      "Ġ_)": 1075,
      "losed": 1076,
      "Ġwhere": 1077,
      "nat": 1078,
      "rip": 1079,
      "ĠÎ¼": 1080,
      "Ġbe": 1081,
      "cle": 1082,
      "succ": 1083,
      "Int": 1084,
      "deriv": 1085,
      "Ġhm": 1086,
      "Ġeq": 1087,
      "ire": 1088,
      "ĠEx": 1089,
      "easure": 1090,
      "',": 1091,
      "prod": 1092,
      "congr": 1093,
      "uation": 1094,
      "ean": 1095,
      "pi": 1096,
      "ĠTm": 1097,
      "Ġfalse": 1098,
      "base": 1099,
      "sel": 1100,
      "Ġsu": 1101,
      "inter": 1102,
      "40": 1103,
      "Ġne": 1104,
      "ceq": 1105,
      "Ġhg": 1106,
      "namespace": 1107,
      "hf": 1108,
      "mod": 1109,
      "Th": 1110,
      "Ġare": 1111,
      "Ġout": 1112,
      "measu": 1113,
      "')": 1114,
      "mage": 1115,
      "Ġhr": 1116,
      "Tr": 1117,
      "00000000": 1118,
      "ordin": 1119,
      "rad": 1120,
      "root": 1121,
      "Ġone": 1122,
      "Finset": 1123,
      "wbr": 1124,
      "Pri": 1125,
      "Ġimport": 1126,
      "mb": 1127,
      "ell": 1128,
      "ĠÏĦ": 1129,
      "rict": 1130,
      "Base": 1131,
      "69": 1132,
      "algebra": 1133,
      "Ġ[]": 1134,
      "Ġmem": 1135,
      "ĠĠĠĠĠĠĠ": 1136,
      "Ġhe": 1137,
      "Bound": 1138,
      "hd": 1139,
      "ensor": 1140,
      "par": 1141,
      "ample": 1142,
      "*}": 1143,
      "eriod": 1144,
      "Lim": 1145,
      "Ġen": 1146,
      "self": 1147,
      "ĠâĨĶ": 1148,
      "nt": 1149,
      "ray": 1150,
      "otient": 1151,
      "ach": 1152,
      "Type": 1153,
      "ĊĊĠ": 1154,
      "ĠMathlib": 1155,
      "Î²": 1156,
      "ey": 1157,
      "irst": 1158,
      "ateg": 1159,
      "88": 1160,
      "Ġdecide": 1161,
      "cons": 1162,
      "utable": 1163,
      "aw": 1164,
      "Ġsign": 1165,
      "Qu": 1166,
      "ĠÎ»": 1167,
      "ĠâĹ": 1168,
      "ĠÏģ": 1169,
      "Mod": 1170,
      "actic": 1171,
      "ring": 1172,
      "toNat": 1173,
      "group": 1174,
      "Spec": 1175,
      "univ": 1176,
      "ordinate": 1177,
      "rt": 1178,
      "By": 1179,
      "Ġlam": 1180,
      "ody": 1181,
      "code": 1182,
      "Mul": 1183,
      "Ġ6": 1184,
      "ton": 1185,
      "/-!": 1186,
      "tegral": 1187,
      "En": 1188,
      "Ġext": 1189,
      "Ġpre": 1190,
      "ĠÎº": 1191,
      "mt": 1192,
      "ĠSub": 1193,
      "vate": 1194,
      "ization": 1195,
      "ug": 1196,
      "Ġ#[": 1197,
      "heck": 1198,
      "Ġhw": 1199,
      "ash": 1200,
      "ok": 1201,
      "Ġhz": 1202,
      "Ġ12": 1203,
      "ail": 1204,
      "ĠâĹĩ": 1205,
      "ved": 1206,
      "âĦĿ": 1207,
      "ĠhT": 1208,
      "Reg": 1209,
      "Function": 1210,
      "plit": 1211,
      "instance": 1212,
      "fix": 1213,
      "ooth": 1214,
      "99": 1215,
      "ated": 1216,
      "top": 1217,
      "rame": 1218,
      "Ġor": 1219,
      "55": 1220,
      "âŁ¨": 1221,
      "sc": 1222,
      "Ġ&&": 1223,
      "ĠAlgebra": 1224,
      "ong": 1225,
      "lement": 1226,
      "ward": 1227,
      "Extend": 1228,
      "Se": 1229,
      "ension": 1230,
      "icCurve": 1231,
      "80": 1232,
      "44": 1233,
      "wceq": 1234,
      "ost": 1235,
      "Name": 1236,
      "arget": 1237,
      "cond": 1238,
      "ffine": 1239,
      "Norm": 1240,
      "omain": 1241,
      "tring": 1242,
      "verse": 1243,
      "ategory": 1244,
      "Ord": 1245,
      "Module": 1246,
      "Ġop": 1247,
      "bo": 1248,
      "ology": 1249,
      "Ġ@": 1250,
      "ivity": 1251,
      "igh": 1252,
      "âĤĥ": 1253,
      "22": 1254,
      "Ġhl": 1255,
      "ise": 1256,
      "Ġhk": 1257,
      "========": 1258,
      "Ġlem": 1259,
      "Ġhq": 1260,
      "private": 1261,
      "subset": 1262,
      "ac": 1263,
      "Sh": 1264,
      "])": 1265,
      "form": 1266,
      "try": 1267,
      "Ġmax": 1268,
      "erent": 1269,
      "Ġtype": 1270,
      "icient": 1271,
      "Var": 1272,
      "Par": 1273,
      "ÏĨ": 1274,
      "Ġid": 1275,
      "ian": 1276,
      "37": 1277,
      "ier": 1278,
      "vel": 1279,
      "Ġ64": 1280,
      "Zero": 1281,
      "ror": 1282,
      "tep": 1283,
      "Scal": 1284,
      "Ġ[],": 1285,
      "Ġreturn": 1286,
      "ĠBool": 1287,
      "continuous": 1288,
      "Point": 1289,
      "Code": 1290,
      "ãģ": 1291,
      "anon": 1292,
      "Local": 1293,
      "Ġ_,": 1294,
      "dv": 1295,
      "Mem": 1296,
      "back": 1297,
      "Ġcn": 1298,
      "Ġconstru": 1299,
      "ment": 1300,
      "fer": 1301,
      "col": 1302,
      "order": 1303,
      "âĤĺ": 1304,
      "artial": 1305,
      "ĊĊ": 1306,
      "Ġvar": 1307,
      "Ġcal": 1308,
      "ible": 1309,
      "Ġbase": 1310,
      "Inter": 1311,
      "erated": 1312,
      "duction": 1313,
      "que": 1314,
      "Finite": 1315,
      "Word": 1316,
      "Trans": 1317,
      "sto": 1318,
      "Ġ<|": 1319,
      "assoc": 1320,
      "joint": 1321,
      "est": 1322,
      "bound": 1323,
      "has": 1324,
      "Sem": 1325,
      "plic": 1326,
      "sqrt": 1327,
      "Ġdiv": 1328,
      "ĠhC": 1329,
      "Ġlemma": 1330,
      "ized": 1331,
      "Ġhas": 1332,
      "Ġleft": 1333,
      "be": 1334,
      "Dec": 1335,
      "Ġvalue": 1336,
      "opy": 1337,
      "anonical": 1338,
      "ķľ": 1339,
      "ins": 1340,
      "ĠLean": 1341,
      "ener": 1342,
      "onent": 1343,
      "ator": 1344,
      "intype": 1345,
      "ĊĠĠĠĠĠĠĠĠĠĠĠĠĠĠĠ": 1346,
      "ĠÏĪ": 1347,
      "ste": 1348,
      "Ġmatch": 1349,
      "computable": 1350,
      "Ġ(((": 1351,
      "itivity": 1352,
      "Ġshow": 1353,
      "upport": 1354,
      "odel": 1355,
      "Ġchange": 1356,
      "finite": 1357,
      "ĊĠĠĠĠĠĠĠĠĠĠ": 1358,
      "Ġhu": 1359,
      "equ": 1360,
      "Ġllvm": 1361,
      "Îĵ": 1362,
      "stant": 1363,
      "point": 1364,
      "ĠÎ´": 1365,
      "vent": 1366,
      "Ġfunction": 1367,
      "cy": 1368,
      "ber": 1369,
      "image": 1370,
      "ĠSt": 1371,
      "ysical": 1372,
      "cs": 1373,
      "Div": 1374,
      "ĠhN": 1375,
      "Ġfield": 1376,
      "ormed": 1377,
      "35": 1378,
      "actor": 1379,
      "support": 1380,
      "An": 1381,
      "cop": 1382,
      "ak": 1383,
      "rfl": 1384,
      "uler": 1385,
      "ape": 1386,
      "dge": 1387,
      "Ġnone": 1388,
      "cre": 1389,
      "Sum": 1390,
      "ution": 1391,
      "Theory": 1392,
      "ĠÎ³": 1393,
      "spec": 1394,
      "Ġrcases": 1395,
      "Ġhj": 1396,
      "under": 1397,
      "~~~": 1398,
      "Ġfile": 1399,
      "strict": 1400,
      "ho": 1401,
      "igma": 1402,
      "eti": 1403,
      "Ġ32": 1404,
      "Ġcongr": 1405,
      ";>": 1406,
      "Ġih": 1407,
      "lean": 1408,
      "Ġ<;>": 1409,
      "iter": 1410,
      "omorph": 1411,
      "ĠIcc": 1412,
      "wr": 1413,
      "Ġ~~~": 1414,
      "iece": 1415,
      "asis": 1416,
      "'s": 1417,
      "size": 1418,
      "oal": 1419,
      "ĠContDiff": 1420,
      "Î¼": 1421,
      "teg": 1422,
      "ĠâĪ¨": 1423,
      "96": 1424,
      "aph": 1425,
      "rier": 1426,
      "Ġpositivity": 1427,
      "ding": 1428,
      "Ġcalc": 1429,
      "Ġsum": 1430,
      "ius": 1431,
      "ms": 1432,
      "Ġnat": 1433,
      "ily": 1434,
      "Ġcases": 1435,
      "Order": 1436,
      "lat": 1437,
      "ific": 1438,
      "Coeff": 1439,
      "Ideal": 1440,
      "unded": 1441,
      "ache": 1442,
      "Ġcase": 1443,
      "aper": 1444,
      "Ġpar": 1445,
      "ĠhA": 1446,
      "ute": 1447,
      "section": 1448,
      "ush": 1449,
      "cr": 1450,
      "ses": 1451,
      "Ġsk": 1452,
      "Ġ\\": 1453,
      "ĶĢ": 1454,
      "ĠsignExtend": 1455,
      "Ġ20": 1456,
      "ulti": 1457,
      "Ġ||": 1458,
      "Ïĥ": 1459,
      "local": 1460,
      "xi": 1461,
      "Ġcf": 1462,
      "77": 1463,
      "noncomputable": 1464,
      "diff": 1465,
      "Ġhv": 1466,
      "Old": 1467,
      "Ġunder": 1468,
      "Ġ10": 1469,
      "duce": 1470,
      "iform": 1471,
      "Resid": 1472,
      "iag": 1473,
      "25": 1474,
      "ich": 1475,
      "ĊĠĠĠĠĠĠĠĠĠĠĠĠĠĠĠĠĠĠĠĠĠĠĠĠĠĠĠĠ": 1476,
      "Ġinput": 1477,
      "amily": 1478,
      "quation": 1479,
      "90": 1480,
      "For": 1481,
      "lot": 1482,
      "ense": 1483,
      "``": 1484,
      "Ġ>": 1485,
      "erator": 1486,
      "Ġ&&&": 1487,
      "losure": 1488,
      "ves": 1489,
      "pect": 1490,
      "intro": 1491,
      "Ġ?_âŁ©": 1492,
      "33": 1493,
      "Ġinter": 1494,
      "off": 1495,
      "orry": 1496,
      "âĶĢ": 1497,
      "ob": 1498,
      "real": 1499,
      "ĠContinuous": 1500,
      "inal": 1501,
      "Ġall": 1502,
      "cture": 1503,
      "Mono": 1504,
      "Measure": 1505,
      "ctual": 1506,
      "ĠOp": 1507,
      "Limb": 1508,
      "Product": 1509,
      "Index": 1510,
      "wn": 1511,
      "ixed": 1512,
      "NReal": 1513,
      "cd": 1514,
      "with": 1515,
      "fo": 1516,
      "Ġrec": 1517,
      "ĠInt": 1518,
      "EN": 1519,
      "##": 1520,
      "Î¹": 1521,
      "Ġlen": 1522,
      "mon": 1523,
      "ĠHas": 1524,
      "Polynomial": 1525,
      "yn": 1526,
      "Out": 1527,
      "singleton": 1528,
      "Arg": 1529,
      "Ġsp": 1530,
      "Ġits": 1531,
      "ram": 1532,
      "hi": 1533,
      "gree": 1534,
      "coeff": 1535,
      "ofNat": 1536,
      "Len": 1537,
      "ĠhS": 1538,
      "Ġmk": 1539,
      "Ġpair": 1540,
      "Ġcmul": 1541,
      "Au": 1542,
      "lim": 1543,
      "**": 1544,
      "auC": 1545,
      "auCeti": 1546,
      "ates": 1547,
      "forall": 1548,
      "Ġget": 1549,
      "Îµ": 1550,
      "Ġab": 1551,
      "vert": 1552,
      "filter": 1553,
      "ha": 1554,
      "Ġ_).": 1555,
      "Ġreg": 1556,
      "bit": 1557,
      "ric": 1558,
      "addc": 1559,
      "ĠâŁ¶": 1560,
      "exists": 1561,
      "Ro": 1562,
      "Ġpoint": 1563,
      "cess": 1564,
      "75": 1565,
      "Ġso": 1566,
      "ameter": 1567,
      "He": 1568,
      "Lp": 1569,
      "algebraMap": 1570,
      "ĠâĪŀ": 1571,
      "Ġcaddc": 1572,
      "ĠEvm": 1573,
      "Ġconstructor": 1574,
      "LinearMap": 1575,
      "Ġtwo": 1576,
      "tx": 1577,
      "Ptr": 1578,
      "ĠÏī": 1579,
      "âĶĢâĶĢ": 1580,
      "Unit": 1581,
      "Ġar": 1582,
      "per": 1583,
      "tract": 1584,
      "Off": 1585,
      "Ġarg": 1586,
      "pt": 1587,
      "`:": 1588,
      "reg": 1589,
      "tic": 1590,
      "prime": 1591,
      "ĠUn": 1592,
      "vari": 1593,
      "--------": 1594,
      "Ġ(âĪĢ": 1595,
      "ĠhP": 1596,
      "Ġwe": 1597,
      "tru": 1598,
      "ðĿĵ": 1599,
      "ĠÂ¬": 1600,
      "98": 1601,
      "hds": 1602,
      "file": 1603,
      "ĠPr": 1604,
      "Class": 1605,
      "Ġ},": 1606,
      "Ġcle": 1607,
      "ĠðĿĵ": 1608,
      "lift": 1609,
      "lower": 1610,
      "Integral": 1611,
      "Ġâī«": 1612,
      "two": 1613,
      "ĠFun": 1614,
      "abel": 1615,
      "Source": 1616,
      "Def": 1617,
      "Term": 1618,
      "ĠðĿķľ": 1619,
      "onal": 1620,
      "Ġstate": 1621,
      "Ġfinite": 1622,
      "Pos": 1623,
      "Pres": 1624,
      "Value": 1625,
      "idable": 1626,
      "Ġ|||": 1627,
      "trib": 1628,
      "ĠâĦļ": 1629,
      "Ġnon": 1630,
      "inte": 1631,
      "Ġname": 1632,
      "Ġcontinuous": 1633,
      "very": 1634,
      "easurable": 1635,
      "ams": 1636,
      "ĠTh": 1637,
      "66": 1638,
      "Weight": 1639,
      "riple": 1640,
      "mula": 1641,
      "insert": 1642,
      "Bytes": 1643,
      "Ġ7": 1644,
      "256": 1645,
      "Prime": 1646,
      "rpow": 1647,
      "ÏĦ": 1648,
      "lam": 1649,
      "Block": 1650,
      "Num": 1651,
      "angle": 1652,
      "tri": 1653,
      "Ġsource": 1654,
      "Matrix": 1655,
      "27": 1656,
      "ĠMatrix": 1657,
      "tIn": 1658,
      "itial": 1659,
      "ility": 1660,
      "Ġtrans": 1661,
      "measurable": 1662,
      "Ġresult": 1663,
      "Ġgr": 1664,
      "ĠâĬĨ": 1665,
      "integral": 1666,
      "ĠÎ·": 1667,
      "Ge": 1668,
      "injective": 1669,
      "ark": 1670,
      "23": 1671,
      "Ġ!": 1672,
      "show": 1673,
      "Ġexp": 1674,
      "prop": 1675,
      "gt": 1676,
      "ness": 1677,
      "ĠhB": 1678,
      "getLimb": 1679,
      "run": 1680,
      "ological": 1681,
      "text": 1682,
      "''": 1683,
      "Ġcmin": 1684,
      "ild": 1685,
      "Â»": 1686,
      "lation": 1687,
      "One": 1688,
      "ĊĠĠĠĠĠĠĠĠĠĠĠĠĠĠĠĠĠĠĠĠĠĠĠĠĠĠĠĠĠĠĠĠĠĠĠĠ": 1689,
      "08": 1690,
      "Ġ`(": 1691,
      "Ġ9": 1692,
      "rank": 1693,
      "Ġqu": 1694,
      "Complex": 1695,
      "isor": 1696,
      "wise": 1697,
      "ometry": 1698,
      "Path": 1699,
      "nal": 1700,
      "Ġ::": 1701,
      "ĠReg": 1702,
      "ĠhR": 1703,
      "getLimbN": 1704,
      "hp": 1705,
      "hx": 1706,
      "unit": 1707,
      ")`": 1708,
      "ancel": 1709,
      "nhds": 1710,
      "Ġspec": 1711,
      "mooth": 1712,
      "Ġsection": 1713,
      "49": 1714,
      "Ġalgebra": 1715,
      "Ġover": 1716,
      "rdos": 1717,
      "ĊĠĠĠĠĠĠĠĠĠĠĠĠĠĠĠĠĠ": 1718,
      "onempty": 1719,
      "check": 1720,
      "ci": 1721,
      "Ġ==": 1722,
      "etric": 1723,
      "ĠhL": 1724,
      "loc": 1725,
      "Row": 1726,
      "DerivAt": 1727,
      "ism": 1728,
      ".{": 1729,
      "ĠEuler": 1730,
      "Ġme": 1731,
      "Place": 1732,
      "Open": 1733,
      "Ġpri": 1734,
      "ral": 1735,
      "Ġbound": 1736,
      "46": 1737,
      "Ġdist": 1738,
      "inl": 1739,
      "present": 1740,
      "Call": 1741,
      "Alg": 1742,
      "Tactic": 1743,
      "icense": 1744,
      "Ġform": 1745,
      "uard": 1746,
      "']": 1747,
      "âĤĹ": 1748,
      "ĠComplex": 1749,
      "Star": 1750,
      "arrier": 1751,
      "Ph": 1752,
      "imension": 1753,
      "Sp": 1754,
      "eries": 1755,
      "ĠhK": 1756,
      "dep": 1757,
      "..": 1758,
      "ress": 1759,
      "^^": 1760,
      "dvd": 1761,
      "Asm": 1762,
      "Ġ16": 1763,
      "45": 1764,
      "Ġabs": 1765,
      "olution": 1766,
      "rc": 1767,
      "Iso": 1768,
      "value": 1769,
      "ĠErdos": 1770,
      "ane": 1771,
      "erentiable": 1772,
      "dist": 1773,
      "ĠAlgebraicCurve": 1774,
      "fore": 1775,
      "inner": 1776,
      "ĠString": 1777,
      "ied": 1778,
      "orre": 1779,
      "inst": 1780,
      "Ġclass": 1781,
      "lex": 1782,
      "Ġclt": 1783,
      "Ġeval": 1784,
      "some": 1785,
      "21": 1786,
      "Core": 1787,
      "ugh": 1788,
      "Root": 1789,
      "ery": 1790,
      "mpl": 1791,
      "rs": 1792,
      "ify": 1793,
      "Tensor": 1794,
      "Count": 1795,
      "we": 1796,
      "Form": 1797,
      "equiv": 1798,
      "xt": 1799,
      "ĠPl": 1800,
      "ÏĢ": 1801,
      "Ġâīĥ": 1802,
      "Pair": 1803,
      "inj": 1804,
      "Ġperiod": 1805,
      "imal": 1806,
      "upper": 1807,
      "anch": 1808,
      "llvm": 1809,
      "dis": 1810,
      "Normed": 1811,
      "ĠExpr": 1812,
      "orus": 1813,
      "Ġuse": 1814,
      "ounded": 1815,
      "Gr": 1816,
      "bal": 1817,
      "field": 1818,
      "Ġdsimp": 1819,
      "31": 1820,
      "io": 1821,
      "Copy": 1822,
      "inary": 1823,
      "NNReal": 1824,
      "ĠAr": 1825,
      "pd": 1826,
      "ĠâĪ«": 1827,
      "Time": 1828,
      "erved": 1829,
      "Triple": 1830,
      "endsto": 1831,
      "Ġdefin": 1832,
      "Key": 1833,
      "Ġenv": 1834,
      "Chart": 1835,
      "Stmt": 1836,
      "},": 1837,
      "uss": 1838,
      "fst": 1839,
      "Dis": 1840,
      "ector": 1841,
      "pose": 1842,
      "Ad": 1843,
      "Cat": 1844,
      "hc": 1845,
      "ĠFunction": 1846,
      "AddComm": 1847,
      "ĠÎ¸": 1848,
      "ofReal": 1849,
      "Domain": 1850,
      "Ġexists": 1851,
      "tocol": 1852,
      "Cert": 1853,
      "ĠÏĢ": 1854,
      "ĠĠĠĠĠĠĠĠĠĠĠĠĠĠĠĠĠĠĠĠĠĠĠĠĠĠĠĠĠĠĠĠĠĠĠĠĠĠĠĠĠĠĠĠĠĠĠĠĠĠĠĠĠĠĠĠĠĠĠĠĠĠĠĠ": 1855,
      "place": 1856,
      "Sign": 1857,
      "true": 1858,
      "ful": 1859,
      "Ġcdiv": 1860,
      "star": 1861,
      "step": 1862,
      "ations": 1863,
      "BitVec": 1864,
      "constant": 1865,
      "ÏĪ": 1866,
      "Yul": 1867,
      "Ġcan": 1868,
      "ĠâĪĺ": 1869,
      "Monoid": 1870,
      "contDiff": 1871,
      "Ġnum": 1872,
      "Valuation": 1873,
      "Ġinduction": 1874,
      "Ġdis": 1875,
      "73": 1876,
      "ĠTy": 1877,
      "source": 1878,
      "Ġrow": 1879,
      "Ġfirst": 1880,
      "Sy": 1881,
      ")),": 1882,
      "Ġdesc": 1883,
      "obj": 1884,
      "ayer": 1885,
      "ĠÎ©": 1886,
      "closed": 1887,
      "Ġderiv": 1888,
      "ĠâĢĶ": 1889,
      "hÎ": 1890,
      "ucl": 1891,
      "mall": 1892,
      "Ġinstance": 1893,
      "count": 1894,
      "Ġlog": 1895,
      "Array": 1896,
      "tric": 1897,
      "measure": 1898,
      "ullback": 1899,
      "Quotient": 1900,
      "calar": 1901,
      "ĠhF": 1902,
      "Ġds": 1903,
      "ĠâĨĳ": 1904,
      "ae": 1905,
      "Ġ,": 1906,
      "Ġtop": 1907,
      "Size": 1908,
      "âī": 1909,
      "Ġ(-(": 1910,
      "Ġsorry": 1911,
      "normal": 1912,
      "SE": 1913,
      "tegrable": 1914,
      "ually": 1915,
      "quare": 1916,
      "App": 1917,
      "hy": 1918,
      "Free": 1919,
      "ĠMeasure": 1920,
      "Deg": 1921,
      "example": 1922,
      "enter": 1923,
      "Ġwhich": 1924,
      "fig": 1925,
      "ther": 1926,
      "ement": 1927,
      "nf": 1928,
      "ude": 1929,
      "ross": 1930,
      "rel": 1931,
      "Ne": 1932,
      "ose": 1933,
      "vial": 1934,
      "âŁ©âŁ©": 1935,
      "Aut": 1936,
      "Er": 1937,
      "000": 1938,
      "Ġindex": 1939,
      "Comple": 1940,
      "class": 1941,
      "Left": 1942,
      "Step": 1943,
      "inder": 1944,
      "egin": 1945,
      "crete": 1946,
      "syl": 1947,
      "rec": 1948,
      "Ġ^^^": 1949,
      "Ġcomm": 1950,
      "Ġsplit": 1951,
      "Ïģ": 1952,
      "hb": 1953,
      "Kernel": 1954,
      "Ġ(âĪĳ": 1955,
      "rev": 1956,
      "742": 1957,
      "Own": 1958,
      "oin": 1959,
      "oose": 1960,
      "Ġrintro": 1961,
      "Idx": 1962,
      "Continuous": 1963,
      "End": 1964,
      "aract": 1965,
      "ker": 1966,
      "Ġhh": 1967,
      "Ġevery": 1968,
      "ĠÏĩ": 1969,
      "Check": 1970,
      "alf": 1971,
      "ķĲ": 1972,
      "unc": 1973,
      "sigma": 1974,
      "ĠâĦĵ": 1975,
      "Right": 1976,
      "duc": 1977,
      "ĠENNReal": 1978,
      "Ġ((.": 1979,
      "Ġno": 1980,
      "ventually": 1981,
      "ural": 1982,
      "Ġcps": 1983,
      "IR": 1984,
      "Affine": 1985,
      "High": 1986,
      "Ġsuc": 1987,
      "hg": 1988,
      "(%": 1989,
      "ume": 1990,
      "):": 1991,
      "olume": 1992,
      "TauCeti": 1993,
      "Ġsup": 1994,
      "âķĲ": 1995,
      "IC": 1996,
      "ll": 1997,
      "Ġsubst": 1998,
      "read": 1999,
      "Paper": 2000,
      "og": 2001,
      "Ġterm": 2002,
      "Simp": 2003,
      "ĊĠĠĠĠĠĠĠĠĠĠĠĠĠĠĠĠĠĠĠ": 2004,
      "ĠSpace": 2005,
      "restrict": 2006,
      "amma": 2007,
      "Subring": 2008,
      "ĠComp": 2009,
      "no": 2010,
      "inr": 2011,
      "Ġpres": 2012,
      "empty": 2013,
      "á¶": 2014,
      "Ġpure": 2015,
      "kernel": 2016,
      "Prim": 2017,
      "Ġxs": 2018,
      "wf": 2019,
      "sign": 2020,
      "Partial": 2021,
      "Fintype": 2022,
      "pair": 2023,
      "ection": 2024,
      "Gen": 2025,
      "Exp": 2026,
      "face": 2027,
      "âķĲâķĲ": 2028,
      "uclide": 2029,
      "uclidean": 2030,
      "rat": 2031,
      "span": 2032,
      "`-": 2033,
      "Ġtest": 2034,
      "Coordinate": 2035,
      ")âģ»": 2036,
      "ĠLinear": 2037,
      "csn": 2038,
      "index": 2039,
      "heaf": 2040,
      ")}": 2041,
      "53": 2042,
      "================": 2043,
      "TripleWithin": 2044,
      "qual": 2045,
      "AddCommGroup": 2046,
      "Lift": 2047,
      "xiom": 2048,
      "tage": 2049,
      "Over": 2050,
      "Ġinv": 2051,
      "ability": 2052,
      "Ġad": 2053,
      "race": 2054,
      "rough": 2055,
      "Lean": 2056,
      "Log": 2057,
      "ven": 2058,
      "ud": 2059,
      "Bounds": 2060,
      "goal": 2061,
      "Read": 2062,
      "snd": 2063,
      "tains": 2064,
      "ts": 2065,
      "ĊĠĠĠĠĠĠ": 2066,
      "Ġcfz": 2067,
      "Ġsy": 2068,
      "\",": 2069,
      "false": 2070,
      "cept": 2071,
      "Ġlist": 2072,
      "bi": 2073,
      "Model": 2074,
      "Â·": 2075,
      "vector": 2076,
      "error": 2077,
      "VM": 2078,
      "ault": 2079,
      "ĠhX": 2080,
      "lease": 2081,
      "next": 2082,
      "Closed": 2083,
      "_,": 2084,
      "otal": 2085,
      "Scalar": 2086,
      "port": 2087,
      "Canonical": 2088,
      "Ġcol": 2089,
      "Const": 2090,
      "ĠOption": 2091,
      "Decidable": 2092,
      "cancel": 2093,
      "ENSE": 2094,
      "ICENSE": 2095,
      "omb": 2096,
      "Support": 2097,
      "Error": 2098,
      "84": 2099,
      "union": 2100,
      "Compact": 2101,
      "Ġelement": 2102,
      "ĠEvmAsm": 2103,
      "ĠModule": 2104,
      "flat": 2105,
      "Ġcheck": 2106,
      "ational": 2107,
      "smooth": 2108,
      "Two": 2109,
      "ĠÂ«": 2110,
      "Ġâĸ": 2111,
      "append": 2112,
      "tice": 2113,
      "âŁ©)": 2114,
      "asic": 2115,
      "ique": 2116,
      "uest": 2117,
      "Ġinto": 2118,
      "ill": 2119,
      "hn": 2120,
      "ĠAll": 2121,
      "Ġhab": 2122,
      "Coefficient": 2123,
      "sin": 2124,
      "Copyright": 2125,
      "ĠhD": 2126,
      "Rat": 2127,
      "ia": 2128,
      "65": 2129,
      "Mon": 2130,
      "Ġtarget": 2131,
      "Proof": 2132,
      "Action": 2133,
      "lect": 2134,
      "Ġend": 2135,
      "ball": 2136,
      "Ġoff": 2137,
      "Tower": 2138,
      "Ġlocal": 2139,
      "Has": 2140,
      "DerivWithin": 2141,
      "linear": 2142,
      "extra": 2143,
      "Rec": 2144,
      "Prefix": 2145,
      "ribed": 2146,
      "nn": 2147,
      "ics": 2148,
      "la": 2149,
      "AlgebraicCurve": 2150,
      "Ġreserved": 2151,
      "Ġnew": 2152,
      "Ġproof": 2153,
      "ĠArray": 2154,
      "variant": 2155,
      "Result": 2156,
      "Ġkey": 2157,
      "Ġneg": 2158,
      "âĢ": 2159,
      "Ġass": 2160,
      "Ġcz": 2161,
      "ml": 2162,
      "ask": 2163,
      "rop": 2164,
      "Ġ#[[": 2165,
      "jection": 2166,
      "rw": 2167,
      "angent": 2168,
      "Family": 2169,
      "monic": 2170,
      "data": 2171,
      "Ġlicense": 2172,
      "43": 2173,
      "ĠThis": 2174,
      "Dist": 2175,
      "Ġgrind": 2176,
      "aracter": 2177,
      "ĠðĿĶ": 2178,
      "Ġsmul": 2179,
      "Ġgener": 2180,
      "Ġtt": 2181,
      "ĠAp": 2182,
      "cheme": 2183,
      "izer": 2184,
      "ĠhG": 2185,
      "ĠhU": 2186,
      "ĠcpsTripleWithin": 2187,
      "Or": 2188,
      "!\"": 2189,
      "Ġgen": 2190,
      "Ġ?_,": 2191,
      "sup": 2192,
      "valid": 2193,
      "Fn": 2194,
      "ĠâĬĹ": 2195,
      "Ġbytes": 2196,
      "Frame": 2197,
      "Ġkernel": 2198,
      "Ġ40": 2199,
      "ĠâĬ¦": 2200,
      "Rel": 2201,
      "ĠApache": 2202,
      "Fact": 2203,
      "Residue": 2204,
      "ĠCg": 2205,
      "Î¸": 2206,
      "ou": 2207,
      "Ġreal": 2208,
      "Series": 2209,
      "ause": 2210,
      "Ġblock": 2211,
      "Auth": 2212,
      "Ġfst": 2213,
      "iagonal": 2214,
      "ben": 2215,
      "Ġlt": 2216,
      "ser": 2217,
      "Ġâī¥": 2218,
      "89": 2219,
      "Ġgroup": 2220,
      "Ġdata": 2221,
      "ĠQu": 2222,
      "Ġinner": 2223,
      "untime": 2224,
      "Constant": 2225,
      "57": 2226,
      "Ġ->": 2227,
      "Pack": 2228,
      "ĠâĨ¥": 2229,
      "ike": 2230,
      "Ġrun": 2231,
      "Ġfunext": 2232,
      "idth": 2233,
      "bind": 2234,
      "load": 2235,
      "Ġcoeff": 2236,
      "Ġmin": 2237,
      "sion": 2238,
      "noc": 2239,
      "Ġsnd": 2240,
      "Ġroot": 2241,
      "prev": 2242,
      "Ġ-,": 2243,
      "indow": 2244,
      "ĠâĬ¢": 2245,
      "Ġaxiom": 2246,
      "Ġwi": 2247,
      "integ": 2248,
      "Graph": 2249,
      "Part": 2250,
      "lobal": 2251,
      "Hash": 2252,
      "Ġ/--": 2253,
      "itions": 2254,
      "Ġbody": 2255,
      "Ġdescribed": 2256,
      "tent": 2257,
      "ĠhM": 2258,
      "Ïī": 2259,
      "sw": 2260,
      "seq": 2261,
      "Release": 2262,
      "den": 2263,
      "Su": 2264,
      "Ġ(âĨĲ": 2265,
      "refl": 2266,
      "Table": 2267,
      "Degree": 2268,
      "nv": 2269,
      "Ġhom": 2270,
      "Ġent": 2271,
      "This": 2272,
      "Î³": 2273,
      "Ġheq": 2274,
      "oment": 2275,
      "Ġorder": 2276,
      "auge": 2277,
      "Tri": 2278,
      "inc": 2279,
      "Sup": 2280,
      "Subgroup": 2281,
      "Ġrights": 2282,
      "Ġsame": 2283,
      "ices": 2284,
      "Category": 2285,
      "Body": 2286,
      "ĠCh": 2287,
      "Region": 2288,
      "coped": 2289,
      "ĊĠĠĠĠĠĠĠĠĠĠĠĠĠĠĠĠĠĠĠĠĠ": 2290,
      "Released": 2291,
      "linarith": 2292,
      "ĠLICENSE": 2293,
      "son": 2294,
      "LVM": 2295,
      "ĠIdeal": 2296,
      "lab": 2297,
      "perm": 2298,
      "state": 2299,
      "erence": 2300,
      "word": 2301,
      "ĠâĪ£": 2302,
      "ircle": 2303,
      "Ġfilter": 2304,
      "iate": 2305,
      "ote": 2306,
      "endent": 2307,
      "Ġdecl": 2308,
      "'_": 2309,
      "Ġcur": 2310,
      "Ġrest": 2311,
      "exact": 2312,
      "ĠEquation": 2313,
      "pth": 2314,
      "so": 2315,
      "Ġ(_": 2316,
      "Ġ~~~(": 2317,
      "Ġlinear": 2318,
      "ridge": 2319,
      "ultiplic": 2320,
      "ducible": 2321,
      "Ġintegral": 2322,
      "arent": 2323,
      "erty": 2324,
      "atement": 2325,
      "Rad": 2326,
      "LE": 2327,
      "product": 2328,
      "own": 2329,
      "Ġpd": 2330,
      "ave": 2331,
      "ĠhÏĦ": 2332,
      "Ġmod": 2333,
      "ument": 2334,
      "sur": 2335,
      "alk": 2336,
      "factor": 2337,
      "join": 2338,
      "Ġeta": 2339,
      "ensity": 2340,
      "write": 2341,
      "Ġinfer": 2342,
      "Vector": 2343,
      "Ġcut": 2344,
      "Ġwhen": 2345,
      "mbed": 2346,
      "tructure": 2347,
      "begin": 2348,
      "Ġnlinarith": 2349,
      "ĊĊĠĠĠ": 2350,
      "ĠhÎµ": 2351,
      "CommRing": 2352,
      "Measurable": 2353,
      "av": 2354,
      "Ġ36": 2355,
      "Ġcode": 2356,
      "ox": 2357,
      "ĠUInt": 2358,
      "ĠâĪĤ": 2359,
      "auss": 2360,
      "lta": 2361,
      "mo": 2362,
      "additive": 2363,
      "poly": 2364,
      "Authors": 2365,
      "Ġctx": 2366,
      "ĠðĿĴ": 2367,
      "Cast": 2368,
      "pure": 2369,
      "ĠÎ¾": 2370,
      "128": 2371,
      "after": 2372,
      "decide": 2373,
      "fderiv": 2374,
      "Ġnormal": 2375,
      "1038": 2376,
      "arge": 2377,
      "ole": 2378,
      "Torus": 2379,
      "ty": 2380,
      "Law": 2381,
      "Ġequal": 2382,
      "orage": 2383,
      "choose": 2384,
      "tern": 2385,
      "Params": 2386,
      "tail": 2387,
      "Ġdiff": 2388,
      "ĠCm": 2389,
      "wh": 2390,
      "bot": 2391,
      "irect": 2392,
      "hab": 2393,
      "Residual": 2394,
      "Ġoutput": 2395,
      "Ġacc": 2396,
      "Ġcv": 2397,
      "04": 2398,
      "block": 2399,
      "Basis": 2400,
      "ranch": 2401,
      "resh": 2402,
      "Ġcabs": 2403,
      "ust": 2404,
      "ĠMod": 2405,
      "Instance": 2406,
      "Ġident": 2407,
      "Ġback": 2408,
      "degree": 2409,
      "reducible": 2410,
      "let": 2411,
      "Physical": 2412,
      "ĠhQ": 2413,
      "term": 2414,
      "Ext": 2415,
      "erase": 2416,
      "stra": 2417,
      "brev": 2418,
      "armonic": 2419,
      "ĠPolynomial": 2420,
      "tendsto": 2421,
      "ĠAdd": 2422,
      "impl": 2423,
      "Ġâĸ¸": 2424,
      "ias": 2425,
      ")],": 2426,
      "iven": 2427,
      "ann": 2428,
      "ãĤ": 2429,
      "Ġtime": 2430,
      "Ġdpre": 2431,
      "Ġci": 2432,
      "Ġtry": 2433,
      "Cell": 2434,
      "Ġpow": 2435,
      "Ġ()": 2436,
      "ess": 2437,
      "frame": 2438,
      "Ty": 2439,
      "âī¥": 2440,
      "Ġ'": 2441,
      "nil": 2442,
      "gram": 2443,
      "Ġcoe": 2444,
      "locity": 2445,
      "trol": 2446,
      "iring": 2447,
      "ctions": 2448,
      "ĠIO": 2449,
      "guard": 2450,
      "ĠTr": 2451,
      "Ġsetvar": 2452,
      "0000000000000000": 2453,
      "Cy": 2454,
      "head": 2455,
      "Period": 2456,
      "*)": 2457,
      "Ġequiv": 2458,
      "Ġany": 2459,
      "ilinear": 2460,
      "elim": 2461,
      "erves": 2462,
      "Ball": 2463,
      "Level": 2464,
      "Non": 2465,
      "round": 2466,
      "tax": 2467,
      "âĪŀ": 2468,
      "iso": 2469,
      "itt": 2470,
      "arry": 2471,
      "ĠSubmodule": 2472,
      "adic": 2473,
      "ĠMetric": 2474,
      "uild": 2475,
      "Î´": 2476,
      "uel": 2477,
      "weight": 2478,
      "Ġtri": 2479,
      "ĠÎ½": 2480,
      "goals": 2481,
      "ĠSpec": 2482,
      "rent": 2483,
      "ĠâŁ¨âŁ¨": 2484,
      "67": 2485,
      "Ġstep": 2486,
      "before": 2487,
      "42": 2488,
      "Ġsupport": 2489,
      "Ġlift": 2490,
      "call": 2491,
      "âĨĳ": 2492,
      "ðĿĵĿ": 2493,
      "09": 2494,
      "ification": 2495,
      "_.": 2496,
      "Om": 2497,
      "arr": 2498,
      "comap": 2499,
      "Ġâĭ": 2500,
      "000000": 2501,
      "Ġpath": 2502,
      "vex": 2503,
      "ĠâŁ¨_,": 2504,
      "wss": 2505,
      "Prop": 2506,
      "Ġweight": 2507,
      "time": 2508,
      "cover": 2509,
      "ĠPlace": 2510,
      "ĠSign": 2511,
      "Addrs": 2512,
      "ilt": 2513,
      "Ġ>>": 2514,
      "side": 2515,
      "upd": 2516,
      "ĠAn": 2517,
      "âĤĦ": 2518,
      "Îº": 2519,
      "ĠFilter": 2520,
      "47": 2521,
      "Power": 2522,
      "Submodule": 2523,
      "Shape": 2524,
      "Ġcexp": 2525,
      "iterated": 2526,
      "ified": 2527,
      "Cover": 2528,
      "Geometry": 2529,
      "Ġ(`": 2530,
      "hr": 2531,
      "atform": 2532,
      "Elem": 2533,
      "Ġhmem": 2534,
      "quest": 2535,
      "led": 2536,
      "String": 2537,
      "uestAddrs": 2538,
      "inf": 2539,
      "ĊĠĠ": 2540,
      ");": 2541,
      "Ġpl": 2542,
      "di": 2543,
      "Ġpart": 2544,
      "node": 2545,
      "Ġparameter": 2546,
      "iler": 2547,
      "Pi": 2548,
      "hat": 2549,
      "ĠÎĽ": 2550,
      "ĊĠĠĠĠĠĠĠĠĠĠĠĠĠĠĠĠĠĠĠĠĠĠĠ": 2551,
      "Prod": 2552,
      "Ġcp": 2553,
      "Tree": 2554,
      "Env": 2555,
      "print": 2556,
      "tack": 2557,
      "idue": 2558,
      "return": 2559,
      "olve": 2560,
      "shift": 2561,
      "âĶĢâĶĢâĶĢâĶĢ": 2562,
      "ĠÎ¦": 2563,
      "Gener": 2564,
      "result": 2565,
      "cale": 2566,
      "com": 2567,
      "Ġpush": 2568,
      "ference": 2569,
      "structure": 2570,
      "ĠâĪ©": 2571,
      "ĠContDiffOn": 2572,
      "racle": 2573,
      "full": 2574,
      "line": 2575,
      "âĦĵ": 2576,
      "ĠModular": 2577,
      "Ġproduct": 2578,
      "Topological": 2579,
      "Ġclassical": 2580,
      "Ġcall": 2581,
      "omorphism": 2582,
      "Ġnext": 2583,
      "Lower": 2584,
      "attice": 2585,
      "psi": 2586,
      "```": 2587,
      "part": 2588,
      "finrank": 2589,
      "iber": 2590,
      "Shift": 2591,
      "mlir": 2592,
      "}`": 2593,
      "lope": 2594,
      "ats": 2595,
      "hC": 2596,
      "Ġ[(": 2597,
      "det": 2598,
      "ĠâĪī": 2599,
      "Ġmodule": 2600,
      "ĠIf": 2601,
      "ulus": 2602,
      "Ġspace": 2603,
      "Ġcoordinate": 2604,
      "DecidableEq": 2605,
      "uld": 2606,
      "within": 2607,
      "Cl": 2608,
      "lice": 2609,
      "ving": 2610,
      "bl": 2611,
      "ential": 2612,
      "stem": 2613,
      "Homology": 2614,
      "Input": 2615,
      "pper": 2616,
      "Ġ``": 2617,
      "Ġcount": 2618,
      "Length": 2619,
      "list": 2620,
      "ĠWe": 2621,
      "cont": 2622,
      "itness": 2623,
      "oth": 2624,
      "monoid": 2625,
      "bability": 2626,
      "Ġlinter": 2627,
      "Ġ(â": 2628,
      "92": 2629,
      "cratch": 2630,
      "uz": 2631,
      "axi": 2632,
      "eps": 2633,
      "86": 2634,
      "Hi": 2635,
      "Ġcx": 2636,
      "snoc": 2637,
      "Func": 2638,
      "Ġwr": 2639,
      "Info": 2640,
      "á¶ł": 2641,
      "Ġ|>": 2642,
      "usion": 2643,
      "Ġintros": 2644,
      "Jet": 2645,
      "main": 2646,
      "ish": 2647,
      "Max": 2648,
      "ificate": 2649,
      "alive": 2650,
      "osition": 2651,
      "eration": 2652,
      "ĠDe": 2653,
      "cos": 2654,
      "Ġ[]âŁ©,": 2655,
      "]âŁ©,": 2656,
      "hA": 2657,
      "edge": 2658,
      "rid": 2659,
      "Post": 2660,
      "conj": 2661,
      "ĠZMod": 2662,
      "tribut": 2663,
      "})": 2664,
      "Ref": 2665,
      "Ġbv": 2666,
      "Piece": 2667,
      "ings": 2668,
      "ValuationSubring": 2669,
      "Ġhne": 2670,
      "Ġuniv": 2671,
      "umn": 2672,
      "chart": 2673,
      "Ġread": 2674,
      "Comb": 2675,
      "core": 2676,
      "ĠLinearMap": 2677,
      "Aux": 2678,
      "lev": 2679,
      "Conj": 2680,
      "Ġ11": 2681,
      "Profile": 2682,
      "Ġcl": 2683,
      "Inf": 2684,
      "vPolynomial": 2685,
      "ited": 2686,
      "closure": 2687,
      "bar": 2688,
      "Normal": 2689,
      "unk": 2690,
      "input": 2691,
      "ends": 2692,
      "Ġprod": 2693,
      "env": 2694,
      "----------------": 2695,
      "man": 2696,
      "Ġpositive": 2697,
      "Pred": 2698,
      "imensional": 2699,
      "Pool": 2700,
      "from": 2701,
      "subtype": 2702,
      "Smooth": 2703,
      "Ġty": 2704,
      "Ġused": 2705,
      "Ġmeasurable": 2706,
      "Bool": 2707,
      "ĠVar": 2708,
      "Union": 2709,
      "Decl": 2710,
      ")))))": 2711,
      "duced": 2712,
      "00000": 2713,
      "âĤĲ": 2714,
      "Evm": 2715,
      "Option": 2716,
      "incip": 2717,
      "toList": 2718,
      "sem": 2719,
      "mbedding": 2720,
      "From": 2721,
      "raw": 2722,
      "Platform": 2723,
      "mme": 2724,
      "rest": 2725,
      "ĠModularCurve": 2726,
      "ĠalgebraMap": 2727,
      "ltu": 2728,
      "Ë¢": 2729,
      "As": 2730,
      "ĠâĬ¤": 2731,
      "position": 2732,
      "split": 2733,
      "bd": 2734,
      "hm": 2735,
      "))).": 2736,
      "nected": 2737,
      "Node": 2738,
      "ĠUnit": 2739,
      "Scale": 2740,
      "Ġcrp": 2741,
      "ĊĠĠĠĠĠĠĠĠĠĠĠĠĠĠĠĠĠĠĠĠĠĠĠĠĠ": 2742,
      "loat": 2743,
      "Ġfixed": 2744,
      "elf": 2745,
      "Ġold": 2746,
      "gs": 2747,
      "Context": 2748,
      "trace": 2749,
      "Change": 2750,
      "Ġrwa": 2751,
      "Ġeach": 2752,
      "mult": 2753,
      "ork": 2754,
      "ĠhW": 2755,
      "asm": 2756,
      "ytic": 2757,
      "axiom": 2758,
      "Poly": 2759,
      "Ġmon": 2760,
      "push": 2761,
      "ision": 2762,
      "ĠhÎ´": 2763,
      "95": 2764,
      "Inv": 2765,
      "sump": 2766,
      "jects": 2767,
      "Ġac": 2768,
      "pected": 2769,
      "No": 2770,
      "hu": 2771,
      "lp": 2772,
      "adrat": 2773,
      "proof": 2774,
      "94": 2775,
      "Ġhead": 2776,
      "none": 2777,
      "Ġlim": 2778,
      "Ġcond": 2779,
      "CS": 2780,
      "sumption": 2781,
      "presentation": 2782,
      "01": 2783,
      "Functor": 2784,
      "63": 2785,
      "edu": 2786,
      "ink": 2787,
      "ref": 2788,
      "hl": 2789,
      "fter": 2790,
      "Eval": 2791,
      "trivial": 2792,
      "Ġnode": 2793,
      "240": 2794,
      "orrection": 2795,
      "pha": 2796,
      "Inst": 2797,
      "ĠVal": 2798,
      "ret": 2799,
      "ifier": 2800,
      "adratic": 2801,
      "ux": 2802,
      "Ġcm": 2803,
      "utoff": 2804,
      "Chain": 2805,
      "xp": 2806,
      "Ġscalar": 2807,
      "Flat": 2808,
      "sk": 2809,
      "âĦĤ": 2810,
      "Ġ(Â·": 2811,
      "ake": 2812,
      "ream": 2813,
      "ĠhÏĥ": 2814,
      "Valid": 2815,
      "Basic": 2816,
      "yntax": 2817,
      "rum": 2818,
      "pectrum": 2819,
      "free": 2820,
      "ĠRing": 2821,
      "Ġps": 2822,
      "SA": 2823,
      "limit": 2824,
      "Readout": 2825,
      "alence": 2826,
      "getD": 2827,
      "Ġcor": 2828,
      "tribute": 2829,
      "Ġlength": 2830,
      "HighK": 2831,
      "Â²": 2832,
      "Rows": 2833,
      "erators": 2834,
      "ĠMeasurable": 2835,
      "390": 2836,
      "ĠhÏĪ": 2837,
      "Range": 2838,
      "Perm": 2839,
      "eventually": 2840,
      "find": 2841,
      "ior": 2842,
      "Ġinst": 2843,
      "Closure": 2844,
      "All": 2845,
      "ĠregOwn": 2846,
      "target": 2847,
      "Ġgeneral": 2848,
      "Ġscoped": 2849,
      "Mean": 2850,
      "62": 2851,
      "Tail": 2852,
      "Ġunit": 2853,
      "Vars": 2854,
      "level": 2855,
      "clusion": 2856,
      "Ġactual": 2857,
      "attern": 2858,
      "loop": 2859,
      "extract": 2860,
      "sb": 2861,
      "any": 2862,
      "idx": 2863,
      "dele": 2864,
      "dual": 2865,
      "Ġconvert": 2866,
      "theta": 2867,
      "Ġpc": 2868,
      "gy": 2869,
      "Ġfull": 2870,
      "Ġaut": 2871,
      "Ġ|>.": 2872,
      "chain": 2873,
      "¥¤": 2874,
      "112": 2875,
      "Empty": 2876,
      "Ġâ¥¤": 2877,
      "tected": 2878,
      "HighKPlatform": 2879,
      "Completion": 2880,
      "forget": 2881,
      "iss": 2882,
      "ankPaper": 2883,
      "oi": 2884,
      "update": 2885,
      "sep": 2886,
      "Ġcons": 2887,
      "uclideanSpace": 2888,
      "rowth": 2889,
      "carrier": 2890,
      "ĠFintype": 2891,
      "ee": 2892,
      "((": 2893,
      "Back": 2894,
      "lector": 2895,
      "ersion": 2896,
      "dependent": 2897,
      "ingular": 2898,
      "wne": 2899,
      "irc": 2900,
      "opf": 2901,
      "iteral": 2902,
      "init": 2903,
      "Ġ;": 2904,
      "Slot": 2905,
      "ared": 2906,
      "Density": 2907,
      "artbe": 2908,
      "NormedAddCommGroup": 2909,
      "Succ": 2910,
      "incipal": 2911,
      "contra": 2912,
      "TopologicalSpace": 2913,
      "ween": 2914,
      "etween": 2915,
      "Ġsuper": 2916,
      "xis": 2917,
      "Loop": 2918,
      "requ": 2919,
      "Ïĩ": 2920,
      "itional": 2921,
      "Ġrange": 2922,
      "\"(%": 2923,
      "ĠNprev": 2924,
      "xs": 2925,
      "abbrev": 2926,
      "97": 2927,
      "cur": 2928,
      "this": 2929,
      "Ġword": 2930,
      "Raw": 2931,
      "new": 2932,
      "87": 2933,
      "ĠLeanPool": 2934,
      "wards": 2935,
      "artbeats": 2936,
      "ĊĠĠĠĠĠĠĠĠĠĠĠĠĠĠĠĠĠĠĠĠĠĠĠĠĠĠĠ": 2937,
      "Upper": 2938,
      "go": 2939,
      "Ġprop": 2940,
      "ĠFinite": 2941,
      "Ġmeasure": 2942,
      "Req": 2943,
      "ds": 2944,
      "Ġconstant": 2945,
      "Ġlower": 2946,
      "ould": 2947,
      "fra": 2948,
      "apping": 2949,
      "Depth": 2950,
      "âĮ": 2951,
      "surjective": 2952,
      "ĠcongrArg": 2953,
      "plicit": 2954,
      "Head": 2955,
      "ĠhÏĨ": 2956,
      "icator": 2957,
      "Operator": 2958,
      "Min": 2959,
      "ĠFor": 2960,
      "Ġhst": 2961,
      "Ġclosed": 2962,
      "We": 2963,
      "Ġthrow": 2964,
      "Ġra": 2965,
      "last": 2966,
      "Ġcic": 2967,
      "Heartbeats": 2968,
      "ident": 2969,
      "ĠSubtype": 2970,
      "Ġtactic": 2971,
      "cmpt": 2972,
      "differentiable": 2973,
      "Ġtable": 2974,
      "andard": 2975,
      "rex": 2976,
      "ĠOr": 2977,
      "quotient": 2978,
      "achine": 2979,
      "Start": 2980,
      "Ob": 2981,
      "Ġsingle": 2982,
      "termin": 2983,
      "Factor": 2984,
      "Boundary": 2985,
      "Protocol": 2986,
      "coordinate": 2987,
      "Ġcoefficient": 2988,
      "Ġformula": 2989,
      "Semant": 2990,
      "deg": 2991,
      "Ġvector": 2992,
      "ĠPh": 2993,
      "truct": 2994,
      "thm": 2995,
      "Ġsucc": 2996,
      "And": 2997,
      "aussian": 2998,
      "ĠInter": 2999,
      "51": 3000,
      ")âĢĸ": 3001,
      "usp": 3002,
      "Ġâģ": 3003,
      "ĠPi": 3004,
      "nonempty": 3005,
      "Cm": 3006,
      "variables": 3007,
      "equence": 3008,
      "uniform": 3009,
      "}\"": 3010,
      "02": 3011,
      "ĠComm": 3012,
      "Ġthere": 3013,
      "Ġrad": 3014,
      "cope": 3015,
      "toValuationSubring": 3016,
      "ayload": 3017,
      "ertex": 3018,
      "Î¦": 3019,
      "ĠDiff": 3020,
      "Interval": 3021,
      "ency": 3022,
      "ĠhE": 3023,
      "utation": 3024,
      "contains": 3025,
      "//": 3026,
      "icmp": 3027,
      "Impl": 3028,
      "CL": 3029,
      "otone": 3030,
      "Ġsecond": 3031,
      "basis": 3032,
      "Target": 3033,
      "lowup": 3034,
      "action": 3035,
      "irection": 3036,
      "Ġargument": 3037,
      "ĠTop": 3038,
      "ĠLe": 3039,
      "Ġcanonical": 3040,
      "entral": 3041,
      ".)": 3042,
      "pothe": 3043,
      "Ġloop": 3044,
      "Output": 3045,
      "Stage": 3046,
      "path": 3047,
      "ĠTauCeti": 3048,
      "atTop": 3049,
      "pon": 3050,
      "mark": 3051,
      "Ġ24": 3052,
      ")`.": 3053,
      "Abs": 3054,
      "gest": 3055,
      "Î·": 3056,
      "Plane": 3057,
      "Bounded": 3058,
      "Ġint": 3059,
      "Regular": 3060,
      "Ġ##": 3061,
      "phase": 3062,
      "Metric": 3063,
      "Blowup": 3064,
      "proj": 3065,
      "extend": 3066,
      "integrable": 3067,
      "Ġrequ": 3068,
      "omin": 3069,
      "Actual": 3070,
      "Iter": 3071,
      "100": 3072,
      "Ass": 3073,
      "andid": 3074,
      "coding": 3075,
      "Ġhle": 3076,
      "Config": 3077,
      "gener": 3078,
      "wral": 3079,
      "upwards": 3080,
      "ctx": 3081,
      "shr": 3082,
      "_{": 3083,
      "hS": 3084,
      "Ġvolume": 3085,
      "ĠTendsto": 3086,
      "ĠhH": 3087,
      "pc": 3088,
      "Ġpublic": 3089,
      "Ġsuff": 3090,
      "Ġshift": 3091,
      "ĠmaxHeartbeats": 3092,
      "Ġinterval": 3093,
      "Sq": 3094,
      "RingHom": 3095,
      "ĠatTop": 3096,
      "Derivative": 3097,
      "over": 3098,
      "ĠhTab": 3099,
      "Limit": 3100,
      "ĠÎĶ": 3101,
      "Ġcfl": 3102,
      "Ġ?_)": 3103,
      "Prog": 3104,
      "oid": 3105,
      "Uniform": 3106,
      "cun": 3107,
      "Ġnil": 3108,
      "ðĿķľ": 3109,
      "Edge": 3110,
      "Ident": 3111,
      "Ġthan": 3112,
      "âĪĢ": 3113,
      "Ġ13": 3114,
      "Ġrel": 3115,
      "Char": 3116,
      "orch": 3117,
      "mediate": 3118,
      "160": 3119,
      "Ġdefault": 3120,
      "idual": 3121,
      "native": 3122,
      "used": 3123,
      "phere": 3124,
      "box": 3125,
      "85": 3126,
      "ĠTensor": 3127,
      "LocalRing": 3128,
      "initial": 3129,
      "Ġdoes": 3130,
      "Ġexactly": 3131,
      "drop": 3132,
      "hP": 3133,
      "Ġargs": 3134,
      "gauge": 3135,
      "ertificate": 3136,
      "ĠSignal": 3137,
      "ched": 3138,
      "Mass": 3139,
      "uple": 3140,
      "patch": 3141,
      "Ġinitial": 3142,
      "otential": 3143,
      "ĠLo": 3144,
      "Ġpr": 3145,
      "loor": 3146,
      "angular": 3147,
      "Ġvalues": 3148,
      "ning": 3149,
      "ĊĠĠĠĠĠĠĠĠĠĠĠĠĠĠĠĠĠĠĠĠĠĠĠĠĠĠĠĠĠ": 3150,
      "sert": 3151,
      "DE": 3152,
      "Ġmatrix": 3153,
      "lected": 3154,
      "First": 3155,
      "Ġimage": 3156,
      "Ġbut": 3157,
      "Ġiterated": 3158,
      "Ġprime": 3159,
      "Ġbot": 3160,
      "hw": 3161,
      "SMul": 3162,
      "ump": 3163,
      "sample": 3164,
      "mbol": 3165,
      "Monad": 3166,
      "body": 3167,
      "table": 3168,
      "closedBall": 3169,
      "implies": 3170,
      "lor": 3171,
      "ron": 3172,
      "Ġsq": 3173,
      "').": 3174,
      "Str": 3175,
      "Rank": 3176,
      "Small": 3177,
      "bolev": 3178,
      "math": 3179,
      "áµ¢": 3180,
      "roben": 3181,
      "robenius": 3182,
      "ĠActual": 3183,
      "equation": 3184,
      ")]],": 3185,
      "arch": 3186,
      "Euler": 3187,
      "bda": 3188,
      "amp": 3189,
      "ken": 3190,
      "Formula": 3191,
      "isf": 3192,
      "Nonempty": 3193,
      "hv": 3194,
      "Ġopen": 3195,
      "Ġ_âŁ©": 3196,
      "nu": 3197,
      "radient": 3198,
      "aved": 3199,
      "Ġnumber": 3200,
      "rox": 3201,
      "plus": 3202,
      "variance": 3203,
      "ale": 3204,
      "Seq": 3205,
      "ĠState": 3206,
      "atisf": 3207,
      "ongly": 3208,
      "Args": 3209,
      "ube": 3210,
      "Ġgiven": 3211,
      "Ġfact": 3212,
      "LT": 3213,
      "UInt": 3214,
      "hF": 3215,
      "hk": 3216,
      "Ġ({": 3217,
      "residue": 3218,
      "Proofs": 3219,
      "ðĿĴ": 3220,
      "Ġâ§": 3221,
      "âķĲâķĲâķĲâķĲ": 3222,
      "Mk": 3223,
      "Ġupper": 3224,
      "Cor": 3225,
      "toReal": 3226,
      "ĠTerm": 3227,
      "vec": 3228,
      "Rational": 3229,
      "Ġtendsto": 3230,
      "Ġ(âĨĳ": 3231,
      "://": 3232,
      "FDeriv": 3233,
      "Ġderivative": 3234,
      "Ġâ§¸": 3235,
      "Ġ(âŁ¨": 3236,
      "hyp": 3237,
      "sorry": 3238,
      "hq": 3239,
      "sg": 3240,
      "93": 3241,
      "hT": 3242,
      "Ġgoal": 3243,
      "Ġboth": 3244,
      "Pr": 3245,
      "`)": 3246,
      "isors": 3247,
      "Divisor": 3248,
      "Ġcategory": 3249,
      "Redu": 3250,
      "gcd": 3251,
      "Ġ---": 3252,
      "omit": 3253,
      "dec": 3254,
      "ĠâĪª": 3255,
      "msgs": 3256,
      "cell": 3257,
      "ĠName": 3258,
      "Byte": 3259,
      "ĠPiece": 3260,
      "red": 3261,
      "Rep": 3262,
      "03": 3263,
      "Ġfields": 3264,
      "take": 3265,
      "ðĿĶ": 3266,
      "ries": 3267,
      "ren": 3268,
      "Names": 3269,
      "ĠĠĠĠĠĠĠĠĠĠĠĠĠĠĠĠĠĠĠĠĠĠĠĠĠĠĠĠĠĠĠĠĠĠĠĠĠĠĠĠĠĠĠĠĠĠĠĠĠĠĠĠĠĠĠĠĠĠĠĠĠĠĠĠĠĠĠĠĠĠĠĠĠĠĠĠĠĠĠĠĠĠĠĠĠĠĠĠĠĠĠĠĠĠĠĠĠĠĠĠĠĠĠĠĠĠĠĠĠĠĠĠĠĠĠĠĠĠĠĠĠĠĠĠĠĠĠĠ": 3270,
      "Full": 3271,
      "alytic": 3272,
      "Ġdegree": 3273,
      "Lawful": 3274,
      "ĠhÎ²": 3275,
      "ĠhaveI": 3276,
      "tps": 3277,
      "tocolData": 3278,
      "05": 3279,
      "induction": 3280,
      "ĠâĨĴ+": 3281,
      "clude": 3282,
      "ĠhV": 3283,
      "Addr": 3284,
      "partial": 3285,
      "Ġchain": 3286,
      "itude": 3287,
      "Ġcomple": 3288,
      "fty": 3289,
      "115": 3290,
      "Ġscratch": 3291,
      "ĠâŁ¨(": 3292,
      "linder": 3293,
      ")^": 3294,
      "Ġthrough": 3295,
      "Ġquotient": 3296,
      "82": 3297,
      "Contract": 3298,
      "Topology": 3299,
      "bove": 3300,
      "06": 3301,
      "LLVM": 3302,
      "NormedSpace": 3303,
      "graph": 3304,
      "IN": 3305,
      "FunctionField": 3306,
      "Ġ''": 3307,
      "Ioc": 3308,
      "ĠDiv": 3309,
      "late": 3310,
      "Ġpoints": 3311,
      "phi": 3312,
      "ĠContinuousOn": 3313,
      "adjoin": 3314,
      "hz": 3315,
      "reduce": 3316,
      "Ġtrace": 3317,
      "Ġcuts": 3318,
      "rime": 3319,
      "Embedding": 3320,
      "Ġvariable": 3321,
      "thog": 3322,
      "ĠĠĠĠĠĠ": 3323,
      "Signed": 3324,
      "preimage": 3325,
      "finset": 3326,
      "xor": 3327,
      "positive": 3328,
      "Ġcmp": 3329,
      "thogonal": 3330,
      "Ġentry": 3331,
      "Ġsrc": 3332,
      "habited": 3333,
      "domain": 3334,
      "py": 3335,
      "Ġden": 3336,
      "If": 3337,
      "Dual": 3338,
      "Ġ<<": 3339,
      "atial": 3340,
      "first": 3341,
      "CV": 3342,
      "Ġbetween": 3343,
      "start": 3344,
      "Ġro": 3345,
      "Ġ//": 3346,
      "Ico": 3347,
      "Ġbltu": 3348,
      "Ġbs": 3349,
      "Ġother": 3350,
      "stage": 3351,
      "radial": 3352,
      "radius": 3353,
      "orted": 3354,
      "Ġpolynomial": 3355,
      "ater": 3356,
      "Scheme": 3357,
      "protected": 3358,
      "mmetric": 3359,
      "83": 3360,
      "Bit": 3361,
      "raction": 3362,
      "ung": 3363,
      "Ġcuz": 3364,
      "Primary": 3365,
      "GuestAddrs": 3366,
      "Ġexec": 3367,
      "lection": 3368,
      "Radius": 3369,
      "Sur": 3370,
      "istory": 3371,
      "Ġfunctions": 3372,
      "protocolData": 3373,
      "center": 3374,
      "change": 3375,
      "erential": 3376,
      "key": 3377,
      "ductive": 3378,
      "Ġflat": 3379,
      "ĠSh": 3380,
      "Number": 3381,
      "Ġdelta": 3382,
      "ĠPieceCert": 3383,
      "same": 3384,
      "ĠDifferentiable": 3385,
      "ĠbytesRegion": 3386,
      "RO": 3387,
      "cone": 3388,
      "swap": 3389,
      "Ġsize": 3390,
      "Ġper": 3391,
      "Extension": 3392,
      "forward": 3393,
      "Ġ14": 3394,
      "agma": 3395,
      "Seed": 3396,
      "onoid": 3397,
      "omega": 3398,
      "Meta": 3399,
      "Ġbackward": 3400,
      "Ġ<<<": 3401,
      "natCast": 3402,
      "61": 3403,
      "gular": 3404,
      "compact": 3405,
      "Ġ#[âŁ¨": 3406,
      "Native": 3407,
      "hB": 3408,
      "Equation": 3409,
      "Ġ(âĪ«": 3410,
      "ZMod": 3411,
      "Ġstructure": 3412,
      "Ġmodel": 3413,
      "Ġsuch": 3414,
      "ĊĠĠĠĠĠĠĠĠĠĠĠĠĠĠĠĠĠĠĠĠĠĠĠĠĠĠĠĠĠĠĠ": 3415,
      "expose": 3416,
      "Ġtail": 3417,
      "ollow": 3418,
      "Ġneed": 3419,
      "Ġsem": 3420,
      "Ġret": 3421,
      "Ġuniform": 3422,
      "Ġcxr": 3423,
      "half": 3424,
      "::": 3425,
      "piece": 3426,
      "odd": 3427,
      "Ġ2026": 3428,
      "src": 3429,
      "cmp": 3430,
      "Query": 3431,
      "WF": 3432,
      "respon": 3433,
      "Periods": 3434,
      "ĊĠĠĠĠĠĠĠĠĠĠĠĠĠĠĠĠĠĠĠĠĠĠĠĠĠĠĠĠĠĠĠĠĠĠĠĠĠĠĠĠĠĠĠĠ": 3435,
      "volume": 3436,
      "ysis": 3437,
      "maximal": 3438,
      "pression": 3439,
      "Ġ..": 3440,
      "orphism": 3441,
      "ove": 3442,
      "DI": 3443,
      "ccess": 3444,
      "Ġhlt": 3445,
      "Ġorig": 3446,
      "ĠPoint": 3447,
      "ircu": 3448,
      "Ġer": 3449,
      "ĠhÏģ": 3450,
      "tw": 3451,
      "Label": 3452,
      "ĠWith": 3453,
      "Ġsv": 3454,
      "ois": 3455,
      "Ġpost": 3456,
      "Ioo": 3457,
      "ankPaperCanonical": 3458,
      "Spectrum": 3459,
      "Dimensional": 3460,
      "Ġslot": 3461,
      "Variable": 3462,
      "disjoint": 3463,
      "Combine": 3464,
      "Ġ_))": 3465,
      "ĠMeta": 3466,
      "]],": 3467,
      "Ġcom": 3468,
      "Offset": 3469,
      "ĠinferInstance": 3470,
      "ssage": 3471,
      "ĠEquiv": 3472,
      "rary": 3473,
      "ination": 3474,
      "vers": 3475,
      "Packet": 3476,
      "cf": 3477,
      "si": 3478,
      "Complete": 3479,
      "Internal": 3480,
      "pullback": 3481,
      "sP": 3482,
      "âŁ«": 3483,
      "Branch": 3484,
      "Ġevm": 3485,
      "Ġwceq": 3486,
      "Ġstatement": 3487,
      "Algebraic": 3488,
      "Sto": 3489,
      "coefficient": 3490,
      "ĠCompiler": 3491,
      "Trace": 3492,
      "Ġdefinition": 3493,
      "Primitive": 3494,
      "Ġbit": 3495,
      "verage": 3496,
      "]`": 3497,
      "trunc": 3498,
      "lit": 3499,
      "Cap": 3500,
      "Projects": 3501,
      "ĠhÏĩ": 3502,
      "Ġwbr": 3503,
      "metic": 3504,
      "physical": 3505,
      "Semiring": 3506,
      "subst": 3507,
      "ih": 3508,
      "omeomorph": 3509,
      "category": 3510,
      "mplitude": 3511,
      "ĠhI": 3512,
      "evm": 3513,
      "argin": 3514,
      "Face": 3515,
      "ĠPres": 3516,
      "Match": 3517,
      "distrib": 3518,
      "Ġâģ»": 3519,
      "struction": 3520,
      "Ġvalid": 3521,
      "equal": 3522,
      "ĠProd": 3523,
      "simps": 3524,
      "ĠIntegrable": 3525,
      "bounded": 3526,
      "Ġsubset": 3527,
      "prim": 3528,
      "InstCombine": 3529,
      "Ġcs": 3530,
      "fixed": 3531,
      "Ġhypothe": 3532,
      "uble": 3533,
      "attribute": 3534,
      "],[": 3535,
      "Param": 3536,
      "Ġhlog": 3537,
      "Ġfunctor": 3538,
      "sis": 3539,
      "Ġalso": 3540,
      "post": 3541,
      "Wave": 3542,
      "Ë£": 3543,
      "DivN": 3544,
      "168": 3545,
      "Height": 3546,
      "struct": 3547,
      "iew": 3548,
      "Ġoffset": 3549,
      "normalized": 3550,
      "GL": 3551,
      "Special": 3552,
      "Ġ-(": 3553,
      "til": 3554,
      "áµĲ": 3555,
      "emp": 3556,
      "ĠAlgebraic": 3557,
      "xc": 3558,
      "Semantics": 3559,
      "alysis": 3560,
      "Ġedge": 3561,
      "Dim": 3562,
      "Ġmu": 3563,
      "hR": 3564,
      "Mark": 3565,
      "match": 3566,
      "Lie": 3567,
      "ĠÎĺ": 3568,
      "plicate": 3569,
      "complex": 3570,
      "Ġconj": 3571,
      "ature": 3572,
      "Box": 3573,
      "Ġidx": 3574,
      "Phase": 3575,
      "Component": 3576,
      "AD": 3577,
      "\")": 3578,
      "Ġarr": 3579,
      "compl": 3580,
      "velocity": 3581,
      "rith": 3582,
      "bg": 3583,
      "function": 3584,
      "Ġcicc": 3585,
      "Test": 3586,
      "Ġphysical": 3587,
      "unique": 3588,
      "`).": 3589,
      "ÎĽ": 3590,
      "sume": 3591,
      "Ġstart": 3592,
      "07": 3593,
      "Ġbounded": 3594,
      "Bridge": 3595,
      "ighb": 3596,
      "hasDerivAt": 3597,
      "]!": 3598,
      "Ġrule": 3599,
      "Ġfollow": 3600,
      "Ġfamily": 3601,
      "sampleData": 3602,
      "emann": 3603,
      "valuation": 3604,
      "interval": 3605,
      "Points": 3606,
      "lap": 3607,
      "Ġerror": 3608,
      ")|": 3609,
      "lag": 3610,
      "âŁ©]âŁ©,": 3611,
      "andidate": 3612,
      "potent": 3613,
      "Ġcard": 3614,
      "ultiset": 3615,
      "ĠMeasureTheory": 3616,
      "Ġxperm": 3617,
      "Ġside": 3618,
      "udget": 3619,
      "ircuit": 3620,
      "Entry": 3621,
      "Like": 3622,
      "ĠCode": 3623,
      "Integrable": 3624,
      "Ġind": 3625,
      "vs": 3626,
      "less": 3627,
      "FF": 3628,
      "Band": 3629,
      "ibre": 3630,
      "Ġlabel": 3631,
      "ĠDivisor": 3632,
      "Ġfderiv": 3633,
      "ives": 3634,
      "ĠIoo": 3635,
      "test": 3636,
      "Element": 3637,
      "ĠAffine": 3638,
      "Ġcy": 3639,
      "ecause": 3640,
      "Pow": 3641,
      "Ġhij": 3642,
      "HighKPlatformAffine": 3643,
      "ScalarTower": 3644,
      "dom": 3645,
      "hN": 3646,
      "ĠðĿĵĺ": 3647,
      "Î©": 3648,
      "ĠClass": 3649,
      "764": 3650,
      "Ioi": 3651,
      "kes": 3652,
      "Be": 3653,
      "Along": 3654,
      "ĠLocal": 3655,
      "scalar": 3656,
      "Ġnative": 3657,
      "Hy": 3658,
      "Setup": 3659,
      "Ġ>>>": 3660,
      "istic": 3661,
      "oung": 3662,
      "Gamma": 3663,
      "avier": 3664,
      "Ġcomplex": 3665,
      "Hopf": 3666,
      "ĠEn": 3667,
      "atus": 3668,
      "New": 3669,
      "Circle": 3670,
      "kind": 3671,
      "teps": 3672,
      "Three": 3673,
      "isms": 3674,
      "blem": 3675,
      "Ġideal": 3676,
      "icular": 3677,
      "expr": 3678,
      "requency": 3679,
      "Ġws": 3680,
      "WithinAt": 3681,
      "Ġafter": 3682,
      "Localization": 3683,
      "ĠcontDiff": 3684,
      "Neg": 3685,
      "Ġmut": 3686,
      "natDegree": 3687,
      "âĢĸ)": 3688,
      "Â«": 3689,
      "ĠPar": 3690,
      "ptr": 3691,
      "otopy": 3692,
      "Ġconv": 3693,
      "ĠSy": 3694,
      "indicator": 3695,
      "ĠOracle": 3696,
      "Ġequation": 3697,
      "CheckPiece": 3698,
      "affine": 3699,
      "Inverse": 3700,
      "Inner": 3701,
      "antr": 3702,
      "Ġhsum": 3703,
      "igen": 3704,
      "afe": 3705,
      "Ġtensor": 3706,
      "Ġcvv": 3707,
      "eness": 3708,
      "ĠSpecial": 3709,
      "Fixed": 3710,
      "Ġauto": 3711,
      "ĠStd": 3712,
      "vi": 3713,
      "RecDepth": 3714,
      "Window": 3715,
      "Slow": 3716,
      "ccnv": 3717,
      "Ġcell": 3718,
      "Ġexpr": 3719,
      "Ġframe": 3720,
      "tactic": 3721,
      "TM": 3722,
      "ired": 3723,
      "ĠÎºc": 3724,
      "Ġfail": 3725,
      "getElem": 3726,
      "hX": 3727,
      "gene": 3728,
      ")âŁ©": 3729,
      "120": 3730,
      "ick": 3731,
      "Ġinverse": 3732,
      "ĠSum": 3733,
      "Ġdirect": 3734,
      "File": 3735,
      "wit": 3736,
      "Ġhere": 3737,
      "erand": 3738,
      "Ġimpl": 3739,
      "Bot": 3740,
      "Cutoff": 3741,
      "BE": 3742,
      "skip": 3743,
      "144": 3744,
      "Ġbyte": 3745,
      "ŁĻ": 3746,
      "Run": 3747,
      "ultiplicative": 3748,
      "Ġinteg": 3749,
      "matrix": 3750,
      "Ġbind": 3751,
      "factorial": 3752,
      "Lattice": 3753,
      "land": 3754,
      "Control": 3755,
      "Ġ[]âŁ©]âŁ©,": 3756,
      "BEq": 3757,
      "tensor": 3758,
      "ĊĠĠĠĠĠĠĠĠĠĠĠĠĠĠĠĠĠĠĠĠĠĠĠĠĠĠĠĠĠĠĠĠĠ": 3759,
      "Ġell": 3760,
      "bv": 3761,
      "ersal": 3762,
      "FDerivAt": 3763,
      "Ġver": 3764,
      "Ġdom": 3765,
      "Pressure": 3766,
      "376": 3767,
      "parameter": 3768,
      "bench": 3769,
      "isy": 3770,
      "Stokes": 3771,
      "Ġreplace": 3772,
      "replicate": 3773,
      "Ġidentity": 3774,
      "ities": 3775,
      "ĠmaxRecDepth": 3776,
      "Ġdeclar": 3777,
      "Ġrhs": 3778,
      "Ġnatural": 3779,
      "flow": 3780,
      "Probability": 3781,
      "Ġgo": 3782,
      "Ġtree": 3783,
      "weak": 3784,
      "Ġ28": 3785,
      "Conv": 3786,
      "Width": 3787,
      "Ġcfv": 3788,
      "maining": 3789,
      "DerivWithinAt": 3790,
      "Ġhpos": 3791,
      "Ġequivalence": 3792,
      "avierStokes": 3793,
      "Ġlevel": 3794,
      "hK": 3795,
      "rab": 3796,
      "Imp": 3797,
      "Injective": 3798,
      "ĠHasDerivAt": 3799,
      "tained": 3800,
      "Rv": 3801,
      "isOpen": 3802,
      "do": 3803,
      "way": 3804,
      "omorphic": 3805,
      "inverse": 3806,
      "comple": 3807,
      "Ġempty": 3808,
      "Ġtrivial": 3809,
      "Ġ39": 3810,
      "functor": 3811,
      "Storage": 3812,
      "Ġwhose": 3813,
      "Filter": 3814,
      "xiN": 3815,
      "Cond": 3816,
      "Ġ###": 3817,
      "ĠMvPolynomial": 3818,
      "Ġ15": 3819,
      "Ġline": 3820,
      "]]": 3821,
      "Tilt": 3822,
      "ĠLLVM": 3823,
      "Binary": 3824,
      "Obj": 3825,
      "geneous": 3826,
      "ined": 3827,
      "ĠpCheckPiece": 3828,
      "multi": 3829,
      "âĪŀ)": 3830,
      "Î¾": 3831,
      "ContinuousLinearMap": 3832,
      "store": 3833,
      "Scales": 3834,
      "Ġ19": 3835,
      "rows": 3836,
      "âĤĬ": 3837,
      "orsion": 3838,
      "Ġextract": 3839,
      "Ġsigma": 3840,
      "syn": 3841,
      "achable": 3842,
      "ĠSem": 3843,
      "Ġdb": 3844,
      "Ġclosure": 3845,
      "ĠCategory": 3846,
      "ĠId": 3847,
      "hL": 3848,
      "Ġ)": 3849,
      "ormal": 3850,
      "Ġassert": 3851,
      "ĠâĮ": 3852,
      "mbient": 3853,
      "Ġ18": 3854,
      "ĠâĬĳ": 3855,
      "Ġsquare": 3856,
      "NF": 3857,
      "ating": 3858,
      "Ġparent": 3859,
      "Ġtheir": 3860,
      "ures": 3861,
      "================================": 3862,
      "les": 3863,
      "asses": 3864,
      "Ġrho": 3865,
      "Ġcbs": 3866,
      "aren": 3867,
      "Ġhsub": 3868,
      "cdif": 3869,
      "Projection": 3870,
      "cima": 3871,
      "erse": 3872,
      "Lam": 3873,
      "ading": 3874,
      "ped": 3875,
      "ĊĠĠĠĠĠĠĠĠĠĠĠĠĠĠĠĠĠĠĠĠĠĠĠĠĠĠĠĠĠĠĠĠĠĠĠĠĠĠĠĠĠĠĠĠĠĠĠĠĠĠĠĠ": 3876,
      "Ġ]": 3877,
      "ĠMon": 3878,
      "ĠIsOpen": 3879,
      "morph": 3880,
      "emma": 3881,
      "Ġextend": 3882,
      "CVP": 3883,
      "Ġfactor": 3884,
      "Omega": 3885,
      "iled": 3886,
      "Ġaffine": 3887,
      "Ġcommut": 3888,
      "Codegen": 3889,
      "surd": 3890,
      "ctive": 3891,
      "ting": 3892,
      "752": 3893,
      "apCVP": 3894,
      "comb": 3895,
      "assert": 3896,
      "DefEq": 3897,
      "small": 3898,
      "copy": 3899,
      "ca": 3900,
      "hU": 3901,
      "Ġ...": 3902,
      "apt": 3903,
      "pend": 3904,
      "Ġ100": 3905,
      "obolev": 3906,
      "Bits": 3907,
      "cin": 3908,
      "'âŁ©": 3909,
      "Ġrelation": 3910,
      "continuousOn": 3911,
      "cxp": 3912,
      "elocity": 3913,
      "Ġchash": 3914,
      "Ġts": 3915,
      "antisy": 3916,
      "âĤĻ": 3917,
      "iterPartial": 3918,
      "Ġsubgroup": 3919,
      "184": 3920,
      "Ġstar": 3921,
      "reverse": 3922,
      "Positive": 3923,
      "ories": 3924,
      "model": 3925,
      "uted": 3926,
      "ilon": 3927,
      "âĤľ": 3928,
      "Some": 3929,
      "Atom": 3930,
      "System": 3931,
      "delta": 3932,
      "Den": 3933,
      "Theta": 3934,
      "olds": 3935,
      "$.": 3936,
      "uff": 3937,
      "attr": 3938,
      "ued": 3939,
      "ĠRat": 3940,
      "ourier": 3941,
      "âĤĽ": 3942,
      ".**": 3943,
      "Potential": 3944,
      "sine": 3945,
      "368": 3946,
      "Cost": 3947,
      "Ġtx": 3948,
      "Ġ17": 3949,
      "ĠâĭĻ": 3950,
      "áµĴ": 3951,
      "caled": 3952,
      "ML": 3953,
      "ĠâŁª": 3954,
      "canonical": 3955,
      "ĠÎ¶": 3956,
      "exec": 3957,
      "ption": 3958,
      "unter": 3959,
      "320": 3960,
      "orchLean": 3961,
      "áµ¥": 3962,
      "Ġpartial": 3963,
      "Ġ-âŁ©": 3964,
      "Ġshape": 3965,
      "Ġassumption": 3966,
      "Ġabsurd": 3967,
      "OD": 3968,
      "emb": 3969,
      "Î½": 3970,
      "Ġgcongr": 3971,
      "Ġir": 3972,
      "Ġbasis": 3973,
      "Ġge": 3974,
      "bool": 3975,
      "Ġcorrespon": 3976,
      "angu": 3977,
      "Ġdv": 3978,
      "anguage": 3979,
      "jor": 3980,
      "Ġbecause": 3981,
      "come": 3982,
      "ĠMain": 3983,
      "Ġbi": 3984,
      "Ver": 3985,
      "Ġseed": 3986,
      "rho": 3987,
      "Coord": 3988,
      "foldl": 3989,
      "Ġspecial": 3990,
      "points": 3991,
      "ĠExcept": 3992,
      "Layer": 3993,
      "Ġwa": 3994,
      "sv": 3995,
      "Character": 3996,
      "tor": 3997,
      "Col": 3998,
      "Analysis": 3999,
      "elper": 4000,
      "Up": 4001,
      "evalAt": 4002,
      "uar": 4003,
      "byte": 4004,
      "ierstra": 4005,
      "ĠâĬĹ[": 4006,
      "ierstrass": 4007,
      "ĠHe": 4008,
      "ĠTrue": 4009,
      "ĠhY": 4010,
      "orld": 4011,
      "Ġbelow": 4012,
      "erc": 4013,
      "decl": 4014,
      "PowerSeries": 4015,
      "Ġexplicit": 4016,
      "mean": 4017,
      "áµĴáµ": 4018,
      "Ġcharacter": 4019,
      "fiber": 4020,
      "parable": 4021,
      "Moment": 4022,
      "Ġexpected": 4023,
      "rossing": 4024,
      "Lit": 4025,
      "ĠFinsupp": 4026,
      "cdm": 4027,
      "Ġinfo": 4028,
      "Ġcontains": 4029,
      "wb": 4030,
      "ccur": 4031,
      "Ġpaper": 4032,
      "Ġ[âĪĢ": 4033,
      "ĠâĨ¥(": 4034,
      "antisymm": 4035,
      "Codes": 4036,
      "three": 4037,
      "Simplex": 4038,
      "ĠâĬ¥": 4039,
      "Pullback": 4040,
      "ically": 4041,
      "Ġ![": 4042,
      "Ġcprime": 4043,
      "ĠSpecialPeriods": 4044,
      "ĠBy": 4045,
      "Ġalong": 4046,
      "desc": 4047,
      "Carrier": 4048,
      "ored": 4049,
      "ðĿĵŀ": 4050,
      "wap": 4051,
      "117": 4052,
      "castSucc": 4053,
      "bers": 4054,
      "Ġcertificate": 4055,
      "AlgHom": 4056,
      "Ġexponent": 4057,
      "ln": 4058,
      "Ġmachine": 4059,
      "Elab": 4060,
      "ĠCr": 4061,
      "encode": 4062,
      "Ġreference": 4063,
      "https": 4064,
      "Ġdomain": 4065,
      "200": 4066,
      "MW": 4067,
      "traction": 4068,
      "Ġglobal": 4069,
      "ĠTrans": 4070,
      "á¶ľ": 4071,
      "Ġrepresent": 4072,
      "hole": 4073,
      "cod": 4074,
      "total": 4075,
      "Vertex": 4076,
      "wer": 4077,
      "Magma": 4078,
      "oci": 4079,
      "OT": 4080,
      "Ġrf": 4081,
      "Geom": 4082,
      "Ġcompact": 4083,
      "ĠClassical": 4084,
      "slow": 4085,
      "Cop": 4086,
      "Ġcre": 4087,
      "ended": 4088,
      "Simple": 4089,
      "Ġfinset": 4090,
      "Stack": 4091,
      "'))": 4092,
      "Harmonic": 4093,
      "power": 4094,
      "ĠhÎ³": 4095,
      "onglyMeasurable": 4096,
      "136": 4097,
      "Kind": 4098,
      "Ġstack": 4099,
      "Ġfour": 4100,
      "mainder": 4101,
      "Ctx": 4102,
      "alg": 4103,
      "104": 4104,
      "kele": 4105,
      "ĠtoFun": 4106,
      "tributors": 4107,
      "keleton": 4108,
      "pred": 4109,
      "cneg": 4110,
      "Ġvs": 4111,
      "hD": 4112,
      "IO": 4113,
      "AL": 4114,
      "ov": 4115,
      "ception": 4116,
      "uration": 4117,
      "648": 4118,
      "IT": 4119,
      "Ġstrict": 4120,
      "aris": 4121,
      "string": 4122,
      "injEq": 4123,
      "Ġstore": 4124,
      "ĠâĨĴ+*": 4125,
      "imit": 4126,
      "512": 4127,
      "Ġversion": 4128,
      "Ġsmooth": 4129,
      "toLinearMap": 4130,
      "ĠSubgroup": 4131,
      "ĠhÎ·": 4132,
      "cycle": 4133,
      "gauss": 4134,
      "ResidueField": 4135,
      "ĠSimp": 4136,
      "Ġ$\\": 4137,
      ":\\": 4138,
      "Ġinsert": 4139,
      "Wr": 4140,
      "ĠâĢĸ(": 4141,
      ":=": 4142,
      "Next": 4143,
      "ĠOrd": 4144,
      "Ġla": 4145,
      "âĶĢâĶĢâĶĢâĶĢâĶĢâĶĢâĶĢâĶĢ": 4146,
      "licit": 4147,
      "weighted": 4148,
      "ĠhJ": 4149,
      "pressure": 4150,
      "ĠAlgebraicGeometry": 4151,
      "slot": 4152,
      "ĊĠĠĠĠĠĠĠĠĠĠĠĠĠĠĠĠĠĠĠĠĠĠĠĠĠĠĠĠĠĠĠĠĠĠĠ": 4153,
      "ĠletI": 4154,
      "ĠhÎ±": 4155,
      "Ġgraph": 4156,
      "âĦ¤": 4157,
      "Ġstandard": 4158,
      "230": 4159,
      "Ġbranch": 4160,
      "Cache": 4161,
      "chw": 4162,
      "pack": 4163,
      "ĠGapCVP": 4164,
      "contDiffOn": 4165,
      "ental": 4166,
      "Square": 4167,
      "SL": 4168,
      "zeta": 4169,
      "Ġresults": 4170,
      "Ġiter": 4171,
      "Ġaction": 4172,
      "transport": 4173,
      "boundary": 4174,
      "stageSetup": 4175,
      "family": 4176,
      "ĠAt": 4177,
      "Initial": 4178,
      "Ġsequence": 4179,
      "ĠâĪı": 4180,
      "unused": 4181,
      "Ġstr": 4182,
      "Oracle": 4183,
      "192": 4184,
      "addr": 4185,
      "Ġmay": 4186,
      "nergy": 4187,
      "Ġwcel": 4188,
      "Subtype": 4189,
      "Homeomorph": 4190,
      "iemann": 4191,
      "328": 4192,
      "ister": 4193,
      "âĬ": 4194,
      "bytes": 4195,
      "ãĥ": 4196,
      "erge": 4197,
      "property": 4198,
      "Ġtotal": 4199,
      "`;": 4200,
      "ips": 4201,
      "Exact": 4202,
      "bitrary": 4203,
      "otField": 4204,
      "jet": 4205,
      "miss": 4206,
      "wp": 4207,
      "hG": 4208,
      "Ġcurrent": 4209,
      "ler": 4210,
      "vable": 4211,
      "benchmark": 4212,
      "iptic": 4213,
      "Ġup": 4214,
      "anif": 4215,
      "composition": 4216,
      "MonoidHom": 4217,
      "Ġâīħ": 4218,
      "Ġfuel": 4219,
      "ĠÂ·)": 4220,
      "orrect": 4221,
      "case": 4222,
      "ĠEnv": 4223,
      "Ġ[.": 4224,
      "fn": 4225,
      "Ġhxy": 4226,
      "four": 4227,
      "mask": 4228,
      "(-": 4229,
      "Ġpack": 4230,
      "oussine": 4231,
      "oussinesq": 4232,
      "prog": 4233,
      "Ġfree": 4234,
      "Enve": 4235,
      "signed": 4236,
      "Energy": 4237,
      "polynomial": 4238,
      "amental": 4239,
      "MDiff": 4240,
      "Ġbeta": 4241,
      "cnorm": 4242,
      "Ġstmt": 4243,
      "homology": 4244,
      "Lt": 4245,
      "Ġrefl": 4246,
      "Infty": 4247,
      "288": 4248,
      "ilinearAut": 4249,
      "Ġprove": 4250,
      "Ġperm": 4251,
      "mediateField": 4252,
      "igest": 4253,
      "71": 4254,
      "Ġsin": 4255,
      "ĠStr": 4256,
      "Ġcd": 4257,
      "Ġpreserves": 4258,
      "oussinesqBlowup": 4259,
      "Triangle": 4260,
      "Ġelements": 4261,
      "384": 4262,
      "560": 4263,
      "Section": 4264,
      "Cr": 4265,
      "Ind": 4266,
      "ects": 4267,
      "Ġdefine": 4268,
      "entry": 4269,
      "Parameter": 4270,
      "erical": 4271,
      "alias": 4272,
      "ĠsK": 4273,
      "akes": 4274,
      "tegr": 4275,
      "ĠStmt": 4276,
      "Ġcpnf": 4277,
      "ĠField": 4278,
      "Correction": 4279,
      "Axis": 4280,
      "acc": 4281,
      "cket": 4282,
      "Ġprim": 4283,
      "wi": 4284,
      "Ġem": 4285,
      "Std": 4286,
      "Line": 4287,
      "cn": 4288,
      "Ġcomponent": 4289,
      "CLM": 4290,
      "Ġptr": 4291,
      "aco": 4292,
      "Ġ~": 4293,
      "ĠContinuousLinearMap": 4294,
      "Ġfn": 4295,
      "568": 4296,
      "Ġsatisf": 4297,
      "esop": 4298,
      "clic": 4299,
      "ready": 4300,
      "^{": 4301,
      "morphic": 4302,
      "TC": 4303,
      "ĠAss": 4304,
      "ometric": 4305,
      "adj": 4306,
      "adjoint": 4307,
      "ces": 4308,
      "Structure": 4309,
      "alent": 4310,
      "Ġ_),": 4311,
      "terior": 4312,
      "ĠâĬĶ": 4313,
      "gamma": 4314,
      "use": 4315,
      "Ġabout": 4316,
      "âĤģâĤĤ": 4317,
      "reshold": 4318,
      "ĠNon": 4319,
      "TensorProduct": 4320,
      "cm": 4321,
      "fact": 4322,
      "band": 4323,
      "Ġke": 4324,
      "ĠMem": 4325,
      "âĪĳ": 4326,
      "wrex": 4327,
      "fullDivN": 4328,
      "inct": 4329,
      "Ġdec": 4330,
      "Ġexpression": 4331,
      "ogeneous": 4332,
      "ynam": 4333,
      "ĠPlane": 4334,
      "176": 4335,
      "default": 4336,
      "Finsupp": 4337,
      "ĠâĬĵ": 4338,
      "simple": 4339,
      "witch": 4340,
      "Ici": 4341,
      "doc": 4342,
      "grind": 4343,
      "erive": 4344,
      "prefix": 4345,
      "Ġite": 4346,
      "](": 4347,
      "Stream": 4348,
      "].": 4349,
      "ĠDec": 4350,
      "essage": 4351,
      "repr": 4352,
      "Ġsuffices": 4353,
      "LI": 4354,
      "Ġâĩ": 4355,
      "Gaussian": 4356,
      "iteratedFDeriv": 4357,
      "Distrib": 4358,
      "584": 4359,
      "output": 4360,
      "args": 4361,
      "Ġnormalized": 4362,
      "Generation": 4363,
      "Ġruntime": 4364,
      "Ġpi": 4365,
      "Fraction": 4366,
      "Fam": 4367,
      "Ġvia": 4368,
      "margin": 4369,
      "mmas": 4370,
      "ĠElab": 4371,
      "nown": 4372,
      "Ġfinal": 4373,
      "supported": 4374,
      "ĠâĪħ": 4375,
      "Ġmessage": 4376,
      "ĠFloat": 4377,
      "reachable": 4378,
      "Ġexample": 4379,
      "Ġys": 4380,
      "'}": 4381,
      "EuclideanSpace": 4382,
      "equational": 4383,
      "arison": 4384,
      "Ġmaps": 4385,
      "Ġwill": 4386,
      "Ġvz": 4387,
      "allback": 4388,
      "280": 4389,
      "Ġraw": 4390,
      "Ġshould": 4391,
      "Ġlhs": 4392,
      "Ġlaw": 4393,
      "Syntax": 4394,
      "ĠAd": 4395,
      "Let": 4396,
      "lhs": 4397,
      "mu": 4398,
      "paren": 4399,
      "egment": 4400,
      "fac": 4401,
      "Ġpullback": 4402,
      "offset": 4403,
      "include": 4404,
      "bert": 4405,
      "Lsb": 4406,
      "heq": 4407,
      "Ġalpha": 4408,
      "ĠÎµs": 4409,
      "âĦķ": 4410,
      "41": 4411,
      "exponent": 4412,
      "Ġsuperpose": 4413,
      "appa": 4414,
      "Rate": 4415,
      "ighbor": 4416,
      "values": 4417,
      "|)": 4418,
      "crip": 4419,
      "ĠSmooth": 4420,
      "ĠBoussinesqBlowup": 4421,
      "ground": 4422,
      "profile": 4423,
      "Ġthem": 4424,
      "OneSpectrum": 4425,
      "Ġlia": 4426,
      "ili": 4427,
      "]âŁ©": 4428,
      "TowerData": 4429,
      "annel": 4430,
      "Card": 4431,
      "oot": 4432,
      "399": 4433,
      "gence": 4434,
      "Velocity": 4435,
      "Congr": 4436,
      "Facts": 4437,
      "isEmpty": 4438,
      "ĠLift": 4439,
      "cres": 4440,
      "Ġfind": 4441,
      "Ġsets": 4442,
      "ĠðĿĵĿ": 4443,
      "fast": 4444,
      "Ġinputs": 4445,
      "bu": 4446,
      "Ġinit": 4447,
      "Ġ21": 4448,
      "ront": 4449,
      "ather": 4450,
      "Cylinder": 4451,
      "Big": 4452,
      "Property": 4453,
      "common": 4454,
      "Bdd": 4455,
      "150": 4456,
      "Ġ`[": 4457,
      "maximalIdeal": 4458,
      "coord": 4459,
      "igit": 4460,
      "sepConj": 4461,
      "Ġcopy": 4462,
      "Ab": 4463,
      "Adj": 4464,
      "Ġhzero": 4465,
      "SemilinearAut": 4466,
      "derivative": 4467,
      "640": 4468,
      "alois": 4469,
      "semb": 4470,
      "println": 4471,
      "544": 4472,
      "Coordinates": 4473,
      "gle": 4474,
      "ten": 4475,
      "nder": 4476,
      "._": 4477,
      "izing": 4478,
      "ĠRes": 4479,
      "!_": 4480,
      "Ġhand": 4481,
      "bug": 4482,
      "Ġcap": 4483,
      "Wh": 4484,
      "Ġsur": 4485,
      "Ġ30": 4486,
      "growth": 4487,
      "224": 4488,
      "Ġclog": 4489,
      "grad": 4490,
      "ertion": 4491,
      "Ġconfig": 4492,
      "perp": 4493,
      "triangle": 4494,
      "Ġbinary": 4495,
      "ĠDefin": 4496,
      "decode": 4497,
      "Cone": 4498,
      "379": 4499,
      "hW": 4500,
      "pectral": 4501,
      "Store": 4502,
      "hM": 4503,
      "manStart": 4504,
      "entation": 4505,
      "Ġthree": 4506,
      "anti": 4507,
      "Higher": 4508,
      "Ġord": 4509,
      "ĠLie": 4510,
      "CodeReq": 4511,
      "Ġrank": 4512,
      "Ġcore": 4513,
      "Chunk": 4514,
      "It": 4515,
      "ifs": 4516,
      "ided": 4517,
      "esh": 4518,
      "generated": 4519,
      "csu": 4520,
      "orel": 4521,
      "Strict": 4522,
      "cat": 4523,
      "second": 4524,
      "anifold": 4525,
      "ĠLicense": 4526,
      "shl": 4527,
      "ominator": 4528,
      "ilation": 4529,
      "olic": 4530,
      "theory": 4531,
      "Span": 4532,
      "OR": 4533,
      "lin": 4534,
      "Ġrequest": 4535,
      "Mat": 4536,
      "ilbert": 4537,
      "hÎµ": 4538,
      "olute": 4539,
      "complete": 4540,
      "Do": 4541,
      "ĊĠĠĠĠĠĠĠĠĠĠĠĠĠĠĠĠĠĠĠĠĠĠĠĠĠĠĠĠĠĠĠĠĠĠĠĠĠ": 4542,
      "fvar": 4543,
      "Â»}": 4544,
      "ĠTest": 4545,
      "Exponent": 4546,
      "adantr": 4547,
      "raded": 4548,
      "Ġwral": 4549,
      "aves": 4550,
      "chy": 4551,
      "208": 4552,
      "auchy": 4553,
      "Strip": 4554,
      "Ġ48": 4555,
      "sembly": 4556,
      "END": 4557,
      "aut": 4558,
      "Split": 4559,
      "lying": 4560,
      "¬Ŀ": 4561,
      "ĊĊĊ": 4562,
      "inline": 4563,
      "Ġmain": 4564,
      "scale": 4565,
      "Ġâ¨": 4566,
      "vth": 4567,
      "âŁ©).": 4568,
      "`/": 4569,
      "ĠTopology": 4570,
      "Ġinf": 4571,
      "Ġwork": 4572,
      "posite": 4573,
      "Ġcomplete": 4574,
      "Ġposition": 4575,
      "Ġrecur": 4576,
      "align": 4577,
      "Ġoriginal": 4578,
      "otive": 4579,
      "square": 4580,
      "Tag": 4581,
      "reference": 4582,
      "char": 4583,
      "Invariant": 4584,
      "mulate": 4585,
      "ĠNStar": 4586,
      "ĠTheorem": 4587,
      "Corner": 4588,
      "Ġcarrier": 4589,
      "Ġpred": 4590,
      "152": 4591,
      "info": 4592,
      "Ġhypothesis": 4593,
      "Ġself": 4594,
      "Ġmode": 4595,
      "Event": 4596,
      "ĠVector": 4597,
      "Ġmust": 4598,
      "Pic": 4599,
      "high": 4600,
      "Ġaxioms": 4601,
      "Cmp": 4602,
      "ãĢ": 4603,
      "Cycle": 4604,
      "diagonal": 4605,
      "Arity": 4606,
      "parency": 4607,
      "ProductSpace": 4608,
      "Ġdiagonal": 4609,
      "ideal": 4610,
      "Ġdefined": 4611,
      "Sigma": 4612,
      "olved": 4613,
      "anc": 4614,
      "Ġextension": 4615,
      "ĠâĨĴ*": 4616,
      "Ġcover": 4617,
      "Ġpower": 4618,
      "Integ": 4619,
      "504": 4620,
      "Ordered": 4621,
      "RatFunc": 4622,
      "Ġgenerated": 4623,
      "Ġexcess": 4624,
      "Sig": 4625,
      "âŁ«_": 4626,
      "Hat": 4627,
      "ithub": 4628,
      "Ġbefore": 4629,
      "Plus": 4630,
      "Ġtra": 4631,
      "ĠVer": 4632,
      "toFun": 4633,
      "Ġlemmas": 4634,
      "ĠIt": 4635,
      "sort": 4636,
      "Ġ56": 4637,
      "ĠFalse": 4638,
      "ither": 4639,
      "frobenius": 4640,
      "ĠNe": 4641,
      "Ġâ¬Ŀ": 4642,
      "Proj": 4643,
      "compile": 4644,
      "`),": 4645,
      "rim": 4646,
      "embed": 4647,
      "ENNReal": 4648,
      "rem": 4649,
      "Adjoint": 4650,
      "Operators": 4651,
      "Ġcontributors": 4652,
      "\\\"": 4653,
      "iagram": 4654,
      "Ġcolumn": 4655,
      "Ġtypes": 4656,
      "ĠDis": 4657,
      "natural": 4658,
      "MvPolynomial": 4659,
      "github": 4660,
      "oolean": 4661,
      "Phi": 4662,
      "Ġmultiplic": 4663,
      "nz": 4664,
      "Representation": 4665,
      "ĠGuestAddrs": 4666,
      "ternal": 4667,
      "Ġ3624": 4668,
      "Ġdimension": 4669,
      "IP": 4670,
      "Exec": 4671,
      "Ġ|(": 4672,
      "zpow": 4673,
      "IsLocalRing": 4674,
      "itz": 4675,
      "tsum": 4676,
      "Aflat": 4677,
      "gment": 4678,
      "Ġcar": 4679,
      "Ġcdv": 4680,
      "ĠEuclideanSpace": 4681,
      "shape": 4682,
      "ĠTower": 4683,
      "Push": 4684,
      "Ġcarry": 4685,
      "Witness": 4686,
      "Ġphase": 4687,
      "ĠpcFree": 4688,
      "180": 4689,
      "768": 4690,
      "Ġthey": 4691,
      "758": 4692,
      "Ġaux": 4693,
      "Arith": 4694,
      "))]": 4695,
      "Computable": 4696,
      "Ġdivisor": 4697,
      "dim": 4698,
      "Ġax": 4699,
      "Struct": 4700,
      "Cal": 4701,
      "Ġcorresponding": 4702,
      "ynamic": 4703,
      "subg": 4704,
      "Whole": 4705,
      "setvar": 4706,
      "Connected": 4707,
      "ĠâĬķ": 4708,
      "CompactSupport": 4709,
      "--------------------------------": 4710,
      "meas": 4711,
      "acity": 4712,
      "phole": 4713,
      "vars": 4714,
      "tributed": 4715,
      "Unary": 4716,
      "Des": 4717,
      "Carry": 4718,
      "Sheaf": 4719,
      "Ġintegrable": 4720,
      "'t": 4721,
      "hh": 4722,
      "Ġcontext": 4723,
      "100000": 4724,
      "Ġcop": 4725,
      "744": 4726,
      "Ġhlen": 4727,
      "Ġ(âĢĸ": 4728,
      "áµĴáµĸ": 4729,
      "getKey": 4730,
      "359": 4731,
      "cut": 4732,
      "lomorphic": 4733,
      "Ġhalf": 4734,
      "Ġcioo": 4735,
      "Ġxc": 4736,
      "LinearEquiv": 4737,
      "Ġrecord": 4738,
      "outer": 4739,
      "ĠâŁ¨-": 4740,
      "Theorem": 4741,
      "Ġwhat": 4742,
      "icate": 4743,
      "ĠdOm": 4744,
      "period": 4745,
      "roxim": 4746,
      "ook": 4747,
      "Ġav": 4748,
      "male": 4749,
      "Ġlimit": 4750,
      "ST": 4751,
      "sor": 4752,
      "varId": 4753,
      "tangent": 4754,
      "lose": 4755,
      "True": 4756,
      "Ġsmall": 4757,
      "crement": 4758,
      "condition": 4759,
      "Trial": 4760,
      "Ġ256": 4761,
      "Ġhin": 4762,
      "ping": 4763,
      "Dial": 4764,
      "ĠTau": 4765,
      "Ġguard": 4766,
      "ĠoutPtr": 4767,
      "mable": 4768,
      "ĠEvmYul": 4769,
      "pret": 4770,
      "ĠiteratedDerivWithin": 4771,
      "119": 4772,
      "Ġdepth": 4773,
      "coef": 4774,
      "Slots": 4775,
      "Mesh": 4776,
      "RationalFunctionField": 4777,
      "Contributed": 4778,
      "704": 4779,
      "ĠCore": 4780,
      "ĠCeti": 4781,
      "Ġchart": 4782,
      "big": 4783,
      "Ġhbound": 4784,
      "Ġouter": 4785,
      "?_,": 4786,
      "Ġprefix": 4787,
      "hes": 4788,
      "Center": 4789,
      "Ġalready": 4790,
      "aeval": 4791,
      "fintype": 4792,
      "ÎĶ": 4793,
      "Radial": 4794,
      "ayout": 4795,
      "cke": 4796,
      "Ġbegin": 4797,
      "Ġresolve": 4798,
      "rence": 4799,
      "Sec": 4800,
      "Ġdot": 4801,
      "ĠPos": 4802,
      "floor": 4803,
      "hash": 4804,
      "param": 4805,
      "LpNorm": 4806,
      "dekind": 4807,
      "158": 4808,
      "Ġmult": 4809,
      "varpi": 4810,
      "Signal": 4811,
      "rule": 4812,
      "erving": 4813,
      "Ġiff": 4814,
      "dvds": 4815,
      "oice": 4816,
      "tim": 4817,
      "Jets": 4818,
      "nonpos": 4819,
      "cuni": 4820,
      "respect": 4821,
      "ĠâĨĳ(": 4822,
      "Half": 4823,
      "Ġcast": 4824,
      "Ġthese": 4825,
      "peat": 4826,
      "Ġ1000000": 4827,
      "Ġforall": 4828,
      "thing": 4829,
      "ffect": 4830,
      "isker": 4831,
      "110": 4832,
      "ĠhZ": 4833,
      "}}": 4834,
      "ĠSource": 4835,
      "uarded": 4836,
      "Orig": 4837,
      "CurveOver": 4838,
      "rot": 4839,
      "params": 4840,
      "Discrete": 4841,
      "Ġown": 4842,
      "ipsch": 4843,
      "]?": 4844,
      "active": 4845,
      "dot": 4846,
      "Hand": 4847,
      "prec": 4848,
      "Tangent": 4849,
      "beta": 4850,
      "func": 4851,
      "ipschitz": 4852,
      "Ġ#[]": 4853,
      "cap": 4854,
      "Ġformal": 4855,
      "Ġij": 4856,
      "cor": 4857,
      "Ġ(âĬ": 4858,
      "ibility": 4859,
      "hj": 4860,
      "bounds": 4861,
      "Prev": 4862,
      "Defin": 4863,
      "Mapping": 4864,
      "seed": 4865,
      "140": 4866,
      "ĠuTop": 4867,
      "crn": 4868,
      "negative": 4869,
      "erties": 4870,
      "Ġbuild": 4871,
      "where": 4872,
      "undle": 4873,
      "andom": 4874,
      "stack": 4875,
      "Locally": 4876,
      "Ġeps": 4877,
      "ĠLemma": 4878,
      "Ġyou": 4879,
      "hÏĨ": 4880,
      "ĠPhysical": 4881,
      "ĠhÎº": 4882,
      "Ġwidth": 4883,
      "Ġsimple": 4884,
      "denote": 4885,
      "Ġgives": 4886,
      "Ġdisjoint": 4887,
      "Grid": 4888,
      "Ġelab": 4889,
      "ĠAffineCore": 4890,
      "505": 4891,
      "592": 4892,
      "ignment": 4893,
      "Ġparse": 4894,
      "aith": 4895,
      "ĠCodeReq": 4896,
      "Ġtrunc": 4897,
      "Ġnotation": 4898,
      "784": 4899,
      "rors": 4900,
      "Ġsd": 4901,
      "ulation": 4902,
      "ii": 4903,
      "conv": 4904,
      "116": 4905,
      "ĠhÎ¸": 4906,
      "HS": 4907,
      "Ġsepar": 4908,
      "`/`": 4909,
      "Ġld": 4910,
      "Zeta": 4911,
      "âŁ©âŁ©âŁ©âŁ©": 4912,
      "ĠTowerData": 4913,
      "child": 4914,
      "MLIR": 4915,
      "Ġmore": 4916,
      "Ġho": 4917,
      "notMem": 4918,
      "ĠSSA": 4919,
      "Auto": 4920,
      "Ġrather": 4921,
      "kle": 4922,
      "Ġexist": 4923,
      "ĠQuotient": 4924,
      "aithful": 4925,
      "Ok": 4926,
      ")`,": 4927,
      "304": 4928,
      "Ġconstruction": 4929,
      "partition": 4930,
      "scrip": 4931,
      "ellF": 4932,
      "008": 4933,
      "Five": 4934,
      "ĠStage": 4935,
      "she": 4936,
      "izes": 4937,
      "Get": 4938,
      "PM": 4939,
      "Ġ36240": 4940,
      "ĠRead": 4941,
      "Ġround": 4942,
      "cp": 4943,
      "rep": 4944,
      "ions": 4945,
      "Differential": 4946,
      "Ġnonempty": 4947,
      "abil": 4948,
      "ĠhÎ¼": 4949,
      "ĠLam": 4950,
      "Slice": 4951,
      "Ġliteral": 4952,
      "ĠhÏĢ": 4953,
      "Coefficients": 4954,
      "Ġreturns": 4955,
      "Independent": 4956,
      "isDefEq": 4957,
      "las": 4958,
      "stmt": 4959,
      "â¦": 4960,
      "ced": 4961,
      "ĠShape": 4962,
      "ĠByte": 4963,
      "725": 4964,
      "universe": 4965,
      "Ġ(@Â«": 4966,
      "âĤĨ": 4967,
      "Ġcfg": 4968,
      "inductive": 4969,
      "Tuple": 4970,
      "Ġmonoid": 4971,
      "lattice": 4972,
      "125": 4973,
      "Ġheader": 4974,
      "ĠâŁ¨?_,": 4975,
      "Ġwould": 4976,
      "Ġparams": 4977,
      "going": 4978,
      "ĠHash": 4979,
      "stim": 4980,
      "Principal": 4981,
      "zen": 4982,
      "payload": 4983,
      "Request": 4984,
      "Selector": 4985,
      "ĠEvmWord": 4986,
      "Ġball": 4987,
      "toArray": 4988,
      "ling": 4989,
      "Ġmoment": 4990,
      "tree": 4991,
      "189": 4992,
      "TwoMul": 4993,
      "hood": 4994,
      "sTo": 4995,
      "WholePaper": 4996,
      "Rule": 4997,
      "Ġtag": 4998,
      "ĠStep": 4999,
      "Float": 5000,
      "connected": 5001,
      "Leaf": 5002,
      "cedu": 5003,
      "roc": 5004,
      "Limits": 5005,
      "extracted": 5006,
      "Ġterms": 5007,
      "Ġextra": 5008,
      "Transparency": 5009,
      "ĠHom": 5010,
      "pee": 5011,
      "Ġprov": 5012,
      "Ġinteger": 5013,
      "CommRingCat": 5014,
      "ĠLeanMLIR": 5015,
      "Factors": 5016,
      "Ġinvariant": 5017,
      "360": 5018,
      "Ġ===": 5019,
      "alance": 5020,
      "Ġmsg": 5021,
      "safe": 5022,
      "ync": 5023,
      "Ġce": 5024,
      "Ġot": 5025,
      "Ġnonzero": 5026,
      "olar": 5027,
      "ĠNonempty": 5028,
      "Ġboundary": 5029,
      "HashMap": 5030,
      "Ġmorphism": 5031,
      "ĠScheme": 5032,
      "ordered": 5033,
      "prover": 5034,
      "rlp": 5035,
      "addle": 5036,
      "$,": 5037,
      "Away": 5038,
      "invariant": 5039,
      "Ġ[])": 5040,
      "113": 5041,
      "Modular": 5042,
      ")\\": 5043,
      "Dialects": 5044,
      "Ġcdvds": 5045,
      "Ġ(\"": 5046,
      "ĊĠĠĠĠĠĠĠĠĠĠĠĠĠĠĠĠĠĠĠĠĠĠĠĠĠĠĠĠĠĠĠĠĠĠĠĠĠĠĠ": 5047,
      "__": 5048,
      "Ġ(|": 5049,
      "anish": 5050,
      "Ġwrite": 5051,
      "odup": 5052,
      "icz": 5053,
      "differentiableAt": 5054,
      "'`": 5055,
      "Endpoint": 5056,
      "Ġwithout": 5057,
      "ĠPeriod": 5058,
      "stead": 5059,
      "Ġconst": 5060,
      "Ġdeclaration": 5061,
      "Steps": 5062,
      "ĠdpreB": 5063,
      "Switch": 5064,
      "storage": 5065,
      "eded": 5066,
      "oft": 5067,
      "Rest": 5068,
      "Ġ60": 5069,
      "preserves": 5070,
      "*(": 5071,
      "Ġstruct": 5072,
      "199": 5073,
      "Ġsolution": 5074,
      "Not": 5075,
      "sdiff": 5076,
      "Ġmost": 5077,
      "Ġoperator": 5078,
      "erior": 5079,
      "Ġmean": 5080,
      "Ġwitness": 5081,
      "Single": 5082,
      "0000000": 5083,
      "iUnion": 5084,
      "Ġhwf": 5085,
      "cif": 5086,
      "ĠEq": 5087,
      "Ġspan": 5088,
      "Ġdecode": 5089,
      "Flag": 5090,
      "Ġdefinitions": 5091,
      "rozen": 5092,
      "iet": 5093,
      "arrow": 5094,
      "imum": 5095,
      "Multi": 5096,
      "132": 5097,
      "344": 5098,
      "duces": 5099,
      "regular": 5100,
      "Ġmark": 5101,
      "Young": 5102,
      "Ġ54": 5103,
      "Backends": 5104,
      "runtime": 5105,
      "Ġdebug": 5106,
      "axial": 5107,
      "Loc": 5108,
      "Ġshort": 5109,
      "Ġcondition": 5110,
      "ĠðĿĶ¤": 5111,
      "Pure": 5112,
      "Values": 5113,
      "eth": 5114,
      "Ġms": 5115,
      "label": 5116,
      "iron": 5117,
      "Ġprojection": 5118,
      "Fuel": 5119,
      "igits": 5120,
      "Ġtransport": 5121,
      "Ġoption": 5122,
      "ĠTorchLean": 5123,
      "atom": 5124,
      "seud": 5125,
      "Last": 5126,
      "ĠYul": 5127,
      "ĠÎł": 5128,
      "MulAction": 5129,
      "mulateQ": 5130,
      "orrow": 5131,
      "Program": 5132,
      "pull": 5133,
      "tach": 5134,
      "Second": 5135,
      "Ġuses": 5136,
      "Statement": 5137,
      "artan": 5138,
      "Ġradial": 5139,
      "Ġ=]": 5140,
      "unop": 5141,
      "wicz": 5142,
      "artz": 5143,
      "csb": 5144,
      "Ġeven": 5145,
      "Ġ(âĪĥ": 5146,
      "irections": 5147,
      "Ġforward": 5148,
      "Ġangular": 5149,
      "chwartz": 5150,
      "Sample": 5151,
      "unreachable": 5152,
      "Minus": 5153,
      "Outer": 5154,
      "urewicz": 5155,
      "iation": 5156,
      "Sobolev": 5157,
      "cof": 5158,
      "Ġdst": 5159,
      "Ġhint": 5160,
      "FiniteDimensional": 5161,
      "Ġ80": 5162,
      "Ġfold": 5163,
      "req": 5164,
      "era": 5165,
      "ierstrassCurve": 5166,
      "Ġbu": 5167,
      "Ġabel": 5168,
      "ĠExt": 5169,
      "okup": 5170,
      "Ġstx": 5171,
      "lliptic": 5172,
      "760": 5173,
      "ĠMetricCodes": 5174,
      "ĠDifferentiableAt": 5175,
      "Above": 5176,
      "Ġadditive": 5177,
      "Ġhden": 5178,
      "ĠValue": 5179,
      "Ġgap": 5180,
      "iversal": 5181,
      "âķĲâķĲâķĲâķĲâķĲâķĲâķĲâķĲ": 5182,
      "missible": 5183,
      "Global": 5184,
      "NavierStokes": 5185,
      "atible": 5186,
      "Ġaga": 5187,
      "ĠMul": 5188,
      "âĮĭ": 5189,
      "cri": 5190,
      "Clause": 5191,
      "Ġunify": 5192,
      "Ġaesop": 5193,
      "Divisors": 5194,
      "clu": 5195,
      "Ġradius": 5196,
      "Sort": 5197,
      "Ġcache": 5198,
      "ĠTwo": 5199,
      "versary": 5200,
      "iSup": 5201,
      "Ġwindow": 5202,
      "Ġ23": 5203,
      "Ġ!=": 5204,
      "parent": 5205,
      "Del": 5206,
      "mid": 5207,
      "Total": 5208,
      "lue": 5209,
      "tmul": 5210,
      "ĠhÎĽ": 5211,
      "Ha": 5212,
      "IsScalarTower": 5213,
      "Ġ<=": 5214,
      "idend": 5215,
      "stantiate": 5216,
      "Joint": 5217,
      "component": 5218,
      "Ġabove": 5219,
      "780": 5220,
      "ĠOracleComp": 5221,
      "ĠDecidable": 5222,
      "peephole": 5223,
      "lie": 5224,
      "Ġisomorphism": 5225,
      "edSpace": 5226,
      "respectTransparency": 5227,
      "Ġplace": 5228,
      "bid": 5229,
      "Init": 5230,
      "Ġitself": 5231,
      "Ġhash": 5232,
      "Addback": 5233,
      "select": 5234,
      "li": 5235,
      "meta": 5236,
      "commute": 5237,
      "Ġ144": 5238,
      "atic": 5239,
      "Ġ5764": 5240,
      "729": 5241,
      "188": 5242,
      "Ġtangent": 5243,
      "Îĺ": 5244,
      "705": 5245,
      "108": 5246,
      "ĠhÎĺ": 5247,
      "Grad": 5248,
      "irreducible": 5249,
      "159": 5250,
      "ironment": 5251,
      "Central": 5252,
      "Leche": 5253,
      "\"]": 5254,
      "prodMk": 5255,
      "AT": 5256,
      "Ġ(((.": 5257,
      "Stmts": 5258,
      "Ġfe": 5259,
      "unusedTactic": 5260,
      "sK": 5261,
      "toInt": 5262,
      "Ratio": 5263,
      "Ġact": 5264,
      "Ġrs": 5265,
      "eromorphic": 5266,
      "ĠBlock": 5267,
      "Ġplus": 5268,
      "CH": 5269,
      "Ġli": 5270,
      "âĦļ": 5271,
      "hÏĪ": 5272,
      "Colimit": 5273,
      "392": 5274,
      "Ġnth": 5275,
      "stract": 5276,
      "Ġsl": 5277,
      "eqid": 5278,
      "ged": 5279,
      "MeasureTheory": 5280,
      "lshr": 5281,
      "unreachableTactic": 5282,
      "igroup": 5283,
      "Ġtheta": 5284,
      "GIN": 5285,
      "Ġ288": 5286,
      "logical": 5287,
      "OK": 5288,
      "âĢĶ": 5289,
      "readout": 5290,
      "even": 5291,
      "Fields": 5292,
      "ĠÎ¨": 5293,
      "charge": 5294,
      "Self": 5295,
      "Ġ362408": 5296,
      "ĠImp": 5297,
      "Hurewicz": 5298,
      "Ġcomb": 5299,
      "moment": 5300,
      "nes": 5301,
      "Ġconver": 5302,
      "Ġinfinite": 5303,
      "fail": 5304,
      "NeZero": 5305,
      "fp": 5306,
      "ugate": 5307,
      "3034": 5308,
      "ĠCar": 5309,
      "ðĿŁĻ": 5310,
      "âŁ§": 5311,
      "CallV": 5312,
      "ĠÂ¬(": 5313,
      "Ġweighted": 5314,
      "Ġcontract": 5315,
      "rhs": 5316,
      "istent": 5317,
      "Ġ25": 5318,
      "248": 5319,
      "Manifold": 5320,
      "Ġdistrib": 5321,
      "cript": 5322,
      "grp": 5323,
      "Ġ(Â·.": 5324,
      "Mode": 5325,
      "scripts": 5326,
      "iltin": 5327,
      "steer": 5328,
      "ger": 5329,
      "KernelTC": 5330,
      "tay": 5331,
      "skipKernelTC": 5332,
      "Ac": 5333,
      "ĠBig": 5334,
      "Ġhigh": 5335,
      "bb": 5336,
      "Ġarith": 5337,
      "Column": 5338,
      "leq": 5339,
      "ĠLog": 5340,
      "newSp": 5341,
      "sound": 5342,
      "Runtime": 5343,
      "Ġassoci": 5344,
      "crimin": 5345,
      "ending": 5346,
      "Quot": 5347,
      "Ġtsupport": 5348,
      "BEGIN": 5349,
      "TacticAuto": 5350,
      "Ġdifferent": 5351,
      "Nop": 5352,
      "Json": 5353,
      "hler": 5354,
      "culus": 5355,
      "153": 5356,
      "Ġwhile": 5357,
      "build": 5358,
      "Realization": 5359,
      "apped": 5360,
      "169": 5361,
      "Thm": 5362,
      "ofProg": 5363,
      "ĠQuery": 5364,
      "Modules": 5365,
      "iro": 5366,
      "ood": 5367,
      "Bi": 5368,
      "Ġeventually": 5369,
      "Ġcontra": 5370,
      "Ġfinrank": 5371,
      "ĠâĪĹ": 5372,
      "sigmaFlat": 5373,
      "Ġscale": 5374,
      "Coprime": 5375,
      "MeasurableSpace": 5376,
      "Ġrename": 5377,
      "rontier": 5378,
      "async": 5379,
      "isClosed": 5380,
      "Ġequality": 5381,
      "jorant": 5382,
      "148": 5383,
      "ĠCategoryTheory": 5384,
      "Ġcommon": 5385,
      "118": 5386,
      "ADDI": 5387,
      "Ġcsubg": 5388,
      "leanprover": 5389,
      "anchor": 5390,
      "arning": 5391,
      "154": 5392,
      "ĠdpreR": 5393,
      "lementation": 5394,
      "generate": 5395,
      "Surjective": 5396,
      "Ġ26": 5397,
      "Goal": 5398,
      "Ġhbase": 5399,
      "Multiplicative": 5400,
      "Gradient": 5401,
      "Record": 5402,
      "Bar": 5403,
      "Inputs": 5404,
      "ermit": 5405,
      "ĠâĨĵ": 5406,
      "ĠSmale": 5407,
      "erived": 5408,
      "RE": 5409,
      "Disjoint": 5410,
      "Iic": 5411,
      "History": 5412,
      "convex": 5413,
      "Ġsec": 5414,
      "Ġ\".": 5415,
      "Ġresolution": 5416,
      "149": 5417,
      "ĠIR": 5418,
      "ĠMetaM": 5419,
      "Ġmaximal": 5420,
      "ep": 5421,
      "ĠAssertion": 5422,
      "ĠPre": 5423,
      "ermitian": 5424,
      "Compiler": 5425,
      "ĠReference": 5426,
      "sequ": 5427,
      "ffix": 5428,
      "pherical": 5429,
      "ĠProfile": 5430,
      "Ġâ¦": 5431,
      "Ġunique": 5432,
      "limits": 5433,
      "fastmath": 5434,
      "Ġnames": 5435,
      "Gap": 5436,
      "uni": 5437,
      "ird": 5438,
      "789": 5439,
      "CategoryTheory": 5440,
      "145": 5441,
      "width": 5442,
      "Restrict": 5443,
      "paper": 5444,
      "residual": 5445,
      "Mathlib": 5446,
      "coefficients": 5447,
      "ĠKop": 5448,
      "semiring": 5449,
      "global": 5450,
      "isSome": 5451,
      "Ġremaining": 5452,
      "sylan": 5453,
      "quot": 5454,
      "itone": 5455,
      "ĠðĿĵķ": 5456,
      "units": 5457,
      "123": 5458,
      ")..": 5459,
      "Ġ29": 5460,
      "IS": 5461,
      "arity": 5462,
      "ĠActualPrimary": 5463,
      "bvar": 5464,
      "interior": 5465,
      "ccak": 5466,
      "ech": 5467,
      "ĠPhase": 5468,
      "Ġpattern": 5469,
      "LD": 5470,
      "hH": 5471,
      "Lin": 5472,
      "Ġsuperposition": 5473,
      "singular": 5474,
      "Ġstring": 5475,
      "cedure": 5476,
      "ĠdpreS": 5477,
      "She": 5478,
      "oll": 5479,
      "Ġpressure": 5480,
      "Ġvariables": 5481,
      "Ġchild": 5482,
      "Envelope": 5483,
      "Pairing": 5484,
      "tegrand": 5485,
      "alle": 5486,
      "Ġresidual": 5487,
      "move": 5488,
      "thr": 5489,
      "170": 5490,
      "ĠIco": 5491,
      "Ġap": 5492,
      "weaken": 5493,
      "Mult": 5494,
      "uffer": 5495,
      "ĠChart": 5496,
      "gp": 5497,
      "other": 5498,
      "130": 5499,
      "Ġproperty": 5500,
      "Dir": 5501,
      "SSA": 5502,
      "Ġappl": 5503,
      "ict": 5504,
      "ĠEulerBlowup": 5505,
      "toFinset": 5506,
      "actual": 5507,
      "Ġwell": 5508,
      "only": 5509,
      "divisors": 5510,
      "ression": 5511,
      "ĠthrowError": 5512,
      "ĠÎ²next": 5513,
      "latform": 5514,
      "query": 5515,
      "summ": 5516,
      "isUnit": 5517,
      "PDE": 5518,
      "ĠProof": 5519,
      "Ġ})": 5520,
      "Ġ360": 5521,
      "precated": 5522,
      "Fibre": 5523,
      "orthogonal": 5524,
      "Ġcontinu": 5525,
      "YulGeneration": 5526,
      "))))))": 5527,
      "sl": 5528,
      "eyl": 5529,
      "aurent": 5530,
      "Ġinstead": 5531,
      "143": 5532,
      "ĠRingHom": 5533,
      "Ġss": 5534,
      "then": 5535,
      "ĠâĦį": 5536,
      "Ġhlam": 5537,
      "Ġsig": 5538,
      "ĠLayer": 5539,
      "ODO": 5540,
      "Candidate": 5541,
      "719": 5542,
      "Sym": 5543,
      "Ġfallback": 5544,
      "iting": 5545,
      "cld": 5546,
      "ĠraVal": 5547,
      "ĠMonoid": 5548,
      "Tables": 5549,
      "Ġnh": 5550,
      "toUInt": 5551,
      "Ġ`.": 5552,
      "á´": 5553,
      "frameR": 5554,
      "Ġsigned": 5555,
      "Ġskip": 5556,
      "ROP": 5557,
      "igned": 5558,
      "hQ": 5559,
      "319": 5560,
      "709": 5561,
      "principal": 5562,
      "AlgCat": 5563,
      "]))": 5564,
      "Ġbounds": 5565,
      "iteratedDerivWithin": 5566,
      "KTrial": 5567,
      "Bu": 5568,
      "ĠBase": 5569,
      "109": 5570,
      "Ġ(âĪı": 5571,
      "seudo": 5572,
      "Ġlast": 5573,
      "unfold": 5574,
      "Ġsymbol": 5575,
      "adele": 5576,
      "Ġ5000000": 5577,
      "aque": 5578,
      "608": 5579,
      "plier": 5580,
      "740": 5581,
      "ĠFunctor": 5582,
      "alt": 5583,
      "Ġpk": 5584,
      "adicCompletion": 5585,
      "Ġfix": 5586,
      "subgroup": 5587,
      "Calculus": 5588,
      "Fiber": 5589,
      "164": 5590,
      "natAbs": 5591,
      "ĠâĪĳ'": 5592,
      "Ġabbrev": 5593,
      "Ġarguments": 5594,
      "character": 5595,
      "equality": 5596,
      "monotone": 5597,
      "ccom": 5598,
      "erations": 5599,
      "Ġhfin": 5600,
      "Ġrequire": 5601,
      "Ġpiece": 5602,
      "ĠâŁ¨-,": 5603,
      "Generator": 5604,
      "Ġlattice": 5605,
      "580": 5606,
      "Ġcenter": 5607,
      "Ġinside": 5608,
      "ached": 5609,
      "Many": 5610,
      "ansion": 5611,
      "sive": 5612,
      "AlgEquiv": 5613,
      "Ġkind": 5614,
      "Ġswap": 5615,
      "Ite": 5616,
      "gacy": 5617,
      "Cusp": 5618,
      "coded": 5619,
      "Ġ22": 5620,
      "criminant": 5621,
      "elp": 5622,
      "cade": 5623,
      "Pole": 5624,
      "138": 5625,
      "ĠEvery": 5626,
      "398": 5627,
      "hE": 5628,
      "129": 5629,
      "KTrialCallV": 5630,
      "Ġlow": 5631,
      "arp": 5632,
      "Assembly": 5633,
      "Amplitude": 5634,
      "Ġhpc": 5635,
      "dimensional": 5636,
      "$>": 5637,
      "ĠdOmSmall": 5638,
      "ĊĠĠĠĠĠĠĠĠĠĠĠĠĠĠĠĠĠĠĠĠĠĠĠĠĠĠĠĠĠĠĠĠĠĠĠĠĠĠĠĠĠ": 5639,
      "Ġmv": 5640,
      "Ġctop": 5641,
      "analytic": 5642,
      "Message": 5643,
      "509": 5644,
      "tt": 5645,
      "ascade": 5646,
      "Types": 5647,
      "Attr": 5648,
      "Ġrough": 5649,
      "Ġhsmall": 5650,
      "mulVec": 5651,
      "Ġdual": 5652,
      "ĠmkApp": 5653,
      "Torsion": 5654,
      "ivot": 5655,
      "toAdd": 5656,
      "Ġpointwise": 5657,
      "Ġadj": 5658,
      "Ġgeneralizing": 5659,
      "ricted": 5660,
      "ĠMultiset": 5661,
      "Trunc": 5662,
      "Î¶": 5663,
      "config": 5664,
      "792": 5665,
      "slice": 5666,
      "Ġ42": 5667,
      "Ġregular": 5668,
      "ccurrence": 5669,
      "tag": 5670,
      "chor": 5671,
      "Ġarbitrary": 5672,
      "iliary": 5673,
      "vertible": 5674,
      "ott": 5675,
      "Ġaddr": 5676,
      "defin": 5677,
      "SV": 5678,
      "Ġconvex": 5679,
      "Ant": 5680,
      "terminal": 5681,
      "utes": 5682,
      "ãģ®": 5683,
      "_[": 5684,
      "Normalized": 5685,
      "Image": 5686,
      "\":": 5687,
      "Ġleaf": 5688,
      "Ġsuccess": 5689,
      "Ġfollowing": 5690,
      "cing": 5691,
      "Reference": 5692,
      "Ġoperation": 5693,
      "oveq": 5694,
      "ority": 5695,
      "omic": 5696,
      "ĠGr": 5697,
      "Average": 5698,
      "Dimension": 5699,
      "rewrite": 5700,
      "Supported": 5701,
      "Ġcompile": 5702,
      "Symbol": 5703,
      "CNF": 5704,
      "Ġquadratic": 5705,
      "âĢĶâĢĶ": 5706,
      "LinearGroup": 5707,
      "VariableArity": 5708,
      "GeomLevel": 5709,
      "varpiS": 5710,
      "Ġanalytic": 5711,
      "Ġ\"\\": 5712,
      "alpha": 5713,
      "ĠSimple": 5714,
      "Guard": 5715,
      "chedule": 5716,
      "vPowerSeries": 5717,
      "106": 5718,
      "Ġma": 5719,
      "imil": 5720,
      "âĢĵ": 5721,
      "736": 5722,
      "ĠNode": 5723,
      "156": 5724,
      "itted": 5725,
      "work": 5726,
      "Parser": 5727,
      "Ġsi": 5728,
      "ĠPR": 5729,
      "asi": 5730,
      "Ġfunc": 5731,
      "Ġhyp": 5732,
      "âĢº": 5733,
      "Ġinjective": 5734,
      "ship": 5735,
      "Ġsymm": 5736,
      "515": 5737,
      "Units": 5738,
      "minus": 5739,
      "rreducible": 5740,
      "Ġdoc": 5741,
      "window": 5742,
      "World": 5743,
      "export": 5744,
      "Diagonal": 5745,
      "ominal": 5746,
      "continuousAt": 5747,
      "MulEquiv": 5748,
      "omorphisms": 5749,
      "oving": 5750,
      "ĠnewSp": 5751,
      "ĠintervalIntegral": 5752,
      "Ġsubmodule": 5753,
      "198": 5754,
      "Gauge": 5755,
      "riction": 5756,
      "Parent": 5757,
      "iver": 5758,
      "FP": 5759,
      "Scratch": 5760,
      "std": 5761,
      "vertex": 5762,
      "Saved": 5763,
      "oral": 5764,
      "ĠMeasurableSet": 5765,
      "Ġpayload": 5766,
      "Ġchoose": 5767,
      "aches": 5768,
      "Ġhsq": 5769,
      "ĠPart": 5770,
      "cross": 5771,
      "Act": 5772,
      "gre": 5773,
      "simpl": 5774,
      "Bind": 5775,
      "orse": 5776,
      "Ġnn": 5777,
      "Ġ<$>": 5778,
      "ĠExact": 5779,
      "ĠIsLocalRing": 5780,
      "AB": 5781,
      "ĠNN": 5782,
      "389": 5783,
      "uring": 5784,
      "Ġsee": 5785,
      "ĠHarmonic": 5786,
      "ĠDefinitions": 5787,
      "688": 5788,
      "ĠIsUnit": 5789,
      "Gam": 5790,
      "FractionRing": 5791,
      "asIdeal": 5792,
      "1517": 5793,
      "dict": 5794,
      "ires": 5795,
      "oned": 5796,
      "ĠEulerPacket": 5797,
      "Ġresidue": 5798,
      "stream": 5799,
      "Ġmask": 5800,
      "stronglyMeasurable": 5801,
      "ways": 5802,
      "her": 5803,
      "placeInfty": 5804,
      "Ġaddress": 5805,
      "atum": 5806,
      "BaseChange": 5807,
      "ĠNo": 5808,
      "vd": 5809,
      "294": 5810,
      "formula": 5811,
      "Item": 5812,
      "Pattern": 5813,
      "ĠCy": 5814,
      "Dispatch": 5815,
      "ris": 5816,
      "ider": 5817,
      "erve": 5818,
      "Operand": 5819,
      "Ġconcrete": 5820,
      "binary": 5821,
      "Ġapplic": 5822,
      "ĠisOpen": 5823,
      "ĠAE": 5824,
      "594": 5825,
      "lac": 5826,
      "ĠAlg": 5827,
      "md": 5828,
      "352": 5829,
      "Ġseq": 5830,
      "ĠofBool": 5831,
      ".,": 5832,
      "iant": 5833,
      "ĠhNpos": 5834,
      "ĠhâĦĵ": 5835,
      "Ġ50": 5836,
      "regOwn": 5837,
      "Ġeither": 5838,
      "139": 5839,
      "Ġholds": 5840,
      "eigen": 5841,
      "contDiffAt": 5842,
      "dle": 5843,
      "presheaf": 5844,
      "ĠhÎ¦": 5845,
      "ostant": 5846,
      "Ġweak": 5847,
      "ĠInner": 5848,
      "480": 5849,
      "AndEuler": 5850,
      "lar": 5851,
      "Ġhcomp": 5852,
      "Growth": 5853,
      "ĠOrder": 5854,
      "300": 5855,
      "ops": 5856,
      "leaf": 5857,
      "simpr": 5858,
      "General": 5859,
      "Ġrequired": 5860,
      "*,": 5861,
      "laim": 5862,
      "730": 5863,
      "Fourier": 5864,
      "Fail": 5865,
      "**:": 5866,
      "Ġmid": 5867,
      "formal": 5868,
      "plusg": 5869,
      "Ġpf": 5870,
      "âĮĿ": 5871,
      "528": 5872,
      "lob": 5873,
      "Ġagree": 5874,
      "Ġlayer": 5875,
      "Ġshared": 5876,
      "Ġbl": 5877,
      "gas": 5878,
      "Angular": 5879,
      "706": 5880,
      "Surface": 5881,
      "Ġsyn": 5882,
      "329": 5883,
      "formation": 5884,
      "circle": 5885,
      "endpoint": 5886,
      "ĠTo": 5887,
      "Ġvaluation": 5888,
      "Ġobject": 5889,
      "ChartScales": 5890,
      "pcFree": 5891,
      "NavierStokesAndEuler": 5892,
      "369": 5893,
      "Ġdep": 5894,
      "Ġwas": 5895,
      "Sequence": 5896,
      "ĠOut": 5897,
      "Ġhinv": 5898,
      "TreeMap": 5899,
      "aterial": 5900,
      "iterate": 5901,
      "Ġcont": 5902,
      "Ġphi": 5903,
      "Dedekind": 5904,
      "Ġrational": 5905,
      "rams": 5906,
      "wist": 5907,
      "Scalars": 5908,
      "gaussian": 5909,
      "Ra": 5910,
      "Ġcpi": 5911,
      "ĠNot": 5912,
      "Ġbox": 5913,
      "Mask": 5914,
      "Singular": 5915,
      "âĤħ": 5916,
      "kA": 5917,
      "cseq": 5918,
      "Ġcplusg": 5919,
      "Upd": 5920,
      "Walk": 5921,
      "ĠOn": 5922,
      "iling": 5923,
      "ĠUniform": 5924,
      "Hyp": 5925,
      "ĠdeltaStar": 5926,
      "Ġendpoint": 5927,
      "fields": 5928,
      "Ġdirection": 5929,
      "Ġmeta": 5930,
      "ĠCX": 5931,
      "TransCmp": 5932,
      "Partition": 5933,
      "Budget": 5934,
      "ĠAnal": 5935,
      "can": 5936,
      "Functions": 5937,
      "sol": 5938,
      "Ġsince": 5939,
      "ulse": 5940,
      "Ġselected": 5941,
      "down": 5942,
      "ĠBand": 5943,
      "Ġmakes": 5944,
      "Ġreduce": 5945,
      "Com": 5946,
      "Direction": 5947,
      "jected": 5948,
      "Ġtopological": 5949,
      "Presentation": 5950,
      "Ġfra": 5951,
      "]'": 5952,
      "stein": 5953,
      "iltr": 5954,
      "uth": 5955,
      "erian": 5956,
      "Ġ((((": 5957,
      "apes": 5958,
      "Ġrepresentation": 5959,
      "Ġhid": 5960,
      "ters": 5961,
      "toRingHom": 5962,
      "special": 5963,
      "`'": 5964,
      "HeightOneSpectrum": 5965,
      "Ġcontain": 5966,
      "Ġrg": 5967,
      "ĠSort": 5968,
      "39742": 5969,
      "hasFDerivAt": 5970,
      "Ann": 5971,
      "Ġordin": 5972,
      "LP": 5973,
      "ailed": 5974,
      "toLp": 5975,
      "âĪ«": 5976,
      "Ġhre": 5977,
      "Ġmultiplication": 5978,
      "Ġhomomorphism": 5979,
      "ĠðĿĵ¢": 5980,
      "Ġcontrol": 5981,
      "WithZero": 5982,
      "Tra": 5983,
      "hV": 5984,
      "ĠSee": 5985,
      "Ret": 5986,
      "Subalgebra": 5987,
      "Scope": 5988,
      "Weak": 5989,
      "play": 5990,
      "Util": 5991,
      "MS": 5992,
      "ĠmkRat": 5993,
      "Ġmotive": 5994,
      "ĠGen": 5995,
      "Ġvertex": 5996,
      "nbg": 5997,
      "728": 5998,
      "Ġ`{": 5999,
      "ĠĠĠĠĠĠĠĠĠĠĠĠĠĠĠĠĠĠĠĠĠĠĠĠĠĠĠĠĠĠĠĠĠĠĠĠĠĠĠĠĠĠĠĠĠĠĠĠĠĠĠĠĠĠĠĠĠĠĠĠĠĠĠĠĠĠĠĠĠĠĠĠĠĠĠĠĠĠĠĠĠĠĠĠĠĠĠĠĠĠĠĠĠĠĠĠĠĠĠĠĠĠĠĠĠĠĠĠĠĠĠĠĠĠĠĠĠĠĠĠĠĠĠĠĠĠĠĠĠĠĠĠĠĠĠĠĠĠĠĠĠĠĠĠĠĠĠĠĠĠĠĠĠĠĠĠĠĠĠĠĠĠĠĠĠĠĠĠĠĠĠĠĠĠĠĠĠĠĠĠĠĠĠĠĠĠĠĠĠĠĠĠĠĠĠĠĠĠĠĠĠĠĠĠĠĠĠĠĠĠĠĠĠĠĠĠĠĠĠĠĠĠĠĠĠĠĠĠĠĠĠĠĠĠĠĠĠĠĠĠĠĠĠĠĠĠĠĠĠĠĠĠĠĠĠĠ": 6000,
      "190": 6001,
      "ichlet": 6002,
      "answer": 6003,
      "large": 6004,
      "ĠPartial": 6005,
      "iltration": 6006,
      "Ġequivalent": 6007,
      "Ġreduction": 6008,
      "aehler": 6009,
      "Literal": 6010,
      "ĠPROP": 6011,
      "264": 6012,
      "Ġâ¦ĥ": 6013,
      "178": 6014,
      "60752": 6015,
      "ĠhÏĦT": 6016,
      "Ġfound": 6017,
      "Abel": 6018,
      "baseChange": 6019,
      "\"),": 6020,
      "taylor": 6021,
      "Ġunderlying": 6022,
      "nhdsWithin": 6023,
      "Ġ27": 6024,
      "Ġevalu": 6025,
      "â¦Ħ": 6026,
      "SD": 6027,
      "126": 6028,
      "gaugeL": 6029,
      "ON": 6030,
      "umul": 6031,
      "sets": 6032,
      "ĠValuation": 6033,
      "114": 6034,
      "hÏĥ": 6035,
      "ceptional": 6036,
      "itten": 6037,
      "ED": 6038,
      "749": 6039,
      "Ġallow": 6040,
      "607523034": 6041,
      "318": 6042,
      "684": 6043,
      "Ġ5764607523034": 6044,
      "Main": 6045,
      "oneda": 6046,
      "mat": 6047,
      "Ġ([": 6048,
      "576": 6049,
      "ncard": 6050,
      "ĠTensorProduct": 6051,
      "VarId": 6052,
      "Reduction": 6053,
      "Ġcannot": 6054,
      "Ġrewrite": 6055,
      "resolve": 6056,
      "ĠWeierstrassCurve": 6057,
      "walk": 6058,
      "decomp": 6059,
      "Ġarray": 6060,
      "cent": 6061,
      "Ambient": 6062,
      "RingTheory": 6063,
      "358": 6064,
      "Ġpn": 6065,
      "ride": 6066,
      "PI": 6067,
      "Sk": 6068,
      "diction": 6069,
      "âģĨ": 6070,
      "roots": 6071,
      "acent": 6072,
      "Write": 6073,
      "Ġneeded": 6074,
      "divisor": 6075,
      "integers": 6076,
      "difference": 6077,
      "extractLsb": 6078,
      "hÎ´": 6079,
      "rift": 6080,
      "element": 6081,
      "array": 6082,
      "Short": 6083,
      "ĠMar": 6084,
      "mapM": 6085,
      "Common": 6086,
      "400": 6087,
      "720": 6088,
      "germ": 6089,
      "erv": 6090,
      "diag": 6091,
      "beq": 6092,
      "Ġleast": 6093,
      "Ġindependent": 6094,
      "Ġmemory": 6095,
      "ĠhÏĸ": 6096,
      "Ġnumbers": 6097,
      "ĠâĪ«âģ»": 6098,
      "Ġdlo": 6099,
      "topological": 6100,
      "colimit": 6101,
      "Quadratic": 6102,
      "basic": 6103,
      "InnerProductSpace": 6104,
      "Sol": 6105,
      "Inclusion": 6106,
      "ĠBigOperators": 6107,
      "Presheaf": 6108,
      "factorization": 6109,
      "174": 6110,
      "ellFormed": 6111,
      "Ġsnoc": 6112,
      "Indep": 6113,
      "Ġitem": 6114,
      "zeroExtend": 6115,
      "Ġencoding": 6116,
      "Ġneeds": 6117,
      "Ġhcard": 6118,
      "Ġ{}": 6119,
      "elab": 6120,
      "...": 6121,
      "CompleteSpace": 6122,
      "context": 6123,
      "ighborhood": 6124,
      "agree": 6125,
      "696": 6126,
      "Eventually": 6127,
      "Ġrestrict": 6128,
      "acle": 6129,
      "Sphere": 6130,
      "Ġwhole": 6131,
      "Adic": 6132,
      "Ġdistinct": 6133,
      "Ġcontent": 6134,
      "nuw": 6135,
      "fan": 6136,
      "290": 6137,
      "Mixed": 6138,
      "Build": 6139,
      "NCH": 6140,
      "Ġselector": 6141,
      "312": 6142,
      "UT": 6143,
      "sing": 6144,
      "Transform": 6145,
      "ij": 6146,
      "car": 6147,
      "ages": 6148,
      "normed": 6149,
      "header": 6150,
      "conditional": 6151,
      "380": 6152,
      "Ġinduced": 6153,
      "Covariance": 6154,
      "ĠHasDerivWithinAt": 6155,
      "Orbit": 6156,
      "tom": 6157,
      "Ġhmono": 6158,
      "ĠApp": 6159,
      "Ġpp": 6160,
      "Final": 6161,
      "Isometry": 6162,
      "orbit": 6163,
      "734": 6164,
      "ĠhÎĵ": 6165,
      "Shifted": 6166,
      "layer": 6167,
      "Ġcycle": 6168,
      "âĤĳ": 6169,
      "mise": 6170,
      "zmod": 6171,
      "Sa": 6172,
      "Ġ>>=": 6173,
      "Ġ128": 6174,
      "336": 6175,
      "ĠâĢ¹": 6176,
      "ĠBit": 6177,
      "Ġ34": 6178,
      "394": 6179,
      "Ġcfn": 6180,
      "ilationModel": 6181,
      "Ġsol": 6182,
      "Ġhad": 6183,
      "kin": 6184,
      "Ġvis": 6185,
      "auses": 6186,
      "ĠĠĠĠĠĠĠĠĠ": 6187,
      "ifies": 6188,
      "orn": 6189,
      "Exterior": 6190,
      "signExtend": 6191,
      "central": 6192,
      "Ġbig": 6193,
      "sted": 6194,
      "Heap": 6195,
      "cutoff": 6196,
      "549": 6197,
      "Ġ$(": 6198,
      "sym": 6199,
      "134": 6200,
      "Ġ115": 6201,
      "Ġsep": 6202,
      "ĠHasCompactSupport": 6203,
      "Ġ288230": 6204,
      "nth": 6205,
      "Inhabited": 6206,
      "Ġ288230376": 6207,
      "rocq": 6208,
      "Ġhfg": 6209,
      "Ġtopology": 6210,
      "ofHom": 6211,
      "ĠGroup": 6212,
      "most": 6213,
      "Kin": 6214,
      "Ġagainst": 6215,
      "ofSlow": 6216,
      "etherian": 6217,
      "nsw": 6218,
      "since": 6219,
      "eqtr": 6220,
      "Ġmember": 6221,
      "ãĤĭ": 6222,
      "adant": 6223,
      "ĠbankPaperCanonical": 6224,
      "590": 6225,
      "ĠhÏī": 6226,
      "gammaStar": 6227,
      "ĠLevel": 6228,
      "undled": 6229,
      "Ġinternal": 6230,
      "Ġjust": 6231,
      "Ġdetermin": 6232,
      "localResidue": 6233,
      "epsilon": 6234,
      "Ġprimitive": 6235,
      "orig": 6236,
      "neiro": 6237,
      "Ġ70": 6238,
      "Ġcounter": 6239,
      "mplect": 6240,
      "Homotopy": 6241,
      "unction": 6242,
      "AS": 6243,
      "Euclidean": 6244,
      "Ġdifferentiable": 6245,
      "ĠmeasurableSet": 6246,
      "axis": 6247,
      "changed": 6248,
      "672": 6249,
      "ofFn": 6250,
      "ChartAt": 6251,
      "YulExpr": 6252,
      "Ġ(âĬ¤": 6253,
      "Ġrepeat": 6254,
      "parkle": 6255,
      "ĊĠĠĠĠĠĠĠĠĠĠĠĠĠĠĠĠĠĠĠĠĠĠĠĠĠĠĠĠĠĠĠĠĠĠĠĠĠĠĠĠĠĠĠ": 6256,
      "Ġloc": 6257,
      "Per": 6258,
      "Represent": 6259,
      "Ġâĩĳ": 6260,
      "Ġsay": 6261,
      "allen": 6262,
      "fou": 6263,
      "quadratic": 6264,
      "fourier": 6265,
      "Side": 6266,
      "fg": 6267,
      "Lib": 6268,
      "pan": 6269,
      "cipe": 6270,
      "Lambda": 6271,
      "ĠðĿĴª": 6272,
      "Ġae": 6273,
      "ĠEval": 6274,
      "tinue": 6275,
      "Ġiso": 6276,
      "AlgClosed": 6277,
      "crab": 6278,
      "prob": 6279,
      "Annot": 6280,
      "like": 6281,
      "Ġ_âŁ©,": 6282,
      "Ġmake": 6283,
      "ĊĊĠĠĠĠĠ": 6284,
      "Ġface": 6285,
      "-`": 6286,
      "Ġmonotone": 6287,
      "Ġcommutative": 6288,
      "pk": 6289,
      ")/": 6290,
      "Ã©": 6291,
      "ĠÂ§": 6292,
      "Ġcstar": 6293,
      "Ġ2882303761517": 6294,
      "mplectic": 6295,
      "Ġrows": 6296,
      "strip": 6297,
      "Position": 6298,
      "Ġestim": 6299,
      "ĠGiven": 6300,
      "Ġsuppl": 6301,
      "Ġtriangle": 6302,
      "gap": 6303,
      "lee": 6304,
      "Ġicmp": 6305,
      "program": 6306,
      "sig": 6307,
      "292": 6308,
      "View": 6309,
      "ĠPrim": 6310,
      "ĠðĿŁĻ": 6311,
      "hI": 6312,
      "($": 6313,
      "setOf": 6314,
      "mixed": 6315,
      "588": 6316,
      "Flow": 6317,
      "After": 6318,
      "172": 6319,
      "naturality": 6320,
      "Ġsemant": 6321,
      "Weighted": 6322,
      "deprecated": 6323,
      "Ġmulti": 6324,
      "Helper": 6325,
      "ĠIndex": 6326,
      "clz": 6327,
      "155": 6328,
      "ands": 6329,
      "Ġbits": 6330,
      "Ġgaussian": 6331,
      "ĠOne": 6332,
      "ef": 6333,
      "oris": 6334,
      "regIs": 6335,
      "allenge": 6336,
      "orphisms": 6337,
      "ilin": 6338,
      "Ġhex": 6339,
      "placement": 6340,
      "146": 6341,
      "have": 6342,
      "irected": 6343,
      "Maximal": 6344,
      "BranchWithin": 6345,
      "599": 6346,
      "Borel": 6347,
      "Tendsto": 6348,
      "Ġcoefficients": 6349,
      "ĠRaw": 6350,
      "179": 6351,
      "754": 6352,
      "tau": 6353,
      "Certificate": 6354,
      "mode": 6355,
      "harmonic": 6356,
      "Iio": 6357,
      "my": 6358,
      "790": 6359,
      "Ġparameters": 6360,
      "Ġclear": 6361,
      "hift": 6362,
      "748": 6363,
      "Ġhlo": 6364,
      "194": 6365,
      "Ġwalk": 6366,
      "Ġunion": 6367,
      "Ġprofile": 6368,
      "UpTo": 6369,
      "ĠÏĸ": 6370,
      "jal": 6371,
      "fuel": 6372,
      "Ġthose": 6373,
      "ĠlistBase": 6374,
      "Ġhone": 6375,
      "Enum": 6376,
      "sizeOf": 6377,
      "Ġassume": 6378,
      "ĠdMem": 6379,
      "ducing": 6380,
      "))âģ»": 6381,
      "Doc": 6382,
      "err": 6383,
      "788": 6384,
      "Ġxi": 6385,
      "ĠdloMem": 6386,
      "Ġsegment": 6387,
      "AddGroup": 6388,
      "org": 6389,
      "ĠSyntax": 6390,
      "702": 6391,
      "ĠFirst": 6392,
      "ĠNNReal": 6393,
      "nsmul": 6394,
      "licial": 6395,
      "Ġregister": 6396,
      "sequence": 6397,
      "Ġevent": 6398,
      "Ġproved": 6399,
      "ProbabilityMeasure": 6400,
      "record": 6401,
      "Ġdenote": 6402,
      "ĠNum": 6403,
      "396": 6404,
      "ĠIntermediateField": 6405,
      "))),": 6406,
      "Coset": 6407,
      "2026": 6408,
      "296": 6409,
      "mag": 6410,
      "ĠCÎµ": 6411,
      "Fold": 6412,
      "Ġtheory": 6413,
      "sumed": 6414,
      "bankPaperCanonical": 6415,
      "Concrete": 6416,
      "Rot": 6417,
      "primitive": 6418,
      "wd": 6419,
      "\")]": 6420,
      "toString": 6421,
      "ĠInhabited": 6422,
      "Ġparts": 6423,
      "ĠCusp": 6424,
      "124": 6425,
      "ietoris": 6426,
      "Ax": 6427,
      "ĠConLeche": 6428,
      "Ġbool": 6429,
      "clot": 6430,
      "Ġcircle": 6431,
      "clotomic": 6432,
      "flip": 6433,
      "IsCurveOver": 6434,
      "556": 6435,
      "ofInt": 6436,
      "ĠFormal": 6437,
      "mpot": 6438,
      "ermite": 6439,
      "Ġcomposition": 6440,
      "noNop": 6441,
      "992": 6442,
      "10000000000000000": 6443,
      "Vietoris": 6444,
      "df": 6445,
      "1880": 6446,
      "Four": 6447,
      "version": 6448,
      "yadic": 6449,
      "ercise": 6450,
      "ĠMario": 6451,
      "tm": 6452,
      "ond": 6453,
      "Ġinterior": 6454,
      "undamental": 6455,
      "Cut": 6456,
      "simulateQ": 6457,
      "Ġbridge": 6458,
      "Ġhcont": 6459,
      "scaled": 6460,
      "transpose": 6461,
      "ĠDomain": 6462,
      "Except": 6463,
      "height": 6464,
      "388": 6465,
      "ĠðĿĴľ": 6466,
      "stalk": 6467,
      "Ġ44": 6468,
      "nonzero": 6469,
      "Machine": 6470,
      "Ġupdate": 6471,
      "Under": 6472,
      "Ġselect": 6473,
      "inator": 6474,
      "chi": 6475,
      "Ġcaller": 6476,
      "ĠOpen": 6477,
      "elt": 6478,
      "mass": 6479,
      "sect": 6480,
      "Ġprogram": 6481,
      "Nontrivial": 6482,
      "Arrow": 6483,
      "Ġparam": 6484,
      "Ġinl": 6485,
      "abilizer": 6486,
      "preField": 6487,
      "Ġpredicate": 6488,
      "ĠTODO": 6489,
      "uine": 6490,
      "ĠDigest": 6491,
      "Defs": 6492,
      "Retained": 6493,
      "ertices": 6494,
      "lip": 6495,
      "AN": 6496,
      "HighKPlatformAffineCorner": 6497,
      "Ġmany": 6498,
      "Return": 6499,
      "ster": 6500,
      "Ġâī¡": 6501,
      "frac": 6502,
      "embedding": 6503,
      "DedekindDomain": 6504,
      "aylor": 6505,
      "Ġ((-": 6506,
      "Ġequals": 6507,
      "ĠSe": 6508,
      "Ops": 6509,
      "isLt": 6510,
      "Ġentries": 6511,
      "^[": 6512,
      "ĠâĮĬ": 6513,
      "ĠÏĨs": 6514,
      "Ġambient": 6515,
      "ĠDes": 6516,
      "Ġ?": 6517,
      "chunk": 6518,
      "Additive": 6519,
      "mpotent": 6520,
      "ried": 6521,
      "Ġobser": 6522,
      "sphere": 6523,
      "ww": 6524,
      "Ġdividend": 6525,
      "dst": 6526,
      "ough": 6527,
      "Integrand": 6528,
      "Ġquery": 6529,
      "186": 6530,
      "Configuration": 6531,
      "Separable": 6532,
      "254": 6533,
      "final": 6534,
      "776": 6535,
      "rate": 6536,
      "rey": 6537,
      "ĠXR": 6538,
      "thon": 6539,
      "syntax": 6540,
      "ayerVietoris": 6541,
      "%%": 6542,
      "Ġstorage": 6543,
      "procal": 6544,
      "ĠPath": 6545,
      "Ġchar": 6546,
      "ĠIsCompact": 6547,
      "Terminal": 6548,
      "Cancel": 6549,
      "ĠIH": 6550,
      "756": 6551,
      "Ġwf": 6552,
      "kens": 6553,
      "Ġnoncomputable": 6554,
      "osen": 6555,
      "tropy": 6556,
      "Ġhpq": 6557,
      "!\"{": 6558,
      "semble": 6559,
      "tsupport": 6560,
      "fect": 6561,
      "amplitude": 6562,
      "abl": 6563,
      "zip": 6564,
      "Ġnow": 6565,
      "ĠCarneiro": 6566,
      "Ġtemp": 6567,
      "Ġspatial": 6568,
      "Ġembedding": 6569,
      "Ġhmap": 6570,
      "pot": 6571,
      "Ġwp": 6572,
      "internal": 6573,
      "Hashable": 6574,
      "Unique": 6575,
      "Round": 6576,
      "364": 6577,
      "rac": 6578,
      "239": 6579,
      "Ġcarries": 6580,
      "Ġgrad": 6581,
      "Ġlit": 6582,
      "reduceIte": 6583,
      "rade": 6584,
      ")*": 6585,
      "imits": 6586,
      "ãģĻ": 6587,
      "âĭ": 6588,
      "Circuit": 6589,
      "175": 6590,
      "expected": 6591,
      "Ġpass": 6592,
      "269": 6593,
      "HigherHomology": 6594,
      "ertia": 6595,
      "lay": 6596,
      "Ġscope": 6597,
      "Access": 6598,
      "fd": 6599,
      "ĠCn": 6600,
      "Ġlie": 6601,
      "308": 6602,
      "SB": 6603,
      "gether": 6604,
      "ĠhÎ½": 6605,
      "prepend": 6606,
      "349": 6607,
      "Ġcmnf": 6608,
      "Transverse": 6609,
      "DF": 6610,
      "damental": 6611,
      "Ġcutoff": 6612,
      "MayerVietoris": 6613,
      "asing": 6614,
      "ĠIff": 6615,
      "Ġordered": 6616,
      "Ġnegative": 6617,
      "valued": 6618,
      "708": 6619,
      "ĠCoeff": 6620,
      "166": 6621,
      "Ġodd": 6622,
      "340": 6623,
      "frequency": 6624,
      "five": 6625,
      "Ġexpect": 6626,
      "ĠAnalytic": 6627,
      "ergence": 6628,
      "combination": 6629,
      "ĠCheck": 6630,
      "Decode": 6631,
      "ĠÏĥv": 6632,
      "Ġhold": 6633,
      "Ġ100000000": 6634,
      "ides": 6635,
      "Tera": 6636,
      "Ġcone": 6637,
      "Convex": 6638,
      "BV": 6639,
      "ĠSupport": 6640,
      "700": 6641,
      "SAsm": 6642,
      "ĠhÎ©": 6643,
      "keys": 6644,
      "AddCommMonoid": 6645,
      "cache": 6646,
      "Ġ38": 6647,
      "Unital": 6648,
      "Ġsaved": 6649,
      "monomial": 6650,
      "Grp": 6651,
      "Ġemit": 6652,
      "bijective": 6653,
      "Subst": 6654,
      "Ġalg": 6655,
      "598": 6656,
      "structor": 6657,
      "Ġchanges": 6658,
      "Particular": 6659,
      "oric": 6660,
      "Bump": 6661,
      "ĠTree": 6662,
      "TwoMulFixed": 6663,
      "ĠMap": 6664,
      "Ġinstances": 6665,
      "Ġspaces": 6666,
      "bdd": 6667,
      "Ġmultip": 6668,
      "ĠSparkle": 6669,
      "LinearAlgebra": 6670,
      "Update": 6671,
      "identity": 6672,
      "kappa": 6673,
      "Slope": 6674,
      "ctangle": 6675,
      "Compl": 6676,
      "ĠâŁ©": 6677,
      "Ġflag": 6678,
      "icon": 6679,
      "coprime": 6680,
      "Pushforward": 6681,
      "poch": 6682,
      "Ġprivate": 6683,
      "TableData": 6684,
      "surj": 6685,
      "284": 6686,
      "cyl": 6687,
      "ĠFact": 6688,
      "324": 6689,
      "Ġlocally": 6690,
      "Ġsuffix": 6691,
      "CM": 6692,
      "Ġatom": 6693,
      "Ġequational": 6694,
      "auto": 6695,
      "Ġann": 6696,
      "Ġcomputation": 6697,
      "balance": 6698,
      "Entropy": 6699,
      "hÏĦ": 6700,
      "Ġregion": 6701,
      "508": 6702,
      "252": 6703,
      "ĠTri": 6704,
      "HopfAlgCat": 6705,
      "Cube": 6706,
      "La": 6707,
      "Ġgeneric": 6708,
      "Implicit": 6709,
      "ares": 6710,
      "Galois": 6711,
      "inclusion": 6712,
      "Cross": 6713,
      "bes": 6714,
      "countable": 6715,
      "anishing": 6716,
      "Ġlike": 6717,
      "Ġgauss": 6718,
      "Saias": 6719,
      "indep": 6720,
      "Ġquant": 6721,
      "separ": 6722,
      "PMF": 6723,
      "Monoidal": 6724,
      "Ġroots": 6725,
      "ĠSpaceTime": 6726,
      "ChartedSpace": 6727,
      "Ġsqrt": 6728,
      "Ġunless": 6729,
      "mas": 6730,
      "branch": 6731,
      "leading": 6732,
      "ĠInterval": 6733,
      "depth": 6734,
      "Ġgrid": 6735,
      "Opens": 6736,
      "ĠAddComm": 6737,
      "Reverse": 6738,
      "Arithmetic": 6739,
      "Ġ[#": 6740,
      "ME": 6741,
      "aestronglyMeasurable": 6742,
      "ĠDisjoint": 6743,
      "Ġsteps": 6744,
      "roximation": 6745,
      "Ġlshr": 6746,
      "flatten": 6747,
      "Header": 6748,
      "Cg": 6749,
      "ãģ¨": 6750,
      "ãĤĴ": 6751,
      "Ġcancel": 6752,
      "Sep": 6753,
      "lintegral": 6754,
      "Ġnever": 6755,
      "ĠâĬ¤)": 6756,
      "zext": 6757,
      "102": 6758,
      "done": 6759,
      "Ġcgrp": 6760,
      "selector": 6761,
      "798": 6762,
      "ĠChartScales": 6763,
      "link": 6764,
      "Ġproj": 6765,
      "Encoding": 6766,
      "urry": 6767,
      "540": 6768,
      "Ġaddi": 6769,
      "eb": 6770,
      "Rev": 6771,
      "Ġaxis": 6772,
      "196": 6773,
      "286": 6774,
      "Classical": 6775,
      "Ġparticular": 6776,
      "Solution": 6777,
      "cube": 6778,
      "oss": 6779,
      "ID": 6780,
      "anar": 6781,
      "Ġextends": 6782,
      "ishes": 6783,
      "ĠPressure": 6784,
      "Ho": 6785,
      "^(": 6786,
      "toBitVec": 6787,
      "Insert": 6788,
      "good": 6789,
      "epi": 6790,
      "Ġhprod": 6791,
      "uIcc": 6792,
      "hen": 6793,
      "}(": 6794,
      "intCast": 6795,
      "False": 6796,
      "sat": 6797,
      "Relation": 6798,
      "738": 6799,
      "acro": 6800,
      "ĠNormed": 6801,
      "ks": 6802,
      "Ġstill": 6803,
      "ĠCont": 6804,
      "Translation": 6805,
      "ĠSkeleton": 6806,
      "amm": 6807,
      "GE": 6808,
      "ĠDef": 6809,
      "âĮĭâĤĬ": 6810,
      "scoped": 6811,
      "exit": 6812,
      "bt": 6813,
      "348": 6814,
      "ĠChar": 6815,
      "Ġproofs": 6816,
      "569": 6817,
      "writer": 6818,
      "column": 6819,
      "Ġhleft": 6820,
      "âĪĹ": 6821,
      "Ġhypotheses": 6822,
      "ĠStrata": 6823,
      "Ġsyntax": 6824,
      "Ġhfirst": 6825,
      "complet": 6826,
      "theories": 6827,
      "268": 6828,
      "Ġwords": 6829,
      "ev": 6830,
      "Ġhge": 6831,
      "Channel": 6832,
      "defined": 6833,
      "defeq": 6834,
      "extension": 6835,
      "Preserving": 6836,
      "Ġdistance": 6837,
      "long": 6838,
      "Ġtext": 6839,
      "ason": 6840,
      "ressed": 6841,
      "logue": 6842,
      "Ġsample": 6843,
      "AI": 6844,
      "Ġrc": 6845,
      "ratio": 6846,
      "Ġtimes": 6847,
      "ĠBridge": 6848,
      "ints": 6849,
      "gue": 6850,
      "vious": 6851,
      "teer": 6852,
      "Ġstrictly": 6853,
      "ĠIS": 6854,
      "orb": 6855,
      "Ġterminal": 6856,
      "Ġhrun": 6857,
      "nreal": 6858,
      "Bad": 6859,
      "ĠHigh": 6860,
      "congrArg": 6861,
      "short": 6862,
      "ĠGener": 6863,
      "trap": 6864,
      "Ġaxial": 6865,
      "Ġ_}": 6866,
      "uncurry": 6867,
      "50000": 6868,
      "Integers": 6869,
      "214": 6870,
      "item": 6871,
      "projection": 6872,
      "met": 6873,
      "ĠAs": 6874,
      "idence": 6875,
      "Ent": 6876,
      "Ġcross": 6877,
      "JAL": 6878,
      "Ġstage": 6879,
      "799": 6880,
      "epsS": 6881,
      "bc": 6882,
      "subsingleton": 6883,
      "NE": 6884,
      "metric": 6885,
      "Ġway": 6886,
      "hne": 6887,
      "rp": 6888,
      "Ġmass": 6889,
      "ramp": 6890,
      "ĠeLpNorm": 6891,
      "Ġinr": 6892,
      "Ġtake": 6893,
      "Ġpoly": 6894,
      "ivation": 6895,
      "260": 6896,
      "eter": 6897,
      "Preserves": 6898,
      "Ġhmul": 6899,
      "aracters": 6900,
      "arc": 6901,
      "ĠGL": 6902,
      "Ġsupported": 6903,
      "direction": 6904,
      "Îł": 6905,
      "Ġcim": 6906,
      "ĠÏĳ": 6907,
      "Double": 6908,
      "ĠPrime": 6909,
      "adantl": 6910,
      "909": 6911,
      "hecke": 6912,
      "ĠBounded": 6913,
      "ĠMat": 6914,
      "Ġcico": 6915,
      "===": 6916,
      "Ġbeing": 6917,
      "Generated": 6918,
      "Guarded": 6919,
      "Ġproperties": 6920,
      "ĠretMem": 6921,
      "ãĢĤ": 6922,
      "lig": 6923,
      "ĠReferences": 6924,
      "ĠSym": 6925,
      "summable": 6926,
      "ĠâĮľ": 6927,
      "bian": 6928,
      "Ġmatching": 6929,
      "erationPtr": 6930,
      "aus": 6931,
      "ĠHopf": 6932,
      "330": 6933,
      "quad": 6934,
      "parts": 6935,
      "Ġanswer": 6936,
      "984": 6937,
      "Ġremainder": 6938,
      "Det": 6939,
      "Semi": 6940,
      "ĠIoi": 6941,
      "315": 6942,
      "plane": 6943,
      "RingEquiv": 6944,
      "hst": 6945,
      "ally": 6946,
      "Backward": 6947,
      "generic": 6948,
      "Ġ(!": 6949,
      "Crossing": 6950,
      "infer": 6951,
      "378": 6952,
      "Member": 6953,
      "Ġoperand": 6954,
      "biUnion": 6955,
      "Forward": 6956,
      "520": 6957,
      "Ġhstep": 6958,
      "Ġonce": 6959,
      "eventuallyEq": 6960,
      "Uint": 6961,
      "ifford": 6962,
      "ĠIsScalarTower": 6963,
      "Ġdet": 6964,
      "Ġcomparison": 6965,
      "ĠAny": 6966,
      "769": 6967,
      "PC": 6968,
      "ĠIsClosed": 6969,
      "modify": 6970,
      "Diag": 6971,
      "infty": 6972,
      "Cont": 6973,
      "Ġindices": 6974,
      "Ġfive": 6975,
      "Memory": 6976,
      "ĊĠĠĠĠĠĠĠĠĠĠĠĠĠĠĠĠĠĠĠĠĠĠĠĠĠĠĠĠĠĠĠĠĠĠĠĠĠĠĠĠĠĠĠĠĠ": 6977,
      "ĠArith": 6978,
      "integer": 6979,
      "ĠInit": 6980,
      "ĠSL": 6981,
      "712": 6982,
      "317": 6983,
      "Ġcnt": 6984,
      "HighKPlatformConstant": 6985,
      "extChartAt": 6986,
      "ãģ§": 6987,
      "Ġsubtype": 6988,
      "expand": 6989,
      "Ġdirectly": 6990,
      "5399": 6991,
      "control": 6992,
      "Ġhnot": 6993,
      "Ġcpc": 6994,
      "cov": 6995,
      "uniformizer": 6996,
      "Ġexit": 6997,
      "Delta": 6998,
      "pped": 6999,
      "isCompact": 7000,
      "ĠâĪĤ(": 7001,
      "Ġrespect": 7002,
      "Decls": 7003,
      "Universal": 7004,
      "Ġ===>": 7005,
      "IfNew": 7006,
      "ĠRel": 7007,
      "Imm": 7008,
      "Direct": 7009,
      "Ġseries": 7010,
      "reak": 7011,
      "creasing": 7012,
      "oriz": 7013,
      "Ġspecialize": 7014,
      "stop": 7015,
      "selected": 7016,
      "Ġgradient": 7017,
      "cendent": 7018,
      "aring": 7019,
      "ĠUnits": 7020,
      "ĠCol": 7021,
      "Gas": 7022,
      "Occurrence": 7023,
      "Ġcollect": 7024,
      "Separ": 7025,
      "Î¨": 7026,
      "Subset": 7027,
      "wasm": 7028,
      "ĠTorus": 7029,
      "cendental": 7030,
      "âĨĴ": 7031,
      "Ġcandidate": 7032,
      "Ġ144115": 7033,
      ")$": 7034,
      "Ġreverse": 7035,
      "Ġ$$": 7036,
      "ĠCorrection": 7037,
      "vection": 7038,
      "Ġcgcd": 7039,
      "ðĿĵķ": 7040,
      "Ġhdiv": 7041,
      "Ġhtail": 7042,
      "orrector": 7043,
      "erso": 7044,
      "MV": 7045,
      "Token": 7046,
      "089": 7047,
      "Flags": 7048,
      "IntermediateField": 7049,
      "hÎ²": 7050,
      "1880758": 7051,
      "ĠIntPred": 7052,
      "Ġ1441151880758": 7053,
      "Ġcsqrt": 7054,
      "ĠLabel": 7055,
      "ĠhÎ¶": 7056,
      "Ġsubsumption": 7057,
      "Layout": 7058,
      "tgt": 7059,
      "suc": 7060,
      "Groups": 7061,
      "ternat": 7062,
      "Windows": 7063,
      "Morse": 7064,
      "Ïĸ": 7065,
      "}{": 7066,
      "ograd": 7067,
      "acobian": 7068,
      "Ġband": 7069,
      "user": 7070,
      "Words": 7071,
      "Ġlarge": 7072,
      "lacian": 7073,
      "Curl": 7074,
      "fe": 7075,
      "Ġcoordinates": 7076,
      "Beq": 7077,
      "Hilbert": 7078,
      "Spherical": 7079,
      "Ġdiag": 7080,
      "ĠNative": 7081,
      "atio": 7082,
      "ategy": 7083,
      "Programs": 7084,
      "Digit": 7085,
      "AR": 7086,
      "Ġmodify": 7087,
      "Irreducible": 7088,
      "Ġwrex": 7089,
      "142": 7090,
      "replace": 7091,
      "Ġencode": 7092,
      "Handler": 7093,
      "FG": 7094,
      "CommSemiring": 7095,
      "354": 7096,
      "ĠAMS": 7097,
      "ĠIter": 7098,
      "Cons": 7099,
      "(`": 7100,
      "ldata": 7101,
      "truncate": 7102,
      "Ġleading": 7103,
      "urity": 7104,
      "Ġcommand": 7105,
      "Ctor": 7106,
      "ĠInstr": 7107,
      "Ġ46": 7108,
      "decidable": 7109,
      "Ġminus": 7110,
      "SM": 7111,
      "Ġlies": 7112,
      "effect": 7113,
      "Nil": 7114,
      "Ġhelper": 7115,
      "entence": 7116,
      "Boolean": 7117,
      "message": 7118,
      "force": 7119,
      "5399742": 7120,
      "Ġ(âĨĳ(": 7121,
      "Ġcalls": 7122,
      "ĠâĪļ": 7123,
      "which": 7124,
      "Ġinequality": 7125,
      "Ġstop": 7126,
      "ãģ«": 7127,
      "Ġstatus": 7128,
      "ĠðĿķ": 7129,
      "299": 7130,
      "ĠscratchMem": 7131,
      "ĠIoc": 7132,
      "ĠðĿĶŃ": 7133,
      "Spatial": 7134,
      "Ġorthogonal": 7135,
      "zag": 7136,
      "289": 7137,
      "flate": 7138,
      "ĠStrict": 7139,
      "ĠHead": 7140,
      "Ġchecked": 7141,
      "Ġgenuine": 7142,
      "326": 7143,
      "ĠWasm": 7144,
      "FieldOp": 7145,
      "ĠBinary": 7146,
      "ĠcontDiffOn": 7147,
      "plits": 7148,
      "Ġprev": 7149,
      "itionally": 7150,
      "ceil": 7151,
      "uence": 7152,
      "))))))))": 7153,
      "finitePlace": 7154,
      "unitVec": 7155,
      "209": 7156,
      "frameOf": 7157,
      "slt": 7158,
      "Ġsatisfies": 7159,
      "ĠNM": 7160,
      "Instr": 7161,
      "Ġdepend": 7162,
      "WellFormed": 7163,
      "370": 7164,
      "Ġdown": 7165,
      "Components": 7166,
      "105": 7167,
      "also": 7168,
      "\".": 7169,
      "CC": 7170,
      "Ġinclusion": 7171,
      "address": 7172,
      "Skeleton": 7173,
      "Ġtriple": 7174,
      "modulation": 7175,
      "Ġmodules": 7176,
      "Ġdch": 7177,
      "concat": 7178,
      "Ġaccept": 7179,
      "ĠTime": 7180,
      "hel": 7181,
      "ĠðĿĴŁ": 7182,
      "success": 7183,
      "search": 7184,
      "Ġlabels": 7185,
      "ĠâŁ¨.": 7186,
      "cps": 7187,
      "ĠNavierStokes": 7188,
      "Ġhrest": 7189,
      "gl": 7190,
      "Ġmp": 7191,
      "ota": 7192,
      "Constants": 7193,
      "fsum": 7194,
      "Ġput": 7195,
      "Ġsymmetric": 7196,
      "attach": 7197,
      "separable": 7198,
      "ordan": 7199,
      "Ġhttps": 7200,
      "ema": 7201,
      "filterMap": 7202,
      "Ġfacts": 7203,
      "dch": 7204,
      "igzag": 7205,
      "irichlet": 7206,
      "ieve": 7207,
      "object": 7208,
      "antitone": 7209,
      "680": 7210,
      "potential": 7211,
      "site": 7212,
      "{\"": 7213,
      "dempotent": 7214,
      "Ġclause": 7215,
      "witness": 7216,
      "Sch": 7217,
      "Factory": 7218,
      "CrAn": 7219,
      "Ker": 7220,
      "Ġhright": 7221,
      "Ġdi": 7222,
      "Ġsumm": 7223,
      "covariance": 7224,
      "Ġsystem": 7225,
      "generator": 7226,
      "eleq": 7227,
      "ĠProgram": 7228,
      "gn": 7229,
      "Ġdifference": 7230,
      "ĠhÎ¾": 7231,
      "Ġdeclarations": 7232,
      "Projective": 7233,
      "zy": 7234,
      "ĠContract": 7235,
      "msg": 7236,
      "Ġhabs": 7237,
      "Ġobj": 7238,
      "ĠAnd": 7239,
      "ĠAPI": 7240,
      "coder": 7241,
      "rational": 7242,
      "Pt": 7243,
      "Ġelabor": 7244,
      "649": 7245,
      "Ġ(âĭ": 7246,
      "Ġbr": 7247,
      "Ġhpow": 7248,
      "pole": 7249,
      "ĠProb": 7250,
      "Ġ[(-": 7251,
      "314": 7252,
      "Forall": 7253,
      "Ġseparate": 7254,
      "geometry": 7255,
      "Ġhres": 7256,
      "AlgebraicClosure": 7257,
      "316": 7258,
      "NumberField": 7259,
      "Ġplatform": 7260,
      "âĶĢâĶĢâĶĢâĶĢâĶĢâĶĢâĶĢâĶĢâĶĢâĶĢâĶĢâĶĢâĶĢâĶĢâĶĢâĶĢ": 7261,
      "normalize": 7262,
      "Exists": 7263,
      "rowG": 7264,
      "prd": 7265,
      "309": 7266,
      "hand": 7267,
      "718": 7268,
      "ern": 7269,
      "Case": 7270,
      "Nth": 7271,
      "Ġslice": 7272,
      "ted": 7273,
      "Transport": 7274,
      "times": 7275,
      "BP": 7276,
      "FiniteType": 7277,
      "Ġcomap": 7278,
      "ElabM": 7279,
      "types": 7280,
      "Packed": 7281,
      "Ġzpow": 7282,
      "589": 7283,
      "hÏģ": 7284,
      "Ġtak": 7285,
      "Dynamic": 7286,
      "locally": 7287,
      "ITH": 7288,
      "adget": 7289,
      "Ġiapply": 7290,
      "Classes": 7291,
      "ternating": 7292,
      "enc": 7293,
      "Ġener": 7294,
      "oidal": 7295,
      "adata": 7296,
      "249": 7297,
      "ĠBox": 7298,
      "Capacity": 7299,
      "anding": 7300,
      "HalfPlane": 7301,
      ")[": 7302,
      "Increment": 7303,
      "cpw": 7304,
      "parse": 7305,
      "cG": 7306,
      "5536": 7307,
      "Ġta": 7308,
      "Ġpin": 7309,
      "Blocks": 7310,
      "Sl": 7311,
      "Ġhnorm": 7312,
      "Datum": 7313,
      "cval": 7314,
      "Ġhval": 7315,
      "Ġprob": 7316,
      "sures": 7317,
      "TorusHigherHomology": 7318,
      "Ġsatisfy": 7319,
      "127": 7320,
      "644": 7321,
      "ffective": 7322,
      "Ġdispatch": 7323,
      "lookup": 7324,
      "Ġvals": 7325,
      "series": 7326,
      "Ġgamma": 7327,
      "Ġct": 7328,
      ".\"": 7329,
      "polar": 7330,
      "Ġconstruct": 7331,
      "Ġarithmetic": 7332,
      "ĠWithTop": 7333,
      "548": 7334,
      "Ġrhat": 7335,
      "orrected": 7336,
      "Countable": 7337,
      "orizon": 7338,
      "hsub": 7339,
      "ĠMean": 7340,
      "Ġok": 7341,
      "79742": 7342,
      "tower": 7343,
      "Gram": 7344,
      "408": 7345,
      "zsmul": 7346,
      "âĤĴ": 7347,
      "aster": 7348,
      "298": 7349,
      "Ġ/-": 7350,
      "135": 7351,
      "206": 7352,
      "Selected": 7353,
      "Marker": 7354,
      "_âĢº": 7355,
      "undef": 7356,
      "memory": 7357,
      "translate": 7358,
      "divKTrialCallV": 7359,
      "torus": 7360,
      "Ġrandom": 7361,
      "ĠSummable": 7362,
      "Adele": 7363,
      "342": 7364,
      "566": 7365,
      "ashr": 7366,
      "ĠUSize": 7367,
      "Assign": 7368,
      "Ġ=================================": 7369,
      "Threshold": 7370,
      "Semantic": 7371,
      "status": 7372,
      "ĠâĪĴ": 7373,
      "ĠCard": 7374,
      "process": 7375,
      "Elliptic": 7376,
      "Ġrevert": 7377,
      "ĠevmSp": 7378,
      "449": 7379,
      "induced": 7380,
      "ofList": 7381,
      "Ġdouble": 7382,
      "Then": 7383,
      "steps": 7384,
      "âĪŀ}": 7385,
      "Ġhinj": 7386,
      "Anchor": 7387,
      "vl": 7388,
      "multiplic": 7389,
      "Ġchi": 7390,
      "hold": 7391,
      "ohn": 7392,
      "386": 7393,
      "general": 7394,
      "Ġcrossing": 7395,
      "Ġblocks": 7396,
      "Ġaeval": 7397,
      "Success": 7398,
      "tempt": 7399,
      "244": 7400,
      "OrderAt": 7401,
      "ĠTheorems": 7402,
      "Cry": 7403,
      "ĠProblem": 7404,
      "195": 7405,
      "spatial": 7406,
      "ully": 7407,
      "allel": 7408,
      "Modulus": 7409,
      "Ġindexed": 7410,
      "ervation": 7411,
      "Ġhpre": 7412,
      "operator": 7413,
      "InBounds": 7414,
      "flatMap": 7415,
      "ĠByteArray": 7416,
      "rf": 7417,
      "besgue": 7418,
      "Ġenergy": 7419,
      "cert": 7420,
      "insertMany": 7421,
      "Generic": 7422,
      ")\"": 7423,
      "bits": 7424,
      "bin": 7425,
      "Ġgroups": 7426,
      "instantiate": 7427,
      "Expand": 7428,
      "Fresh": 7429,
      "ĠLet": 7430,
      "Ġrlp": 7431,
      "Ġ31": 7432,
      "506": 7433,
      "admap": 7434,
      "periodic": 7435,
      "Ġtheorems": 7436,
      "Ġcentral": 7437,
      "ĠAtlas": 7438,
      "Ġâ¨Ĩ": 7439,
      "Ft": 7440,
      "RS": 7441,
      "ĠAb": 7442,
      "Ġlambda": 7443,
      "Haar": 7444,
      "Ġ[-": 7445,
      "}\\": 7446,
      "Ġcontradiction": 7447,
      "Ġim": 7448,
      "Ġtuple": 7449,
      "Ġrem": 7450,
      "KL": 7451,
      "Ġdx": 7452,
      "solution": 7453,
      "apper": 7454,
      "Ġinductive": 7455,
      "ĠPoly": 7456,
      "flag": 7457,
      "Below": 7458,
      "Ġâĭĥ": 7459,
      "Optim": 7460,
      "ĠSobolev": 7461,
      "Skip": 7462,
      "Te": 7463,
      "cnormOn": 7464,
      "submodule": 7465,
      "Cases": 7466,
      "gpfac": 7467,
      "]`.": 7468,
      "uplic": 7469,
      "mkConst": 7470,
      "Cmd": 7471,
      "trins": 7472,
      "Bra": 7473,
      "Assoc": 7474,
      "HopfAlgebra": 7475,
      "Use": 7476,
      "See": 7477,
      "number": 7478,
      "hpos": 7479,
      "Ġnhds": 7480,
      "488": 7481,
      "CLike": 7482,
      "segment": 7483,
      "204": 7484,
      "Ġmono": 7485,
      "restrictScalars": 7486,
      "Ġcply": 7487,
      "lenoidal": 7488,
      "ĠComple": 7489,
      "checked": 7490,
      "Ġ_)).": 7491,
      "that": 7492,
      "165": 7493,
      "Ġcurve": 7494,
      "ĠLemmaS": 7495,
      "ever": 7496,
      "ĠConcrete": 7497,
      "whisker": 7498,
      "Ġvelocity": 7499,
      "Ġevaluation": 7500,
      "carry": 7501,
      "Ġprims": 7502,
      "Psi": 7503,
      "Ġedist": 7504,
      "Ġarity": 7505,
      "current": 7506,
      "ze": 7507,
      "osite": 7508,
      "Ġhtv": 7509,
      "CallAddback": 7510,
      "Cof": 7511,
      "Ġcod": 7512,
      "indexed": 7513,
      "account": 7514,
      "Ġdvd": 7515,
      "ĠCardinal": 7516,
      "ĠTactic": 7517,
      "ĠEuclidean": 7518,
      "374": 7519,
      "inputs": 7520,
      "Fundamental": 7521,
      "Multiplic": 7522,
      "division": 7523,
      "EquivBEq": 7524,
      "associ": 7525,
      "notation": 7526,
      "encoding": 7527,
      "ĠNote": 7528,
      "Reduced": 7529,
      "Ġexpres": 7530,
      "tour": 7531,
      "]}": 7532,
      "Ġavoid": 7533,
      "ĠgetKey": 7534,
      "Beta": 7535,
      "Ġlong": 7536,
      "Ġderiving": 7537,
      "torsion": 7538,
      "Ġassociated": 7539,
      "Integer": 7540,
      "Ġdensity": 7541,
      "ĠPower": 7542,
      "786": 7543,
      "794": 7544,
      "hÎ·": 7545,
      "Patch": 7546,
      "Ġlanguage": 7547,
      "Â¬": 7548,
      "586": 7549,
      "759": 7550,
      "tilde": 7551,
      "clzResult": 7552,
      "ĠCb": 7553,
      "idity": 7554,
      "ĠâĢ¦": 7555,
      "rn": 7556,
      "Ġdone": 7557,
      "880": 7558,
      "db": 7559,
      "Ġsingleton": 7560,
      "âŁ¦": 7561,
      "FunLike": 7562,
      "Ġapplied": 7563,
      "Example": 7564,
      "Intersect": 7565,
      "Ġbudget": 7566,
      "instIs": 7567,
      "ĠdivK": 7568,
      "334": 7569,
      "266": 7570,
      "*]": 7571,
      "ĠSimpleGraph": 7572,
      "grange": 7573,
      "Good": 7574,
      "Bijective": 7575,
      "Ġ<|>": 7576,
      "Ġoperations": 7577,
      "Object": 7578,
      "slope": 7579,
      "discrete": 7580,
      "roid": 7581,
      "Ġhcore": 7582,
      "990": 7583,
      "Ġ_)]": 7584,
      "ĠPositive": 7585,
      "hY": 7586,
      "ĠâĦĭ": 7587,
      "lace": 7588,
      "Ġgenerator": 7589,
      "ished": 7590,
      "emmas": 7591,
      "cker": 7592,
      "Ġgas": 7593,
      "Frozen": 7594,
      "Ġcorrect": 7595,
      "loping": 7596,
      "Ġqb": 7597,
      "Ġmd": 7598,
      "ĠTag": 7599,
      "intervalIntegrable": 7600,
      "Ġhadd": 7601,
      "Ġrepresentative": 7602,
      "Ġte": 7603,
      "Ġ35": 7604,
      "primeFactors": 7605,
      "hmem": 7606,
      "Relative": 7607,
      "338": 7608,
      "gf": 7609,
      "FE": 7610,
      "uter": 7611,
      "now": 7612,
      "tan": 7613,
      "hether": 7614,
      "SFP": 7615,
      "ohnson": 7616,
      "apter": 7617,
      "###": 7618,
      "forallE": 7619,
      "Alias": 7620,
      "pf": 7621,
      ":::": 7622,
      "IsIntegral": 7623,
      "Ġmathlib": 7624,
      "Ġes": 7625,
      "ining": 7626,
      "Ġhdiff": 7627,
      "frakA": 7628,
      "Segment": 7629,
      "Ġscheme": 7630,
      "ĠReadings": 7631,
      "Ġpotential": 7632,
      "ropy": 7633,
      "Ġâīª": 7634,
      "ĠLp": 7635,
      "ĊĠĠĠĠĠĠĠĠĠĠĠĠĠĠĠĠĠĠĠĠĠĠĠĠĠĠĠĠĠĠĠĠĠĠĠĠĠĠĠĠĠĠĠĠĠĠĠ": 7636,
      "infinite": 7637,
      "ĠCl": 7638,
      "request": 7639,
      "known": 7640,
      "âŁ¯": 7641,
      "Ġ&": 7642,
      "âŁ®": 7643,
      "Ġcardinal": 7644,
      "Ġhow": 7645,
      "construct": 7646,
      "tesian": 7647,
      "ĠIntW": 7648,
      "road": 7649,
      "ĠpreB": 7650,
      "ĠâĢ¹_âĢº": 7651,
      "fibre": 7652,
      "ormula": 7653,
      "Ġcnpi": 7654,
      "DiffOn": 7655,
      "ĠVerity": 7656,
      "Ġhdeg": 7657,
      "II": 7658,
      "Ġheta": 7659,
      "setup": 7660,
      "332": 7661,
      "host": 7662,
      "ĠâĨª": 7663,
      "Ġtogether": 7664,
      "cluded": 7665,
      "adeleBdd": 7666,
      "bad": 7667,
      "182": 7668,
      "sse": 7669,
      "ley": 7670,
      "contract": 7671,
      "Ġalias": 7672,
      "489": 7673,
      "ĠcontinuousOn": 7674,
      "Ġstatements": 7675,
      "ĠĠĠĠĠĠĠĠĠĠ": 7676,
      "Ġhexp": 7677,
      "StateField": 7678,
      "inp": 7679,
      "Ġ[[": 7680,
      "merge": 7681,
      "eep": 7682,
      "orient": 7683,
      "Package": 7684,
      "âĤĤâĤĥ": 7685,
      "Ġmeans": 7686,
      "circuit": 7687,
      "Hull": 7688,
      "Ġ100000": 7689,
      "ĠMonotone": 7690,
      "689": 7691,
      "Singleton": 7692,
      "fresh": 7693,
      "âŁ©;": 7694,
      "ĠRad": 7695,
      "Ġangle": 7696,
      "Background": 7697,
      "sext": 7698,
      "ĠReaches": 7699,
      "issing": 7700,
      "Ġforget": 7701,
      "xeter": 7702,
      "Coll": 7703,
      "Ġprobability": 7704,
      "Ġwff": 7705,
      "===========": 7706,
      "Ġvectors": 7707,
      "ĠKc": 7708,
      "ners": 7709,
      "Ġactive": 7710,
      "ĠRepr": 7711,
      "Ġ@[": 7712,
      "Consts": 7713,
      "Ġproves": 7714,
      "aurel": 7715,
      "herent": 7716,
      "Ġsimpl": 7717,
      "Color": 7718,
      "inding": 7719,
      "Ġpermutation": 7720,
      "ĠÎ£": 7721,
      "Ġmy": 7722,
      "Ġtorus": 7723,
      "Periodic": 7724,
      "ookup": 7725,
      "Even": 7726,
      "Faithful": 7727,
      "536": 7728,
      "Xt": 7729,
      "Ġsite": 7730,
      "ĠMvPowerSeries": 7731,
      "Opposite": 7732,
      "Ġlimb": 7733,
      "ugt": 7734,
      "Identity": 7735,
      "Ġprincipal": 7736,
      "mptot": 7737,
      "'),": 7738,
      "NormV": 7739,
      "pattern": 7740,
      "Ġdeg": 7741,
      "elpers": 7742,
      "306": 7743,
      "ODE": 7744,
      "Active": 7745,
      "ĠpaperVariableArity": 7746,
      "region": 7747,
      "}>": 7748,
      "clm": 7749,
      "346": 7750,
      "Ġrot": 7751,
      "Ġpreimage": 7752,
      "LICENSE": 7753,
      "ContinuousMap": 7754,
      "Ġuni": 7755,
      "Hermitian": 7756,
      "ĠThree": 7757,
      "sorted": 7758,
      "ĠhtIn": 7759,
      "energy": 7760,
      "ned": 7761,
      "Ġfresh": 7762,
      "ĠKernel": 7763,
      "Rhat": 7764,
      "ĠMemLp": 7765,
      "ĠDI": 7766,
      "ets": 7767,
      "otop": 7768,
      "cfc": 7769,
      "Ġfollows": 7770,
      "ĠCS": 7771,
      "validate": 7772,
      "reassoc": 7773,
      "Floor": 7774,
      "Angle": 7775,
      "endence": 7776,
      "Ġadele": 7777,
      "Ġ_;": 7778,
      "oisson": 7779,
      "ines": 7780,
      "ware": 7781,
      "Ġpairing": 7782,
      "779": 7783,
      "Ġ1048": 7784,
      "698": 7785,
      "pairing": 7786,
      "Ġerw": 7787,
      "ittle": 7788,
      "pointwise": 7789,
      "Genus": 7790,
      "yNat": 7791,
      "Î£": 7792,
      "sWith": 7793,
      "literal": 7794,
      "âī«": 7795,
      "ĠWeight": 7796,
      "Ġabsolute": 7797,
      "Suffix": 7798,
      "Ġnamed": 7799,
      "ensed": 7800,
      "Ġfoo": 7801,
      "posed": 7802,
      "ailable": 7803,
      "Ġpairs": 7804,
      "Composition": 7805,
      "win": 7806,
      "falso": 7807,
      "reindex": 7808,
      "LocalResidue": 7809,
      "blocks": 7810,
      "Ġops": 7811,
      "Germ": 7812,
      "Ġfan": 7813,
      "ĠĠĠĠĠĠĠĠĠĠĠ": 7814,
      "246": 7815,
      "Ġbbar": 7816,
      "ĠGame": 7817,
      "Ġ2025": 7818,
      "veq": 7819,
      "ĠContext": 7820,
      "nost": 7821,
      "ĠRingGeom": 7822,
      "ĠSigned": 7823,
      "OfPoint": 7824,
      "ÏĨs": 7825,
      "345": 7826,
      "Command": 7827,
      "ĠFree": 7828,
      "ĠContMDiff": 7829,
      "Ġview": 7830,
      "Ġelim": 7831,
      "trinsic": 7832,
      "Definition": 7833,
      "ĠHasFDerivAt": 7834,
      "âĤĸ": 7835,
      "finity": 7836,
      "Ġ(#": 7837,
      "âĢĸâĤĬ": 7838,
      "bash": 7839,
      "ots": 7840,
      "ĠResult": 7841,
      "Ġrelative": 7842,
      "rability": 7843,
      "Ġtsum": 7844,
      "anishes": 7845,
      "Ġstates": 7846,
      "746": 7847,
      "Ġcoord": 7848,
      "Ġadversary": 7849,
      "546": 7850,
      "Ġfailure": 7851,
      "Ġmonad": 7852,
      "ĠOperationPtr": 7853,
      "fa": 7854,
      "Status": 7855,
      "Ġrate": 7856,
      "ToHom": 7857,
      "tB": 7858,
      "certificate": 7859,
      "Ma": 7860,
      "null": 7861,
      "Adv": 7862,
      "rone": 7863,
      "Address": 7864,
      "Ġrecursive": 7865,
      "Cech": 7866,
      "Symmetric": 7867,
      "LawfulHashable": 7868,
      "Ġmixed": 7869,
      "Terms": 7870,
      "Ġalways": 7871,
      "ĠdpreP": 7872,
      "TorchLean": 7873,
      "So": 7874,
      "near": 7875,
      "Ġmetric": 7876,
      "ĠRiemann": 7877,
      "below": 7878,
      "ĠDesign": 7879,
      "739": 7880,
      "Agrad": 7881,
      "Ordinary": 7882,
      "DivMod": 7883,
      "Ġdemodulation": 7884,
      "Stress": 7885,
      "geny": 7886,
      "Ġmo": 7887,
      "Ġprog": 7888,
      "Ġbad": 7889,
      "vals": 7890,
      "Ġdenominator": 7891,
      "Note": 7892,
      "Ġ<-": 7893,
      "750": 7894,
      "Project": 7895,
      "ãģĦ": 7896,
      "âģ°": 7897,
      "berg": 7898,
      "ĠNumber": 7899,
      "hott": 7900,
      "Ġwritten": 7901,
      "BI": 7902,
      "While": 7903,
      "Ġ`-": 7904,
      "Ġhdvd": 7905,
      "Ġâģħ": 7906,
      "DensityRational": 7907,
      "Reduce": 7908,
      "SVDensityRational": 7909,
      "dpre": 7910,
      "Ġgeneralize": 7911,
      "gradient": 7912,
      "Ġchosen": 7913,
      "Marked": 7914,
      "system": 7915,
      "}$": 7916,
      "han": 7917,
      "Link": 7918,
      "hÏĩ": 7919,
      "Tstar": 7920,
      "162": 7921,
      "ugation": 7922,
      "iformula": 7923,
      "Ġprocess": 7924,
      "hZ": 7925,
      "pieceFam": 7926,
      "=>": 7927,
      "ofPred": 7928,
      "ĠfourFive": 7929,
      "Ġmorphisms": 7930,
      "thetaSeed": 7931,
      "isance": 7932,
      "counit": 7933,
      "verify": 7934,
      "Ġrequires": 7935,
      "event": 7936,
      "onic": 7937,
      "Ġkk": 7938,
      "ĠlistLen": 7939,
      "Ġfactors": 7940,
      "714": 7941,
      "Ġ```": 7942,
      "andidates": 7943,
      "âľ": 7944,
      "Ġfinitely": 7945,
      "Ġirreducible": 7946,
      "Typed": 7947,
      "Ġpartition": 7948,
      "amming": 7949,
      "hasDerivWithinAt": 7950,
      "Frobenius": 7951,
      "emat": 7952,
      "Alpha": 7953,
      "Ġhistory": 7954,
      "ĠPiLp": 7955,
      "Ġbasic": 7956,
      "CT": 7957,
      "Ġfiber": 7958,
      "Ġcost": 7959,
      "ĠinvFun": 7960,
      "Ġconnected": 7961,
      "covered": 7962,
      "ĠSlow": 7963,
      "functions": 7964,
      "ĠmvarId": 7965,
      "gg": 7966,
      "iance": 7967,
      "Ġexecution": 7968,
      "Iterator": 7969,
      "hest": 7970,
      "Graded": 7971,
      "Ġhcl": 7972,
      "ossible": 7973,
      "odge": 7974,
      "ĠArithmetic": 7975,
      "350": 7976,
      "cher": 7977,
      "Ġuniversal": 7978,
      "icensed": 7979,
      "ĠModel": 7980,
      "Ġnear": 7981,
      "Riemann": 7982,
      "Ã¶": 7983,
      "Ġoutside": 7984,
      "NoX": 7985,
      "âŁ©âŁ©âŁ©âŁ©âŁ©âŁ©âŁ©âŁ©": 7986,
      "mulation": 7987,
      "ĠContDiffAt": 7988,
      "ĠÎŀ": 7989,
      "threshold": 7990,
      "mmetry": 7991,
      "Submonoid": 7992,
      "ĠofReal": 7993,
      "ĠConstant": 7994,
      "Security": 7995,
      "rv": 7996,
      "Ġslow": 7997,
      "localGet": 7998,
      "formed": 7999,
      "Ġtranslate": 8000,
      "ĠDo": 8001,
      "Ġtoken": 8002,
      "Abelian": 8003,
      "ĠautoImplicit": 8004,
      "Mid": 8005,
      "732": 8006,
      "ĠProbability": 8007,
      "Balance": 8008,
      "choice": 8009,
      "Ġprevious": 8010,
      "NN": 8011,
      "Ġhms": 8012,
      "339": 8013,
      "Denominator": 8014,
      "Ġ55": 8015,
      "thonormal": 8016,
      "Elim": 8017,
      "idiagonal": 8018,
      "Ġtranslation": 8019,
      "roth": 8020,
      "Logic": 8021,
      "Ġsm": 8022,
      "cfg": 8023,
      "356": 8024,
      "StronglyMeasurable": 8025,
      "hJ": 8026,
      "Ġbeq": 8027,
      "Semidef": 8028,
      "lude": 8029,
      "antum": 8030,
      "366": 8031,
      "Ġjoin": 8032,
      "jecture": 8033,
      "ĠdeclName": 8034,
      "sa": 8035,
      "122": 8036,
      "olicy": 8037,
      "illing": 8038,
      "Ġtakes": 8039,
      "Ġtransform": 8040,
      "lcm": 8041,
      "GT": 8042,
      "standard": 8043,
      "ĠTe": 8044,
      "cycles": 8045,
      "}.": 8046,
      "Ġ72": 8047,
      "ankPaperRealization": 8048,
      "Ġordinary": 8049,
      "Ġproblem": 8050,
      "Ġnonnegative": 8051,
      "Ġdirections": 8052,
      "oted": 8053,
      "iteratedDeriv": 8054,
      "Ġcos": 8055,
      "Ġ\"\"": 8056,
      "tilt": 8057,
      "Ġsaddle": 8058,
      "ĠPair": 8059,
      "796": 8060,
      "Opt": 8061,
      "Ġformalization": 8062,
      "Multiset": 8063,
      "arithm": 8064,
      "hÎ³": 8065,
      "Gadget": 8066,
      "atter": 8067,
      "Lemma": 8068,
      "Ġjoint": 8069,
      "Profiles": 8070,
      "compose": 8071,
      "lambda": 8072,
      "Noetherian": 8073,
      "ĠParser": 8074,
      "[(": 8075,
      "Ġimplies": 8076,
      "205": 8077,
      "ĠfullDivN": 8078,
      "337": 8079,
      "Multiplier": 8080,
      "Ġfailed": 8081,
      "ĠTopological": 8082,
      "ised": 8083,
      "Ġâīĥ+": 8084,
      "ĠPaper": 8085,
      "ActualPrimary": 8086,
      "history": 8087,
      "LIB": 8088,
      ",(": 8089,
      "denom": 8090,
      "vrey": 8091,
      "Primes": 8092,
      "Fra": 8093,
      "ronecker": 8094,
      "255": 8095,
      "xa": 8096,
      "atibility": 8097,
      "ĠDesignParams": 8098,
      "ĠCs": 8099,
      "degenerate": 8100,
      "Defect": 8101,
      "ĠCM": 8102,
      "icontinuous": 8103,
      "646": 8104,
      "Ġdefines": 8105,
      "commut": 8106,
      "cro": 8107,
      "Homogeneous": 8108,
      "778": 8109,
      "Reflection": 8110,
      "Ġ68": 8111,
      "CallAddbackBeq": 8112,
      "Ġcells": 8113,
      "AU": 8114,
      "Bundle": 8115,
      "EE": 8116,
      "nontrivial": 8117,
      "Ġuser": 8118,
      "ĠcpsBranchWithin": 8119,
      "Ġsignature": 8120,
      "ĠZero": 8121,
      "lects": 8122,
      "ES": 8123,
      "ably": 8124,
      "memLp": 8125,
      "hÎ±": 8126,
      "EvmAsm": 8127,
      "Ġepsilon": 8128,
      "Ġcnp": 8129,
      "ighest": 8130,
      "Ġtl": 8131,
      "Refin": 8132,
      "232": 8133,
      "hÎ¸": 8134,
      "Exit": 8135,
      "596": 8136,
      "foldr": 8137,
      "yle": 8138,
      "FiniteMeasure": 8139,
      "Representative": 8140,
      "activ": 8141,
      "Ġreport": 8142,
      "ĠsepConj": 8143,
      "Ġscaled": 8144,
      "ilde": 8145,
      "Game": 8146,
      "Ġhsplit": 8147,
      "ĠDecidableEq": 8148,
      "Autograd": 8149,
      "ER": 8150,
      "Ġwant": 8151,
      "nodeRel": 8152,
      "getApp": 8153,
      "Natural": 8154,
      "Used": 8155,
      "symptot": 8156,
      "Outcome": 8157,
      "Ġhdet": 8158,
      "Distance": 8159,
      "Ġstated": 8160,
      "Ġ(â¨": 8161,
      "orith": 8162,
      "Ġcbl": 8163,
      "ĠirContract": 8164,
      "ĠmemOwn": 8165,
      "Ġattribute": 8166,
      "Ġadv": 8167,
      "Ġrules": 8168,
      "Ġmeasu": 8169,
      "ssion": 8170,
      "elem": 8171,
      "Ġfs": 8172,
      "OfNat": 8173,
      "446": 8174,
      "888": 8175,
      "edar": 8176,
      "ĠNOT": 8177,
      "Negative": 8178,
      "ĠiSup": 8179,
      "Disc": 8180,
      "Alice": 8181,
      "emit": 8182,
      "uestion": 8183,
      "Ġintegers": 8184,
      "774": 8185,
      "ĠFrame": 8186,
      "585": 8187,
      "Orthogonal": 8188,
      "ificates": 8189,
      ">}>": 8190,
      "super": 8191,
      "isIntegral": 8192,
      "finsupp": 8193,
      "symmetric": 8194,
      "Ġestimate": 8195,
      "Bilin": 8196,
      "adv": 8197,
      "mkApp": 8198,
      "âī¤": 8199,
      "Parameters": 8200,
      "Ġ1000000000000000": 8201,
      "Overlap": 8202,
      "MeshIntersect": 8203,
      "CW": 8204,
      "quality": 8205,
      "clock": 8206,
      "Continu": 8207,
      "cott": 8208,
      "aplacian": 8209,
      "Twist": 8210,
      "cluding": 8211,
      "Ġ<{\"": 8212,
      "6422": 8213,
      "Ġbalance": 8214,
      "ĠPressureStream": 8215,
      "law": 8216,
      "Argument": 8217,
      "Ġcolimit": 8218,
      "Ġrd": 8219,
      "ĠFull": 8220,
      "Ġexfalso": 8221,
      "Enveloping": 8222,
      "mux": 8223,
      "ZeroDivisors": 8224,
      "Ġaccount": 8225,
      "ĠMeasurableSpace": 8226,
      "ĠBack": 8227,
      "Ġreads": 8228,
      "Ġcrest": 8229,
      "OfShape": 8230,
      ")];": 8231,
      "uch": 8232,
      "CommHopfAlgCat": 8233,
      "Ġ36240869": 8234,
      "Immersion": 8235,
      "Ġstd": 8236,
      "RingEnd": 8237,
      "statement": 8238,
      "Ġreduced": 8239,
      "Ġassign": 8240,
      "?,": 8241,
      "Ġassignment": 8242,
      "sheaf": 8243,
      "Ġhhi": 8244,
      "Shell": 8245,
      "sseld": 8246,
      "correct": 8247,
      "powerset": 8248,
      "acobi": 8249,
      "shear": 8250,
      "Ġivth": 8251,
      "Ġinclude": 8252,
      "Ġoracle": 8253,
      "Compose": 8254,
      "Bin": 8255,
      "Ġlater": 8256,
      "RingAut": 8257,
      "âģĦ": 8258,
      "fastmathFlags": 8259,
      "csup": 8260,
      "Drift": 8261,
      "Ġconstra": 8262,
      "Ġcfc": 8263,
      "ĠAnnot": 8264,
      "Ġjm": 8265,
      "ccent": 8266,
      "/(": 8267,
      "Public": 8268,
      "Ġalgebraic": 8269,
      "Ġpackage": 8270,
      "primary": 8271,
      "ä¸": 8272,
      "rou": 8273,
      "âģ¿": 8274,
      "imilarity": 8275,
      "iInf": 8276,
      "Multilinear": 8277,
      "ĠGraph": 8278,
      "Ġlimits": 8279,
      "rules": 8280,
      "234": 8281,
      "TableChunk": 8282,
      "724": 8283,
      "Bob": 8284,
      "Convolution": 8285,
      "Ġturn": 8286,
      "Fan": 8287,
      "Ġspecific": 8288,
      "ĠEven": 8289,
      "ender": 8290,
      "Ġcommutes": 8291,
      "eds": 8292,
      "Initialization": 8293,
      "Ġconstructed": 8294,
      "Ġnsmul": 8295,
      "272": 8296,
      "along": 8297,
      "polation": 8298,
      "NW": 8299,
      "imm": 8300,
      "builtin": 8301,
      "Ġlintegral": 8302,
      "ĠRuntime": 8303,
      "ĠPowerSeries": 8304,
      "allow": 8305,
      "7424": 8306,
      "Ġappend": 8307,
      "Ġom": 8308,
      "cipeKin": 8309,
      "KLNW": 8310,
      "ãģ¯": 8311,
      "tp": 8312,
      "Ġheight": 8313,
      "ators": 8314,
      "imede": 8315,
      "Moving": 8316,
      "Ġprec": 8317,
      "Ġrecords": 8318,
      "Ġspectral": 8319,
      "ĠIso": 8320,
      "facts": 8321,
      "aptive": 8322,
      "}[": 8323,
      "Ġleaves": 8324,
      "Ġnothing": 8325,
      "ĠMessage": 8326,
      "imedean": 8327,
      "als": 8328,
      "ĠRS": 8329,
      "Ġload": 8330,
      "Ġcharacteristic": 8331,
      "Nine": 8332,
      "ĠBasis": 8333,
      "Transition": 8334,
      "904": 8335,
      "Nilpotent": 8336,
      "ieck": 8337,
      "poImpl": 8338,
      "ĠInput": 8339,
      "Equivalence": 8340,
      "Odd": 8341,
      "lop": 8342,
      "IsDomain": 8343,
      "ented": 8344,
      "ĠSingular": 8345,
      "strictMono": 8346,
      "codable": 8347,
      "Ġembed": 8348,
      "Ġsort": 8349,
      "Elementary": 8350,
      "ince": 8351,
      "Ġgeometry": 8352,
      "jectures": 8353,
      "Ġhcon": 8354,
      "DistribMulAction": 8355,
      "ĠcongrFun": 8356,
      "Holomorphic": 8357,
      "Rlp": 8358,
      "alog": 8359,
      "Ġenvironment": 8360,
      "Ġreason": 8361,
      "Ġoccur": 8362,
      "310": 8363,
      "Ġoutcome": 8364,
      "185": 8365,
      "âŁ©]": 8366,
      "expect": 8367,
      "Ġhim": 8368,
      "endieck": 8369,
      "Ġacross": 8370,
      "rothendieck": 8371,
      "ĠIntegrableOn": 8372,
      "ĠtoString": 8373,
      "Ġcer": 8374,
      "anded": 8375,
      "constantCoeff": 8376,
      "ãĢģ": 8377,
      "nodup": 8378,
      "Threefold": 8379,
      "Digits": 8380,
      "Ġchoice": 8381,
      "otopic": 8382,
      "ĠCommRing": 8383,
      "interpret": 8384,
      "ba": 8385,
      "ĠAlgHom": 8386,
      "Ġcallee": 8387,
      "ccentric": 8388,
      "curry": 8389,
      "Ġknown": 8390,
      "313": 8391,
      "relation": 8392,
      "Ġgcd": 8393,
      "tuple": 8394,
      "ĠTH": 8395,
      "59742": 8396,
      "Axial": 8397,
      "satisf": 8398,
      "004": 8399,
      "ĠJson": 8400,
      "ModuleCat": 8401,
      "limb": 8402,
      "ĠChain": 8403,
      "thod": 8404,
      "priority": 8405,
      "Failure": 8406,
      "Ġmt": 8407,
      "Tm": 8408,
      "lend": 8409,
      "Ġ=================================================================": 8410,
      "Ġprotected": 8411,
      "âĤļ": 8412,
      "PT": 8413,
      "ivar": 8414,
      "Ġgoals": 8415,
      "amil": 8416,
      "595": 8417,
      "Ġhdis": 8418,
      "ĠJo": 8419,
      "ĠGe": 8420,
      "Ġev": 8421,
      "Ġ`âĪ": 8422,
      "Ġopaque": 8423,
      "[[": 8424,
      "Ġhneg": 8425,
      "translation": 8426,
      "Ġshe": 8427,
      "ĠRedu": 8428,
      "Frequency": 8429,
      "wex": 8430,
      "Ġwarning": 8431,
      "Ġimplementation": 8432,
      "Ġmultiset": 8433,
      "minKey": 8434,
      "dense": 8435,
      "ĠGoal": 8436,
      "Ġexternal": 8437,
      "Ġsupplies": 8438,
      "ĠTopologicalSpace": 8439,
      "';": 8440,
      "pushforward": 8441,
      "ĠCur": 8442,
      "295": 8443,
      "Swap": 8444,
      "cyclic": 8445,
      "velope": 8446,
      "LinearOrder": 8447,
      "Encode": 8448,
      "ĠRepoImpl": 8449,
      "inorm": 8450,
      "699": 8451,
      "Ġhts": 8452,
      "Signature": 8453,
      "ĠLinearEquiv": 8454,
      "ĠisClosed": 8455,
      "2879": 8456,
      "Ġsynthe": 8457,
      "Ġgre": 8458,
      "âĬ¢": 8459,
      "evmSp": 8460,
      "AtPrime": 8461,
      "mathbb": 8462,
      "dimension": 8463,
      "Ġpolar": 8464,
      "ãģĹ": 8465,
      "ĠðĿĶª": 8466,
      "Arc": 8467,
      "Decomposition": 8468,
      "Ġsn": 8469,
      "Ġmove": 8470,
      "Construction": 8471,
      "arginal": 8472,
      "258": 8473,
      "Secret": 8474,
      "766": 8475,
      "MVar": 8476,
      "375": 8477,
      "Ġmatches": 8478,
      "Ġctor": 8479,
      "717": 8480,
      "Ġwb": 8481,
      "Ġred": 8482,
      "revert": 8483,
      "Ġobjects": 8484,
      "Smul": 8485,
      "Ġsummable": 8486,
      "Ġchunk": 8487,
      "Cyclic": 8488,
      "Ġhterm": 8489,
      "pairwise": 8490,
      "ĠinferInstanceAs": 8491,
      "Ġdecidable": 8492,
      "âķĲâķĲâķĲâķĲâķĲâķĲâķĲâķĲâķĲâķĲâķĲâķĲâķĲâķĲâķĲâķĲ": 8493,
      "ĠâŁ¦": 8494,
      "]).": 8495,
      "Ġlib": 8496,
      "ĠOver": 8497,
      "210": 8498,
      "Ġwithin": 8499,
      "5940": 8500,
      "Ke": 8501,
      "ĠVec": 8502,
      "LC": 8503,
      "iers": 8504,
      "ĠElliptic": 8505,
      "multip": 8506,
      "Ġtbool": 8507,
      "ofBool": 8508,
      "ĠBuild": 8509,
      "âŁ©))": 8510,
      "ĠIsIntegral": 8511,
      "double": 8512,
      "Scoped": 8513,
      "poid": 8514,
      "ĠRatFunc": 8515,
      "Ġadjoint": 8516,
      "roupoid": 8517,
      "Roots": 8518,
      "726": 8519,
      "ĠFiniteDimensional": 8520,
      "Dot": 8521,
      "Matches": 8522,
      "ĠgetElem": 8523,
      "cost": 8524,
      "ãģĮ": 8525,
      "Rotation": 8526,
      "Ġbinder": 8527,
      "GF": 8528,
      "ĠWhen": 8529,
      "Cardinal": 8530,
      "LExpr": 8531,
      "explicit": 8532,
      "Ġweights": 8533,
      "lections": 8534,
      "Ġcomplement": 8535,
      "Language": 8536,
      "ĠExp": 8537,
      "vableSlots": 8538,
      "mapping": 8539,
      "'',": 8540,
      "Ġsurjective": 8541,
      "anual": 8542,
      "Ġremo": 8543,
      "ĠYulExpr": 8544,
      "ĠCoordinate": 8545,
      "Ġ;;": 8546,
      "ĠUse": 8547,
      "716": 8548,
      "Attrib": 8549,
      "Regularity": 8550,
      "={": 8551,
      "useBackward": 8552,
      "toAlgHom": 8553,
      "iteness": 8554,
      "Bial": 8555,
      "defeqAttrib": 8556,
      "Lemmas": 8557,
      "ramified": 8558,
      "Ġpcf": 8559,
      "rob": 8560,
      "Remainder": 8561,
      "adding": 8562,
      "Ġcpp": 8563,
      "Ġdf": 8564,
      "completeness": 8565,
      "dos": 8566,
      "ĠvTop": 8567,
      "228": 8568,
      "fveq": 8569,
      "irror": 8570,
      "Boxes": 8571,
      "ulift": 8572,
      "Ġnodes": 8573,
      "ĠImpl": 8574,
      "Ġauxiliary": 8575,
      "Ġ180": 8576,
      "Readings": 8577,
      "Ġerrors": 8578,
      "325": 8579,
      "assign": 8580,
      "Temp": 8581,
      "713": 8582,
      "Indexed": 8583,
      "noull": 8584,
      "Ġchecks": 8585,
      "Ġclasses": 8586,
      "ym": 8587,
      "ciprocal": 8588,
      "rnd": 8589,
      "noulli": 8590,
      "Ġaddition": 8591,
      "999": 8592,
      "ĠhO": 8593,
      "Transpose": 8594,
      "?.": 8595,
      "Unsupported": 8596,
      "uclid": 8597,
      "Hyper": 8598,
      "Hist": 8599,
      "Ġlink": 8600,
      "ĠInnerProductSpace": 8601,
      "ĠIntervalIntegrable": 8602,
      "SpecialLinearGroup": 8603,
      "Ġhrow": 8604,
      "isimp": 8605,
      "Roch": 8606,
      "hÎ¦": 8607,
      "Framework": 8608,
      "partialDeriv": 8609,
      "ĊĠĠĠĠĠĠĠĠĠĠĠĠĠĠĠĠĠĠĠĠĠĠĠĠĠĠĠĠĠĠĠĠĠĠĠĠĠĠĠĠĠĠĠĠĠĠĠĠĠ": 8610,
      "Diagram": 8611,
      "erable": 8612,
      "Ġcert": 8613,
      "Acc": 8614,
      "Im": 8615,
      "Ġcontrap": 8616,
      "305": 8617,
      "FC": 8618,
      "Ġnote": 8619,
      "Ġsqu": 8620,
      "$$": 8621,
      "ĠOmega": 8622,
      "Low": 8623,
      "Ġstrong": 8624,
      "Quiver": 8625,
      "Ġvariant": 8626,
      "ramification": 8627,
      "sn": 8628,
      "Ġderived": 8629,
      "ĠCtx": 8630,
      "shifted": 8631,
      "`(": 8632,
      "itical": 8633,
      "USize": 8634,
      "****": 8635,
      "Ġdistribution": 8636,
      "Ġerase": 8637,
      "Ġoverflow": 8638,
      "Packing": 8639,
      "ismatch": 8640,
      "nam": 8641,
      "Ġhok": 8642,
      "Ġeigen": 8643,
      "deriving": 8644,
      "eLpNorm": 8645,
      "kostant": 8646,
      "Ġnu": 8647,
      "Ġ__": 8648,
      "Stx": 8649,
      "Ġformat": 8650,
      "integrableOn": 8651,
      "Ġhence": 8652,
      "Symm": 8653,
      "rm": 8654,
      "iterN": 8655,
      "IZ": 8656,
      "gate": 8657,
      "Ġnormed": 8658,
      "ĠToric": 8659,
      "minimal": 8660,
      "ĠenvScale": 8661,
      "Ġ76": 8662,
      "neq": 8663,
      "Exceptional": 8664,
      "690": 8665,
      "CompactSpace": 8666,
      "ĠCom": 8667,
      "MVars": 8668,
      "Ġanti": 8669,
      "Options": 8670,
      "ĠIdent": 8671,
      "ĠMonad": 8672,
      "oundness": 8673,
      "precond": 8674,
      "Ġconstants": 8675,
      "Contra": 8676,
      "shrs": 8677,
      "Scaled": 8678,
      "FFFF": 8679,
      "Process": 8680,
      "Ġtgt": 8681,
      "Ġbeen": 8682,
      "Iface": 8683,
      "Ġaff": 8684,
      "ersistent": 8685,
      "Ġtwp": 8686,
      "disj": 8687,
      "ĠMÎ²": 8688,
      "Hecke": 8689,
      "obs": 8690,
      "Ġnontrivial": 8691,
      "Ġdest": 8692,
      "710": 8693,
      "xy": 8694,
      "ClosureAt": 8695,
      "reduced": 8696,
      "lamp": 8697,
      "ĠBt": 8698,
      "chartAt": 8699,
      "ĠpointsTo": 8700,
      "Ġ{(": 8701,
      "illation": 8702,
      "uint": 8703,
      "iding": 8704,
      "orithm": 8705,
      "ĠUnique": 8706,
      "Ġ($": 8707,
      "Ġashrs": 8708,
      "Ġappe": 8709,
      "ĠGamma": 8710,
      "Ġdiscrete": 8711,
      "Rewrite": 8712,
      "Semigroup": 8713,
      "Ġâĩĳ(": 8714,
      "Ġhxc": 8715,
      "tention": 8716,
      "Ġdefining": 8717,
      "herit": 8718,
      "pkg": 8719,
      "Ġenum": 8720,
      "238": 8721,
      "Ġdir": 8722,
      "009": 8723,
      "ĠWP": 8724,
      "Ġhsm": 8725,
      "ĠDist": 8726,
      "view": 8727,
      "ĠVerso": 8728,
      "EnvelopingAlgebra": 8729,
      "antrr": 8730,
      "Shapes": 8731,
      "AlgebraicGeometry": 8732,
      "LO": 8733,
      "Ġhidx": 8734,
      "Ġgood": 8735,
      "ĠCedar": 8736,
      "wner": 8737,
      "measurableSet": 8738,
      "density": 8739,
      "ãģ¦": 8740,
      "Approx": 8741,
      "Ġ============================================================================": 8742,
      "ĠscratchUn": 8743,
      "dCoord": 8744,
      "ĠSquare": 8745,
      "construction": 8746,
      "csuc": 8747,
      "homogeneous": 8748,
      "Ġ}]": 8749,
      "Ġâīªâī«": 8750,
      "ĠLaw": 8751,
      "Ġjal": 8752,
      "logb": 8753,
      "Hex": 8754,
      "Ġstructural": 8755,
      "lescope": 8756,
      "Ġ140": 8757,
      "taken": 8758,
      "Ġmultiple": 8759,
      "Ġwasm": 8760,
      "715": 8761,
      "procedure": 8762,
      "aa": 8763,
      "AdicCompletion": 8764,
      "Pairwise": 8765,
      "Ġavailable": 8766,
      "laHi": 8767,
      "Ġimm": 8768,
      "1368": 8769,
      "triz": 8770,
      "HomologyMap": 8771,
      "Ġsends": 8772,
      "Ids": 8773,
      "laLo": 8774,
      "implicit": 8775,
      "Ġweil": 8776,
      "372": 8777,
      "hÎ¼": 8778,
      "Ġ143": 8779,
      "ĠAxis": 8780,
      "arger": 8781,
      "atrices": 8782,
      "realize": 8783,
      "Ġcorrection": 8784,
      "ĠStateT": 8785,
      "Ġnom": 8786,
      "Ġker": 8787,
      "Ġhev": 8788,
      "Ġmonomial": 8789,
      "UpperRetained": 8790,
      "216": 8791,
      "independent": 8792,
      "athemat": 8793,
      "Load": 8794,
      "NCHOR": 8795,
      "151": 8796,
      "Expansion": 8797,
      "suffix": 8798,
      "primes": 8799,
      "Ġpsi": 8800,
      "Anti": 8801,
      "ActualSigned": 8802,
      "effective": 8803,
      "<-": 8804,
      "ĊĊĊĠ": 8805,
      "rull": 8806,
      "Ġintersection": 8807,
      "ĠValid": 8808,
      "ulated": 8809,
      "ï¼": 8810,
      "Ġthm": 8811,
      "Reader": 8812,
      "áµĢ": 8813,
      "Ġhmk": 8814,
      "chema": 8815,
      "Ġhpd": 8816,
      "Primitives": 8817,
      "Ġhenv": 8818,
      "Ġstrip": 8819,
      "EquivOf": 8820,
      "Ġwrapper": 8821,
      "tac": 8822,
      "Idempotent": 8823,
      "radical": 8824,
      "Ġ-/]": 8825,
      "wal": 8826,
      "Ġlengths": 8827,
      "iterm": 8828,
      "erate": 8829,
      "fs": 8830,
      "Ġwhether": 8831,
      "nect": 8832,
      "ĠLocally": 8833,
      "Dispatcher": 8834,
      "AV": 8835,
      "ĠReturn": 8836,
      "Ġsubstit": 8837,
      "ĠLExpr": 8838,
      "Dep": 8839,
      "ĠRegFile": 8840,
      "helper": 8841,
      "herence": 8842,
      "Ġharmonic": 8843,
      "Ġ4000000": 8844,
      "ĠValuationSubring": 8845,
      "lk": 8846,
      "swer": 8847,
      "Extra": 8848,
      "activate": 8849,
      "isimple": 8850,
      "bridge": 8851,
      "Claim": 8852,
      "Cs": 8853,
      "Ġgate": 8854,
      "ĠProfiles": 8855,
      "Derivation": 8856,
      "808": 8857,
      "wfn": 8858,
      "Annotated": 8859,
      "simplex": 8860,
      "Dword": 8861,
      "Certificates": 8862,
      "Cascade": 8863,
      "kew": 8864,
      "ropic": 8865,
      "coordinates": 8866,
      "Ġdrop": 8867,
      "Ġkeep": 8868,
      "orth": 8869,
      "236": 8870,
      "Ġ49": 8871,
      "ĠmulMod": 8872,
      "Binder": 8873,
      "PR": 8874,
      "stx": 8875,
      "ĠQueryImpl": 8876,
      "218": 8877,
      "Ġriemann": 8878,
      "uture": 8879,
      "ummy": 8880,
      "ĠOR": 8881,
      "jets": 8882,
      "Charge": 8883,
      "sdiv": 8884,
      "Ġiintro": 8885,
      "rical": 8886,
      "operators": 8887,
      "Ġdecomposition": 8888,
      "Ġtypeclass": 8889,
      "urb": 8890,
      "hzero": 8891,
      "Ġmapping": 8892,
      "indrical": 8893,
      "Ġhmax": 8894,
      "Ġcompare": 8895,
      "795": 8896,
      "register": 8897,
      "Ġâľ": 8898,
      "ĠBitTM": 8899,
      "Ġarm": 8900,
      "Ġ[\"": 8901,
      "770": 8902,
      "interp": 8903,
      "ĠSubsingleton": 8904,
      "represent": 8905,
      "ĠSchwartz": 8906,
      "ategories": 8907,
      "ĠANCHOR": 8908,
      "Ġcould": 8909,
      "Difference": 8910,
      "Ġinterpret": 8911,
      "Ã«": 8912,
      "macro": 8913,
      "reactivate": 8914,
      "Ġbundled": 8915,
      "1056": 8916,
      "Ġdite": 8917,
      "Ġlctx": 8918,
      "amond": 8919,
      "395": 8920,
      "maxKey": 8921,
      "Ġimplement": 8922,
      "Ġcursor": 8923,
      "Ġaverage": 8924,
      "Ġnested": 8925,
      "ĠRegular": 8926,
      "ĠAEStronglyMeasurable": 8927,
      "694": 8928,
      "Ġorbit": 8929,
      "âģº": 8930,
      "555": 8931,
      "Ġhpair": 8932,
      "'];": 8933,
      "Ġhell": 8934,
      "sTilt": 8935,
      "Ġelem": 8936,
      "PrincipalDivisors": 8937,
      "ĠSp": 8938,
      "ĠâĶĢ": 8939,
      "ĠConvex": 8940,
      "Ġsums": 8941,
      "Sharp": 8942,
      "Ġcfa": 8943,
      "direct": 8944,
      "Monic": 8945,
      "EvmWord": 8946,
      "NS": 8947,
      "Spectral": 8948,
      "Ġhws": 8949,
      "ĠSingularMayerVietoris": 8950,
      "aries": 8951,
      "raise": 8952,
      "Ġ((âĨĳ": 8953,
      "mming": 8954,
      "vect": 8955,
      "else": 8956,
      "IPC": 8957,
      "Ġapplication": 8958,
      "Ġdiagram": 8959,
      "Ġ96": 8960,
      "completion": 8961,
      "hbase": 8962,
      "Ġet": 8963,
      "riemann": 8964,
      "close": 8965,
      "directions": 8966,
      "âĢĶâĢĶâĢĶâĢĶ": 8967,
      "wt": 8968,
      "rist": 8969,
      "ĠAnt": 8970,
      "ĠTail": 8971,
      "ĠSo": 8972,
      "CR": 8973,
      "Unitary": 8974,
      "604": 8975,
      "Preorder": 8976,
      "ĠRow": 8977,
      "ĠInternal": 8978,
      "Cohomology": 8979,
      "âĨ¥": 8980,
      "ĠAnnotTerm": 8981,
      "ĠProtocol": 8982,
      "amber": 8983,
      "minpoly": 8984,
      "archy": 8985,
      "Ġdirectory": 8986,
      "cpsTripleWithin": 8987,
      "QHat": 8988,
      "alter": 8989,
      "queness": 8990,
      "ProductLayout": 8991,
      "intervalIntegral": 8992,
      "Ġexercise": 8993,
      "Ġkappa": 8994,
      "Summ": 8995,
      "levant": 8996,
      "pto": 8997,
      "itle": 8998,
      "AddMonoid": 8999,
      ")))))))": 9000,
      "775": 9001,
      "ðĿĶŃ": 9002,
      "Ġ-âĪĹ": 9003,
      "DegZero": 9004,
      "jOn": 9005,
      "Ġattr": 9006,
      "áµ¤": 9007,
      "inertia": 9008,
      "Ġ358": 9009,
      "Lookup": 9010,
      "Commute": 9011,
      "LieAlgebra": 9012,
      "Ġpe": 9013,
      "ĠData": 9014,
      "Ġ(âĭĥ": 9015,
      "Ġpat": 9016,
      "Monomial": 9017,
      "Colimits": 9018,
      "Ġser": 9019,
      "Ġsoft": 9020,
      "Ġinstantiate": 9021,
      "avitt": 9022,
      "twist": 9023,
      "geometric": 9024,
      "auth": 9025,
      "Ġsecret": 9026,
      "Ġdense": 9027,
      "rotate": 9028,
      "Covering": 9029,
      "lu": 9030,
      "ĠCopy": 9031,
      "Trig": 9032,
      "ĠFI": 9033,
      "homotopy": 9034,
      "Ġdifferential": 9035,
      "âĬ¥": 9036,
      "ante": 9037,
      "Ġvanishes": 9038,
      "212": 9039,
      "250": 9040,
      "Ġhtk": 9041,
      "BigO": 9042,
      "Builder": 9043,
      "Ġmerge": 9044,
      "Ġnomatch": 9045,
      "ture": 9046,
      "strong": 9047,
      "Interp": 9048,
      "ĠHeight": 9049,
      "Ġhbltu": 9050,
      "NormU": 9051,
      "hle": 9052,
      "609": 9053,
      "Explicit": 9054,
      "ĠHecke": 9055,
      "tsub": 9056,
      "Evaluation": 9057,
      "ãģª": 9058,
      "ĠĠĠĠĠĠĠĠĠĠĠĠĠ": 9059,
      "docstring": 9060,
      "ccentricity": 9061,
      "Polar": 9062,
      "Ġhsv": 9063,
      "Ori": 9064,
      "âľĿ": 9065,
      "Dart": 9066,
      "Price": 9067,
      "Ġcontrapose": 9068,
      "Ġstored": 9069,
      "409": 9070,
      "Condition": 9071,
      "686": 9072,
      "Ġexisting": 9073,
      "Payload": 9074,
      "LawfulMonad": 9075,
      "Ġexcept": 9076,
      "---": 9077,
      "Ġhsp": 9078,
      "Ġprint": 9079,
      "Ġvertices": 9080,
      "arly": 9081,
      "hÎº": 9082,
      "áµĩ": 9083,
      "msb": 9084,
      "equivalence": 9085,
      "Ġcfzo": 9086,
      "Ġhgen": 9087,
      "Ġauth": 9088,
      "Dict": 9089,
      "Ġhtransport": 9090,
      "trim": 9091,
      "Ġminimal": 9092,
      "Controls": 9093,
      "ATH": 9094,
      "ingu": 9095,
      "temp": 9096,
      "Ġlines": 9097,
      "cusp": 9098,
      "roughCanonical": 9099,
      "Ġ`@[": 9100,
      "ĠRc": 9101,
      "CommClass": 9102,
      "Refl": 9103,
      "279": 9104,
      "gon": 9105,
      "000000000000000000000000": 9106,
      "ĠProbComp": 9107,
      "hsum": 9108,
      "AUIPC": 9109,
      "dispatch": 9110,
      "ĠUpper": 9111,
      "trd": 9112,
      "Ġedges": 9113,
      "Eigen": 9114,
      "Ġhvalid": 9115,
      "Ġrestriction": 9116,
      "Ġsays": 9117,
      "olvent": 9118,
      "Ġcen": 9119,
      "Variables": 9120,
      "ĠFbar": 9121,
      "Pairs": 9122,
      "Ġfails": 9123,
      "ĠLayerParams": 9124,
      "ĠroughSaias": 9125,
      "Ġhnext": 9126,
      "toMatrix": 9127,
      "Ġchannel": 9128,
      "Ġverifier": 9129,
      "MetricSpace": 9130,
      "220": 9131,
      "]),": 9132,
      "ĠUniversal": 9133,
      "Ġuniverse": 9134,
      "Ġdon": 9135,
      "ĠKit": 9136,
      "Compile": 9137,
      "Ġproject": 9138,
      "NumberTheory": 9139,
      "Ġheap": 9140,
      "Ġgive": 9141,
      "**,": 9142,
      "localization": 9143,
      "hlen": 9144,
      "ĠcR": 9145,
      "rink": 9146,
      "normSq": 9147,
      "ĠLake": 9148,
      "Ġcontinuation": 9149,
      "ĠnP": 9150,
      "equalizer": 9151,
      "259": 9152,
      "functionField": 9153,
      "Cartan": 9154,
      "above": 9155,
      "ModularForm": 9156,
      "Ġcg": 9157,
      "Ġinline": 9158,
      "Ġexponential": 9159,
      "Ġcdprd": 9160,
      "IsPrime": 9161,
      "Parity": 9162,
      "Indicator": 9163,
      "Ġbump": 9164,
      "phiL": 9165,
      "Subspace": 9166,
      "ĠUint": 9167,
      "erating": 9168,
      "atat": 9169,
      "Admissible": 9170,
      "Only": 9171,
      "Ġproduces": 9172,
      "UniformSpace": 9173,
      "ĠCompilationModel": 9174,
      "Ġlean": 9175,
      "joinRoot": 9176,
      "229": 9177,
      "Eta": 9178,
      "incl": 9179,
      "sgt": 9180,
      "ĠSY": 9181,
      "ĠSubalgebra": 9182,
      "ĠPure": 9183,
      "Counter": 9184,
      "majorant": 9185,
      "Generates": 9186,
      "mulhu": 9187,
      "745": 9188,
      "atatype": 9189,
      "lipschitz": 9190,
      "ĠLeaf": 9191,
      "ĠEr": 9192,
      "None": 9193,
      "Factorial": 9194,
      "toBase": 9195,
      "amb": 9196,
      "inductionOn": 9197,
      "ĠDTreeMap": 9198,
      "ĠWITH": 9199,
      "LU": 9200,
      "dir": 9201,
      "tml": 9202,
      "Compatible": 9203,
      "Ġdif": 9204,
      "Characters": 9205,
      "Append": 9206,
      "Ġless": 9207,
      "approx": 9208,
      "Ġpairwise": 9209,
      "Ġprimes": 9210,
      "ractional": 9211,
      "Ġcomponents": 9212,
      "mit": 9213,
      "inhabited": 9214,
      "frontier": 9215,
      "Ġfourier": 9216,
      "Ġproducts": 9217,
      "ws": 9218,
      "Ġunits": 9219,
      "Ġ2024": 9220,
      "Ġtaylor": 9221,
      "Ġcoa": 9222,
      "LB": 9223,
      "ĠnMem": 9224,
      "ĠOpenAI": 9225,
      "Ġ89": 9226,
      "Ġbuilt": 9227,
      "adicValuation": 9228,
      "Ġforms": 9229,
      "ĠAnalyticAt": 9230,
      "Ġ200": 9231,
      "ĠhAB": 9232,
      "Ġabstract": 9233,
      "OmB": 9234,
      "toSubmodule": 9235,
      "Solve": 9236,
      "Ġ59": 9237,
      "Met": 9238,
      "Ġlq": 9239,
      "Ġobtained": 9240,
      "Corners": 9241,
      "contMDiff": 9242,
      "Ġautom": 9243,
      "ĠisValid": 9244,
      "Ġhshift": 9245,
      "ĠclosedBall": 9246,
      "breq": 9247,
      "Ġ58": 9248,
      "ofPDE": 9249,
      "continu": 9250,
      "ValuationRing": 9251,
      "Ġclaim": 9252,
      "Ġns": 9253,
      "hfg": 9254,
      "ĠMultiplicative": 9255,
      "OracleComp": 9256,
      "ĠâŁ¨[": 9257,
      "PDEIface": 9258,
      "otangent": 9259,
      "SectionNine": 9260,
      "Gevrey": 9261,
      "âĤĽâĤĹ": 9262,
      "ields": 9263,
      "163": 9264,
      "385": 9265,
      "Ġerr": 9266,
      "Ġruns": 9267,
      "Cvth": 9268,
      "ToEnd": 9269,
      "Prefixed": 9270,
      "ĠInc": 9271,
      "ĠEReal": 9272,
      "sIn": 9273,
      "AdeleRing": 9274,
      "Â»)": 9275,
      "lyConnected": 9276,
      "Ġunchanged": 9277,
      "keccak": 9278,
      "Ġotherwise": 9279,
      "226": 9280,
      "rename": 9281,
      "AC": 9282,
      "compare": 9283,
      "ĠProposition": 9284,
      "Ġ`_": 9285,
      "uarante": 9286,
      "ĠHilbert": 9287,
      "create": 9288,
      "Ġexpressions": 9289,
      "Ġcontaining": 9290,
      "Ġoa": 9291,
      "utine": 9292,
      "disch": 9293,
      "Ġ(âĪĳ'": 9294,
      "hmono": 9295,
      "};": 9296,
      "FVars": 9297,
      "''.": 9298,
      "ĠCauchy": 9299,
      "platform": 9300,
      "Functional": 9301,
      "Ġinterp": 9302,
      "ĠCoefficient": 9303,
      "ĠCorrectionState": 9304,
      "FDerivWithin": 9305,
      "HA": 9306,
      "ĠðĿĴ°": 9307,
      "ĠiterCount": 9308,
      "ihil": 9309,
      "added": 9310,
      "Ġuseful": 9311,
      "well": 9312,
      "Subsingleton": 9313,
      "Syn": 9314,
      "Ġ179": 9315,
      "adder": 9316,
      "ĠYulStmt": 9317,
      "Ġlookup": 9318,
      "rates": 9319,
      "foo": 9320,
      "Ġfrontier": 9321,
      "Division": 9322,
      "ski": 9323,
[...]
